unsigned char g_magic_wand_model_data[] = {
  0x1c, 0x00, 0x00, 0x00, 0x54, 0x46, 0x4c, 0x33, 0x14, 0x00, 0x20, 0x00,
  0x1c, 0x00, 0x18, 0x00, 0x14, 0x00, 0x10, 0x00, 0x0c, 0x00, 0x00, 0x00,
  0x08, 0x00, 0x04, 0x00, 0x14, 0x00, 0x00, 0x00, 0x1c, 0x00, 0x00, 0x00,
  0x98, 0x00, 0x00, 0x00, 0x18, 0x01, 0x00, 0x00, 0x60, 0x13, 0x00, 0x00,
  0x70, 0x13, 0x00, 0x00, 0x1c, 0x21, 0x00, 0x00, 0x03, 0x00, 0x00, 0x00,
  0x01, 0x00, 0x00, 0x00, 0x10, 0x00, 0x00, 0x00, 0x00, 0x00, 0x0a, 0x00,
  0x10, 0x00, 0x0c, 0x00, 0x08, 0x00, 0x04, 0x00, 0x0a, 0x00, 0x00, 0x00,
  0x0c, 0x00, 0x00, 0x00, 0x1c, 0x00, 0x00, 0x00, 0x3c, 0x00, 0x00, 0x00,
  0x0f, 0x00, 0x00, 0x00, 0x73, 0x65, 0x72, 0x76, 0x69, 0x6e, 0x67, 0x5f,
  0x64, 0x65, 0x66, 0x61, 0x75, 0x6c, 0x74, 0x00, 0x01, 0x00, 0x00, 0x00,
  0x04, 0x00, 0x00, 0x00, 0x68, 0xff, 0xff, 0xff, 0x0c, 0x00, 0x00, 0x00,
  0x04, 0x00, 0x00, 0x00, 0x08, 0x00, 0x00, 0x00, 0x6f, 0x75, 0x74, 0x70,
  0x75, 0x74, 0x5f, 0x30, 0x00, 0x00, 0x00, 0x00, 0x01, 0x00, 0x00, 0x00,
  0x04, 0x00, 0x00, 0x00, 0x82, 0xec, 0xff, 0xff, 0x04, 0x00, 0x00, 0x00,
  0x0c, 0x00, 0x00, 0x00, 0x6b, 0x65, 0x72, 0x61, 0x73, 0x5f, 0x74, 0x65,
  0x6e, 0x73, 0x6f, 0x72, 0x00, 0x00, 0x00, 0x00, 0x03, 0x00, 0x00, 0x00,
  0x5c, 0x00, 0x00, 0x00, 0x2c, 0x00, 0x00, 0x00, 0x04, 0x00, 0x00, 0x00,
  0xb8, 0xff, 0xff, 0xff, 0x10, 0x00, 0x00, 0x00, 0x04, 0x00, 0x00, 0x00,
  0x13, 0x00, 0x00, 0x00, 0x43, 0x4f, 0x4e, 0x56, 0x45, 0x52, 0x53, 0x49,
  0x4f, 0x4e, 0x5f, 0x4d, 0x45, 0x54, 0x41, 0x44, 0x41, 0x54, 0x41, 0x00,
  0xdc, 0xff, 0xff, 0xff, 0x0f, 0x00, 0x00, 0x00, 0x04, 0x00, 0x00, 0x00,
  0x13, 0x00, 0x00, 0x00, 0x6d, 0x69, 0x6e, 0x5f, 0x72, 0x75, 0x6e, 0x74,
  0x69, 0x6d, 0x65, 0x5f, 0x76, 0x65, 0x72, 0x73, 0x69, 0x6f, 0x6e, 0x00,
  0x08, 0x00, 0x0c, 0x00, 0x08, 0x00, 0x04, 0x00, 0x08, 0x00, 0x00, 0x00,
  0x0e, 0x00, 0x00, 0x00, 0x04, 0x00, 0x00, 0x00, 0x13, 0x00, 0x00, 0x00,
  0x6d, 0x69, 0x6e, 0x5f, 0x72, 0x75, 0x6e, 0x74, 0x69, 0x6d, 0x65, 0x5f,
  0x76, 0x65, 0x72, 0x73, 0x69, 0x6f, 0x6e, 0x00, 0x11, 0x00, 0x00, 0x00,
  0x44, 0x12, 0x00, 0x00, 0x3c, 0x12, 0x00, 0x00, 0x24, 0x12, 0x00, 0x00,
  0xec, 0x11, 0x00, 0x00, 0xec, 0x10, 0x00, 0x00, 0x7c, 0x10, 0x00, 0x00,
  0xec, 0x02, 0x00, 0x00, 0x9c, 0x02, 0x00, 0x00, 0xdc, 0x00, 0x00, 0x00,
  0xd4, 0x00, 0x00, 0x00, 0xcc, 0x00, 0x00, 0x00, 0xc4, 0x00, 0x00, 0x00,
  0xbc, 0x00, 0x00, 0x00, 0xb4, 0x00, 0x00, 0x00, 0x94, 0x00, 0x00, 0x00,
  0x74, 0x00, 0x00, 0x00, 0x04, 0x00, 0x00, 0x00, 0x6a, 0xed, 0xff, 0xff,
  0x04, 0x00, 0x00, 0x00, 0x60, 0x00, 0x00, 0x00, 0x0c, 0x00, 0x00, 0x00,
  0x08, 0x00, 0x0e, 0x00, 0x08, 0x00, 0x04, 0x00, 0x08, 0x00, 0x00, 0x00,
  0x10, 0x00, 0x00, 0x00, 0x28, 0x00, 0x00, 0x00, 0x00, 0x00, 0x06, 0x00,
  0x08, 0x00, 0x04, 0x00, 0x06, 0x00, 0x00, 0x00, 0x04, 0x00, 0x00, 0x00,
  0x01, 0x00, 0x00, 0x00, 0xeb, 0x03, 0x00, 0x00, 0x0c, 0x00, 0x18, 0x00,
  0x14, 0x00, 0x10, 0x00, 0x0c, 0x00, 0x04, 0x00, 0x0c, 0x00, 0x00, 0x00,
  0xf6, 0x7d, 0x08, 0x19, 0x93, 0x04, 0xab, 0x42, 0x02, 0x00, 0x00, 0x00,
  0x02, 0x00, 0x00, 0x00, 0x04, 0x00, 0x00, 0x00, 0x06, 0x00, 0x00, 0x00,
  0x32, 0x2e, 0x31, 0x39, 0x2e, 0x30, 0x00, 0x00, 0xd6, 0xed, 0xff, 0xff,
  0x04, 0x00, 0x00, 0x00, 0x10, 0x00, 0x00, 0x00, 0x00, 0x00, 0x00, 0x00,
  0x00, 0x00, 0x00, 0x00, 0x00, 0x00, 0x00, 0x00, 0x00, 0x00, 0x00, 0x00,
  0xf2, 0xed, 0xff, 0xff, 0x04, 0x00, 0x00, 0x00, 0x10, 0x00, 0x00, 0x00,
  0x31, 0x2e, 0x31, 0x34, 0x2e, 0x30, 0x00, 0x00, 0x00, 0x00, 0x00, 0x00,
  0x00, 0x00, 0x00, 0x00, 0xb0, 0xe1, 0xff, 0xff, 0xb4, 0xe1, 0xff, 0xff,
  0xb8, 0xe1, 0xff, 0xff, 0xbc, 0xe1, 0xff, 0xff, 0xc0, 0xe1, 0xff, 0xff,
  0x22, 0xee, 0xff, 0xff, 0x04, 0x00, 0x00, 0x00, 0xb0, 0x01, 0x00, 0x00,
  0xe6, 0x06, 0x20, 0x13, 0x18, 0x1e, 0x26, 0xe8, 0x0e, 0xbb, 0xd8, 0xd0,
  0xc9, 0xab, 0xae, 0xa8, 0xe5, 0x04, 0x81, 0x01, 0x10, 0xc2, 0x0d, 0x17,
  0xac, 0xf8, 0x18, 0x0e, 0xf8, 0x0f, 0x11, 0xf3, 0x18, 0x2e, 0xfa, 0x0b,
  0x92, 0x06, 0x02, 0x81, 0xf5, 0x19, 0xb5, 0xf2, 0xf5, 0x0c, 0x06, 0x11,
  0xf6, 0x08, 0x27, 0x30, 0xd5, 0xe6, 0x25, 0xb7, 0xd8, 0xf3, 0xaf, 0xd5,
  0xde, 0xd1, 0x81, 0x0e, 0xf3, 0xc4, 0xf3, 0x29, 0xb9, 0xd1, 0x14, 0xeb,
  0xf5, 0x1b, 0x9f, 0xf5, 0x11, 0xe5, 0xdd, 0x15, 0xf6, 0x2e, 0xfd, 0x0e,
  0xf4, 0xf6, 0x0a, 0xd2, 0x23, 0xf5, 0x29, 0x06, 0xfc, 0xfb, 0x97, 0x2b,
  0x07, 0xb2, 0x09, 0x0a, 0x0a, 0x81, 0xfc, 0x03, 0xc4, 0xd6, 0xd1, 0xdf,
  0xd8, 0x07, 0xa2, 0xa8, 0x00, 0x22, 0x06, 0xed, 0xdc, 0x21, 0xfb, 0xa3,
  0x81, 0x25, 0x26, 0x11, 0xe1, 0xa3, 0x11, 0xfb, 0xea, 0xb4, 0x0c, 0x16,
  0x0a, 0xf9, 0xde, 0xc6, 0x12, 0x29, 0x11, 0xe9, 0xed, 0x20, 0xb8, 0x81,
  0x24, 0x1b, 0x2f, 0x32, 0xfc, 0xc0, 0x4c, 0xad, 0xb4, 0xd9, 0x30, 0x40,
  0x4a, 0xe7, 0xcb, 0x3e, 0xd6, 0xad, 0xc8, 0x10, 0xf2, 0x10, 0xf8, 0x1a,
  0x24, 0xd7, 0x11, 0x81, 0x11, 0xe1, 0x0d, 0x07, 0xe1, 0x13, 0xfd, 0xee,
  0xb4, 0x06, 0xd1, 0x00, 0x05, 0xbd, 0x1c, 0xff, 0xe3, 0xa1, 0x02, 0xfe,
  0x1b, 0x05, 0xfe, 0xc6, 0x06, 0xfd, 0x81, 0x04, 0x11, 0x09, 0x11, 0x08,
  0x96, 0x0b, 0x02, 0xba, 0xfc, 0x9d, 0x01, 0xcf, 0xe2, 0xdf, 0xe6, 0x04,
  0xbe, 0xd4, 0x29, 0xf4, 0x0d, 0xf6, 0xe8, 0x36, 0xc9, 0xaa, 0x81, 0x4a,
  0xac, 0xbc, 0xf6, 0x14, 0x0b, 0x3d, 0x43, 0xbb, 0x8b, 0x12, 0xb5, 0xcf,
  0x1e, 0x09, 0x27, 0x10, 0xf7, 0x0d, 0x2f, 0xe6, 0x0e, 0x05, 0xde, 0x01,
  0x1a, 0x08, 0x02, 0x11, 0x0a, 0x07, 0x9c, 0xec, 0x13, 0x1a, 0x0a, 0x17,
  0x00, 0x15, 0x08, 0x81, 0x0a, 0x10, 0x16, 0xe7, 0x1a, 0x00, 0xfb, 0xc6,
  0xf5, 0x06, 0x81, 0x19, 0xdf, 0x17, 0xe5, 0x12, 0xb3, 0xf3, 0x0a, 0xad,
  0x27, 0xe1, 0xfe, 0xff, 0x07, 0xd4, 0xe6, 0x0b, 0xd5, 0xe0, 0x09, 0x08,
  0xfe, 0x0e, 0xf2, 0xff, 0x09, 0xad, 0xd2, 0x06, 0x19, 0x05, 0x0c, 0xf4,
  0x08, 0x08, 0x81, 0xf6, 0xef, 0x29, 0x1d, 0xe3, 0x0b, 0x22, 0xe9, 0xe7,
  0x2c, 0xc9, 0xb6, 0x10, 0x11, 0xe3, 0xf6, 0x1b, 0xd6, 0x14, 0xfd, 0xa6,
  0x01, 0x0c, 0xce, 0x07, 0x0b, 0xec, 0x0f, 0xfc, 0x97, 0x35, 0xd9, 0x81,
  0x48, 0xd7, 0xcc, 0xfd, 0x13, 0xae, 0xef, 0x0f, 0xed, 0x95, 0xf3, 0x0a,
  0x00, 0x01, 0xe6, 0x10, 0x1a, 0xfe, 0x84, 0x0e, 0xe6, 0xf6, 0xbb, 0x22,
  0x1c, 0xf4, 0x89, 0xe1, 0x04, 0x81, 0xe1, 0x08, 0x03, 0xfe, 0xff, 0x0a,
  0x11, 0xfe, 0x0f, 0x03, 0x07, 0x08, 0x22, 0xfc, 0x0b, 0x21, 0xfa, 0x17,
  0xa4, 0xf3, 0x0c, 0x81, 0xf2, 0xff, 0xae, 0xfa, 0x0d, 0xc6, 0xfe, 0xf6,
  0xbb, 0x2b, 0xc3, 0xe9, 0x1c, 0x94, 0x16, 0xbe, 0xc3, 0x07, 0xa8, 0xd9,
  0x43, 0x03, 0x81, 0xaa, 0x0e, 0x1c, 0x06, 0xf0, 0x1b, 0x11, 0xed, 0x00,
  0xde, 0xef, 0xff, 0xff, 0x04, 0x00, 0x00, 0x00, 0x40, 0x00, 0x00, 0x00,
  0xf5, 0xfd, 0xff, 0xff, 0xb3, 0x00, 0x00, 0x00, 0xcf, 0xfe, 0xff, 0xff,
  0xcf, 0xf9, 0xff, 0xff, 0x08, 0xfb, 0xff, 0xff, 0xaf, 0xe5, 0xff, 0xff,
  0x66, 0xfd, 0xff, 0xff, 0xd3, 0xfc, 0xff, 0xff, 0x4c, 0xf5, 0xff, 0xff,
  0x4b, 0xfd, 0xff, 0xff, 0x08, 0x00, 0x00, 0x00, 0xb6, 0xfd, 0xff, 0xff,
  0xf0, 0xfc, 0xff, 0xff, 0x5f, 0x00, 0x00, 0x00, 0x0e, 0xff, 0xff, 0xff,
  0x6f, 0xfc, 0xff, 0xff, 0x2a, 0xf0, 0xff, 0xff, 0x04, 0x00, 0x00, 0x00,
  0x80, 0x0d, 0x00, 0x00, 0xe7, 0xab, 0x0d, 0xde, 0x20, 0x0a, 0x58, 0xdf,
  0x2a, 0xe7, 0x2b, 0xf6, 0xd8, 0xf5, 0xdc, 0xe5, 0x04, 0xc9, 0x02, 0x07,
  0x0c, 0x13, 0x5c, 0xf1, 0x06, 0xe5, 0xf8, 0xf0, 0xbb, 0xec, 0xf2, 0x00,
  0x18, 0xb1, 0xf7, 0xed, 0x38, 0x01, 0x2c, 0xf2, 0x03, 0xe0, 0x10, 0xfb,
  0xd1, 0x03, 0x02, 0xe4, 0x1f, 0xd2, 0x0d, 0xf5, 0x30, 0x11, 0x7f, 0x02,
  0x47, 0xe1, 0x29, 0xf6, 0x9c, 0xed, 0x14, 0xbc, 0x19, 0xef, 0xed, 0xff,
  0x17, 0x08, 0x58, 0xea, 0x42, 0xdd, 0xe0, 0xf3, 0xe1, 0xd5, 0x06, 0xd4,
  0x06, 0xd3, 0xde, 0xf6, 0x38, 0x05, 0x13, 0xe9, 0xb9, 0xde, 0xee, 0xfe,
  0xc8, 0xf0, 0xf4, 0xda, 0x0a, 0xd8, 0x27, 0xeb, 0x28, 0x07, 0x55, 0x15,
  0x2f, 0xdb, 0x0e, 0x04, 0x98, 0xdd, 0x12, 0xd5, 0x11, 0xf0, 0x05, 0x18,
  0xe2, 0x0e, 0x4e, 0xeb, 0x18, 0xd1, 0xf6, 0xe9, 0xb1, 0xde, 0x12, 0xfb,
  0xf7, 0xd1, 0xde, 0x08, 0xf8, 0xfb, 0xfb, 0xee, 0xd6, 0xe0, 0xda, 0xfe,
  0xbb, 0xe7, 0xee, 0xdd, 0xf9, 0xf7, 0x12, 0x21, 0x04, 0xca, 0x21, 0x12,
  0x12, 0x0d, 0xae, 0x21, 0x1c, 0x45, 0xe8, 0x49, 0xe3, 0xeb, 0xe8, 0x46,
  0xf9, 0xd5, 0x34, 0x0d, 0x12, 0x1f, 0xa0, 0x2d, 0x0e, 0x72, 0xe2, 0x56,
  0xe3, 0x05, 0xe5, 0x29, 0x16, 0xdc, 0x1b, 0xfc, 0x33, 0x0f, 0xc8, 0x33,
  0x12, 0x39, 0xe5, 0x45, 0xd5, 0xdd, 0x18, 0x54, 0xed, 0xab, 0x37, 0x04,
  0x08, 0x1b, 0xad, 0x37, 0x1f, 0x65, 0xbe, 0x72, 0xcf, 0xd2, 0xf2, 0x6f,
  0xdd, 0xc1, 0x3b, 0x30, 0x2c, 0x57, 0x9d, 0x49, 0x3a, 0x7a, 0xaf, 0x7f,
  0xbb, 0xee, 0x01, 0x4e, 0xea, 0xb8, 0x3f, 0xe8, 0x11, 0x12, 0xc6, 0x56,
  0x38, 0x54, 0xbe, 0x6d, 0xd4, 0xdc, 0x2a, 0x46, 0xd5, 0xa9, 0x1e, 0x08,
  0xfb, 0x06, 0xc7, 0x0e, 0x21, 0x3f, 0xc1, 0x41, 0xbe, 0xd5, 0x30, 0x68,
  0xb3, 0x94, 0x46, 0xfe, 0x00, 0x1e, 0xc0, 0x13, 0x27, 0x65, 0xa1, 0x37,
  0xae, 0xbf, 0x20, 0x2e, 0xd4, 0x98, 0x36, 0x06, 0xe2, 0xf0, 0xca, 0x1f,
  0x18, 0x0d, 0xa3, 0x27, 0xbb, 0x26, 0x06, 0xe5, 0x34, 0x24, 0xed, 0x8e,
  0xca, 0x16, 0x0e, 0x54, 0xf8, 0x08, 0xf5, 0x0a, 0xc9, 0x54, 0xfd, 0xae,
  0x5e, 0x62, 0xb3, 0xaf, 0xd4, 0x27, 0x28, 0x6f, 0xf9, 0xdc, 0x13, 0x19,
  0xf0, 0x2d, 0x00, 0xbe, 0x2d, 0x38, 0xc1, 0xcb, 0xf2, 0x27, 0x0d, 0x45,
  0xe2, 0xde, 0x31, 0xff, 0x8b, 0x1d, 0xf7, 0xab, 0x4a, 0x5c, 0xcb, 0x81,
  0xd5, 0x25, 0x05, 0x70, 0x09, 0xe8, 0xe2, 0x24, 0xa8, 0x38, 0xec, 0x9c,
  0x65, 0x5b, 0xa6, 0x84, 0xb3, 0x23, 0x30, 0x73, 0xdd, 0xc8, 0x29, 0x07,
  0xc9, 0x2b, 0xf0, 0x9f, 0x3a, 0x26, 0xb7, 0xbd, 0x0f, 0x2c, 0x06, 0x56,
  0x01, 0xcd, 0x3b, 0x01, 0x9d, 0x11, 0xe7, 0xe2, 0x16, 0x1f, 0xc9, 0x91,
  0xd1, 0x0c, 0x02, 0x3f, 0xfe, 0xd9, 0xf5, 0x11, 0xa4, 0x29, 0xec, 0xa9,
  0x5d, 0x38, 0xa0, 0xa2, 0xbe, 0xfa, 0x1d, 0x56, 0xff, 0xc8, 0x03, 0x12,
  0xdd, 0x35, 0x06, 0xbd, 0x18, 0x1b, 0xaf, 0xbb, 0x03, 0x13, 0xd8, 0x39,
  0xea, 0xd3, 0x29, 0x02, 0x04, 0xf8, 0xfc, 0xfa, 0x0d, 0x0e, 0x05, 0x10,
  0xee, 0xf4, 0x68, 0xf2, 0x04, 0x02, 0x01, 0xf9, 0xf6, 0xfa, 0xfb, 0xf5,
  0x12, 0x15, 0xfc, 0x09, 0xea, 0xf7, 0x77, 0xf8, 0x00, 0x04, 0x08, 0xfc,
  0x01, 0x00, 0xe9, 0xfc, 0x07, 0x15, 0x03, 0xfa, 0xfc, 0x00, 0x51, 0xf7,
  0x06, 0xf9, 0x07, 0xf3, 0xf7, 0x01, 0xf2, 0x04, 0x05, 0x1d, 0x09, 0x05,
  0xf8, 0xfb, 0x5f, 0xe8, 0xf7, 0x00, 0x0c, 0xf4, 0x05, 0x07, 0xf2, 0xfb,
  0x11, 0x2b, 0x00, 0x08, 0xe7, 0xfa, 0x7f, 0xec, 0xf2, 0xf4, 0x0c, 0xf4,
  0xf8, 0x08, 0xe8, 0xf7, 0x05, 0x2c, 0x08, 0xf7, 0x06, 0x05, 0x60, 0xe6,
  0xfe, 0xf4, 0x08, 0xec, 0x00, 0xfe, 0xf2, 0x07, 0x07, 0x0e, 0x00, 0xff,
  0xfd, 0xfa, 0x4e, 0xea, 0x00, 0x08, 0x0c, 0xfc, 0x03, 0x09, 0xec, 0x02,
  0x0e, 0x1e, 0xf7, 0xfc, 0xfd, 0xfe, 0x72, 0xf9, 0xf8, 0xfa, 0x06, 0xf4,
  0xff, 0x04, 0xe3, 0x01, 0x0a, 0x13, 0xfd, 0x02, 0x05, 0x02, 0x4c, 0xf3,
  0xf8, 0xf5, 0x0b, 0xec, 0xe8, 0x26, 0xe0, 0x17, 0xfc, 0xf3, 0x19, 0xcc,
  0xfe, 0x12, 0xb6, 0x39, 0xec, 0xd3, 0xfb, 0x0b, 0xe5, 0x25, 0x0f, 0x10,
  0xef, 0xe4, 0x1c, 0xf1, 0x04, 0x20, 0xa7, 0x79, 0xd9, 0xdf, 0x05, 0x10,
  0xf3, 0x1a, 0x14, 0x0a, 0xf0, 0xee, 0x06, 0xfd, 0x21, 0x14, 0xbf, 0x49,
  0xc3, 0x00, 0x09, 0x0a, 0xba, 0x1d, 0xef, 0x14, 0x0c, 0xe9, 0x18, 0xb4,
  0x03, 0x23, 0xd1, 0x52, 0xf1, 0xef, 0xd9, 0xec, 0xc3, 0x35, 0x10, 0x12,
  0x13, 0xee, 0x25, 0xd4, 0x16, 0x26, 0xb0, 0x7f, 0xe6, 0x0a, 0xd5, 0x2a,
  0xe2, 0x25, 0x03, 0x05, 0x1c, 0xfe, 0x20, 0xd5, 0x1d, 0x2f, 0xc2, 0x57,
  0xd0, 0xfd, 0x0b, 0x16, 0xa7, 0x1f, 0xf8, 0x11, 0x0f, 0xf9, 0x17, 0xe5,
  0x09, 0x0a, 0xcb, 0x39, 0xe8, 0xed, 0xd4, 0x08, 0xb3, 0x27, 0x1b, 0x05,
  0x0d, 0x05, 0x1e, 0xde, 0x1b, 0x13, 0xb6, 0x69, 0xf2, 0xfe, 0xdd, 0x0c,
  0xc5, 0x26, 0x07, 0x12, 0xe8, 0xf6, 0x0f, 0xee, 0x2a, 0x0f, 0xb9, 0x39,
  0xd9, 0x01, 0xe7, 0x08, 0xe9, 0xf0, 0xe8, 0xcb, 0x0a, 0x09, 0xf9, 0xfa,
  0xf3, 0xd0, 0x65, 0xff, 0xdb, 0xe3, 0xef, 0xe8, 0xf3, 0x02, 0xfd, 0xff,
  0x3c, 0x27, 0x05, 0xf7, 0x0a, 0xe3, 0x7d, 0x17, 0xdd, 0xf7, 0x14, 0xca,
  0xf0, 0x0b, 0xe3, 0xf3, 0x0e, 0x1c, 0xf9, 0xf4, 0x0b, 0xeb, 0x47, 0x09,
  0xe9, 0xf6, 0x0c, 0xda, 0xec, 0xff, 0xeb, 0xfb, 0x27, 0x19, 0x0b, 0xe2,
  0x07, 0xd6, 0x56, 0x00, 0xcd, 0xf2, 0xff, 0xf3, 0x09, 0x27, 0xf8, 0x16,
  0x2e, 0x42, 0x11, 0xe0, 0xf7, 0xe3, 0x7f, 0x0b, 0xde, 0xec, 0x0e, 0xe1,
  0xf3, 0x19, 0xe2, 0xf9, 0x2b, 0x3f, 0xfb, 0xe3, 0x1f, 0xee, 0x5d, 0xfe,
  0xf3, 0xe8, 0x1c, 0xd1, 0xe8, 0xfe, 0xf9, 0xfc, 0x17, 0x09, 0x01, 0xdf,
  0x04, 0xd5, 0x38, 0xfa, 0xdf, 0xfe, 0xfe, 0xf3, 0xea, 0x1d, 0xf1, 0x09,
  0x2c, 0x29, 0xf2, 0xe1, 0x03, 0xe8, 0x65, 0x06, 0xdb, 0xf0, 0x15, 0xe0,
  0xf8, 0x12, 0xdf, 0xff, 0x24, 0x33, 0xd9, 0xea, 0x17, 0xe8, 0x36, 0xfd,
  0xe7, 0xeb, 0x18, 0xde, 0xfb, 0xf6, 0xeb, 0xc0, 0x11, 0xfb, 0x1a, 0x00,
  0x16, 0xd8, 0xd5, 0xf8, 0xb8, 0x81, 0x11, 0xd7, 0xf6, 0xec, 0x0e, 0xcf,
  0x02, 0xea, 0x0e, 0x18, 0xde, 0xd4, 0xb0, 0x16, 0xb9, 0xd6, 0x24, 0xcc,
  0x0e, 0xe9, 0x0f, 0xe3, 0xff, 0xe9, 0xff, 0x18, 0xaf, 0xd7, 0xd7, 0x0e,
  0x97, 0xda, 0x00, 0xbd, 0x2b, 0x08, 0x16, 0xfb, 0xfe, 0xef, 0x3c, 0x13,
  0x0d, 0xd2, 0xf4, 0x05, 0xe3, 0x9c, 0x26, 0xda, 0x26, 0x03, 0x22, 0xef,
  0xf4, 0xe8, 0x0c, 0x04, 0x12, 0xe0, 0xe4, 0xe8, 0xf4, 0xbe, 0x21, 0xf1,
  0x46, 0xff, 0x2e, 0xf7, 0xfa, 0xfe, 0x1a, 0xe4, 0xad, 0xcf, 0xec, 0xff,
  0xe9, 0xe4, 0x20, 0xd5, 0x37, 0xc5, 0xd5, 0xd9, 0xd2, 0xb9, 0xfd, 0x11,
  0xe6, 0xb8, 0x0a, 0x0d, 0xde, 0xe7, 0x39, 0xc5, 0x1f, 0xd6, 0xdb, 0x0d,
  0xda, 0xd4, 0xe2, 0xef, 0xc3, 0xc8, 0xdd, 0xf0, 0xfb, 0xf0, 0xfe, 0xc8,
  0x20, 0xc7, 0xb8, 0x1f, 0xec, 0xdc, 0xe1, 0xff, 0x84, 0xc9, 0xcc, 0x0b,
  0xcc, 0x05, 0xd6, 0xb4, 0xde, 0xe3, 0x01, 0xaf, 0xf7, 0xca, 0xe3, 0xa8,
  0x3d, 0xb6, 0xda, 0x14, 0xbf, 0x99, 0xe1, 0xae, 0x0d, 0x9e, 0x17, 0xfc,
  0x0f, 0xe1, 0x75, 0xee, 0x09, 0xb8, 0x26, 0x1c, 0xad, 0xde, 0x09, 0xac,
  0xe0, 0xad, 0x2c, 0xd4, 0x20, 0xf3, 0x51, 0xe1, 0xc1, 0xbf, 0x06, 0x1b,
  0x9e, 0xfe, 0xef, 0xa9, 0x0c, 0xff, 0xdb, 0xe2, 0x09, 0xf2, 0x3e, 0xdb,
  0x44, 0xcf, 0xe8, 0x07, 0xb6, 0xb9, 0x16, 0xad, 0x0d, 0xe5, 0x1c, 0x0d,
  0x29, 0xe4, 0x72, 0xed, 0x28, 0xca, 0xd8, 0x22, 0x95, 0xf2, 0x2f, 0xa7,
  0x29, 0xe2, 0xed, 0xe4, 0x48, 0x1e, 0x61, 0xd2, 0x03, 0xb7, 0x1e, 0x15,
  0x85, 0xf5, 0x18, 0x91, 0xfe, 0xdf, 0xc5, 0xd4, 0x01, 0xaa, 0x16, 0xcf,
  0x3e, 0xbc, 0xaf, 0x31, 0x8a, 0xc6, 0x0d, 0xa7, 0x10, 0xfb, 0xf6, 0xdc,
  0x18, 0xd8, 0x38, 0xe8, 0x2f, 0xad, 0xbb, 0x2f, 0x86, 0xd3, 0x20, 0xa3,
  0x32, 0xd9, 0xbc, 0xdc, 0x38, 0xfc, 0xfc, 0xf3, 0xba, 0x9c, 0x9f, 0x2d,
  0x81, 0xf7, 0x21, 0xa3, 0xe7, 0x0d, 0x07, 0xe3, 0x40, 0x28, 0x2f, 0xbe,
  0x1d, 0xf3, 0xf8, 0x36, 0xef, 0x01, 0xf1, 0xf4, 0xe9, 0x1c, 0x06, 0xeb,
  0x67, 0x43, 0x24, 0xda, 0x28, 0x03, 0xeb, 0x42, 0xd7, 0xf0, 0xfb, 0xf9,
  0xfa, 0x0c, 0x04, 0xee, 0x46, 0x28, 0x07, 0xec, 0x18, 0x08, 0xf3, 0x31,
  0xcb, 0x04, 0x03, 0xf9, 0xc6, 0x0a, 0xfd, 0xd1, 0x64, 0x3c, 0x2b, 0xa7,
  0x2c, 0x0a, 0xf2, 0x31, 0xeb, 0xe9, 0xe0, 0xe6, 0xda, 0x0a, 0x06, 0xe0,
  0x7f, 0x3b, 0x1c, 0xbd, 0x2e, 0x08, 0xdc, 0x45, 0xda, 0x04, 0xef, 0xfe,
  0xe5, 0x11, 0x06, 0xd4, 0x6a, 0x34, 0x0b, 0xd8, 0x4f, 0x0f, 0xee, 0x35,
  0xd5, 0xfc, 0xf0, 0x05, 0xb1, 0x00, 0xfc, 0xff, 0x3b, 0x25, 0x15, 0xc6,
  0x27, 0xf7, 0xea, 0x0a, 0xf1, 0xfe, 0xde, 0xfd, 0xbe, 0x0d, 0x00, 0xfa,
  0x64, 0x3a, 0x12, 0xd1, 0x36, 0xff, 0xd4, 0x20, 0xe7, 0xf5, 0xe4, 0xfd,
  0xcf, 0x08, 0x00, 0xfb, 0x4b, 0x28, 0x0d, 0xe7, 0x31, 0x05, 0xcf, 0x14,
  0xd5, 0x0a, 0xea, 0x03, 0xf1, 0xe5, 0xf4, 0x5f, 0xf8, 0xe4, 0x2b, 0x22,
  0x1e, 0x16, 0xe2, 0x01, 0x06, 0x6b, 0xdb, 0x37, 0xea, 0xe8, 0xea, 0x69,
  0xde, 0xe5, 0x49, 0x4b, 0x18, 0x26, 0xbe, 0xf8, 0x1a, 0x5d, 0xd8, 0x39,
  0xdc, 0xe7, 0xe6, 0x56, 0x04, 0xf3, 0x3b, 0x31, 0x26, 0x1e, 0xe0, 0x06,
  0x29, 0x43, 0xe1, 0x4a, 0xf1, 0xd2, 0xe5, 0x77, 0xec, 0xd1, 0x5a, 0x47,
  0x19, 0x2d, 0xe3, 0xff, 0xfa, 0x7f, 0xd1, 0x35, 0xe7, 0xdd, 0xed, 0x7a,
  0xd4, 0xdf, 0x55, 0x6d, 0x2d, 0x40, 0xc1, 0x00, 0x20, 0x72, 0xda, 0x49,
  0xdd, 0xdb, 0xdb, 0x79, 0xf8, 0xdd, 0x64, 0x2b, 0x1a, 0x37, 0xd9, 0x0c,
  0x3f, 0x5e, 0xd4, 0x63, 0xdc, 0xd7, 0x0f, 0x50, 0xf6, 0xe2, 0x4f, 0x1f,
  0x20, 0x2a, 0x06, 0xe7, 0x05, 0x57, 0xc7, 0x19, 0xe3, 0xdd, 0x0e, 0x7a,
  0xd2, 0xcb, 0x6d, 0x2a, 0x11, 0x3a, 0xe2, 0xda, 0x2a, 0x58, 0xc1, 0x2e,
  0xc3, 0xce, 0xff, 0x54, 0xf4, 0xdc, 0x6d, 0x0f, 0x12, 0x24, 0x06, 0xfb,
  0x24, 0x2d, 0xbc, 0x39, 0x22, 0x72, 0xe4, 0xf4, 0xdf, 0x3e, 0x9a, 0x01,
  0xc4, 0x12, 0x0c, 0xca, 0x2b, 0xee, 0x45, 0xe7, 0x22, 0x77, 0xc9, 0xd0,
  0xe1, 0x18, 0x89, 0xf6, 0xb5, 0x22, 0x05, 0xca, 0x4a, 0xfe, 0x43, 0xf9,
  0x10, 0x41, 0xb3, 0xfa, 0xe4, 0x26, 0xb3, 0xfb, 0xda, 0x1a, 0xee, 0xb1,
  0x47, 0xf7, 0x29, 0x0d, 0xf5, 0x7e, 0xf0, 0xbe, 0xf9, 0x43, 0x89, 0x1a,
  0xc9, 0xf8, 0x10, 0xdb, 0x62, 0xfd, 0x30, 0xf5, 0x06, 0x66, 0xc7, 0xcc,
  0xfa, 0x55, 0x89, 0xf6, 0xa9, 0x18, 0x19, 0xd2, 0x41, 0x04, 0x33, 0x3e,
  0xfe, 0x6a, 0xa9, 0xf1, 0xfe, 0x4d, 0x9b, 0x15, 0x00, 0x0c, 0xf3, 0xd2,
  0x29, 0x04, 0x40, 0x19, 0x11, 0x52, 0xe6, 0xc4, 0x14, 0x3f, 0x95, 0x12,
  0xd3, 0x05, 0x10, 0xf9, 0x4a, 0x09, 0x1a, 0x33, 0x1f, 0x62, 0xd1, 0xae,
  0x1f, 0x4f, 0x81, 0x02, 0xd2, 0x28, 0xb3, 0xed, 0x49, 0x10, 0x26, 0x24,
  0x2c, 0x46, 0xbe, 0xf8, 0x13, 0x50, 0xad, 0x29, 0x05, 0x2f, 0xd7, 0xdc,
  0x31, 0x05, 0x2c, 0x59, 0x09, 0xd7, 0x1c, 0x25, 0xde, 0xd2, 0x0f, 0x49,
  0xe7, 0xf4, 0xc4, 0x0c, 0xf9, 0x29, 0xeb, 0x21, 0x12, 0xd3, 0x1b, 0x48,
  0xce, 0xcd, 0x0c, 0x6b, 0xfb, 0x0c, 0xc7, 0xfd, 0x06, 0x1c, 0xee, 0x1a,
  0x0a, 0xe3, 0x03, 0x40, 0xd6, 0xd7, 0x22, 0x31, 0xe6, 0x0e, 0xda, 0xff,
  0xef, 0xfb, 0xfb, 0x2d, 0x3d, 0xe2, 0x34, 0x32, 0xea, 0xcb, 0x0e, 0x5b,
  0xe8, 0x01, 0xc5, 0x05, 0x07, 0x23, 0xfa, 0xf8, 0x33, 0xdf, 0x2c, 0x56,
  0xc3, 0xbf, 0x1e, 0x7f, 0xea, 0x0b, 0xbe, 0x0c, 0x0c, 0x28, 0xed, 0x0e,
  0x25, 0xe8, 0x1b, 0x4f, 0xcc, 0xb6, 0x0a, 0x5e, 0xe7, 0x14, 0xd5, 0x06,
  0x11, 0x1d, 0xf4, 0x08, 0x21, 0x11, 0x2c, 0x1b, 0xee, 0xd9, 0x0b, 0x2d,
  0xf3, 0x14, 0xbd, 0x10, 0x1b, 0xff, 0x17, 0xff, 0x1c, 0x08, 0x3c, 0x3e,
  0xcb, 0xc9, 0x14, 0x5b, 0xe8, 0x27, 0xb4, 0x12, 0x21, 0x0d, 0x05, 0x0b,
  0x12, 0x07, 0x1e, 0x3b, 0xbf, 0xc8, 0x1b, 0x30, 0x05, 0x08, 0xe5, 0x1b,
  0x0d, 0xfc, 0xf7, 0xf6, 0xee, 0xf7, 0xc0, 0x22, 0x15, 0x07, 0x28, 0x01,
  0x41, 0x2c, 0xe0, 0x00, 0xe2, 0x39, 0xe0, 0x47, 0xe2, 0xf7, 0xc7, 0x2f,
  0x19, 0x09, 0x3f, 0xfc, 0x4b, 0x2e, 0xd7, 0x07, 0xf5, 0x41, 0xdc, 0x61,
  0xe3, 0xfe, 0xe3, 0x18, 0x17, 0x16, 0x1d, 0xf4, 0x50, 0x20, 0xfa, 0x16,
  0xec, 0x3f, 0xdd, 0x53, 0xc3, 0x05, 0xb7, 0x3d, 0x05, 0xfb, 0x43, 0xe0,
  0x55, 0x3a, 0xd9, 0x01, 0xfd, 0x5a, 0xbd, 0x70, 0xb9, 0xef, 0xcc, 0x38,
  0x0d, 0x04, 0x5d, 0xe1, 0x5c, 0x4f, 0xc7, 0x10, 0x10, 0x73, 0xbd, 0x7f,
  0xb5, 0xf7, 0xd6, 0x22, 0x0d, 0xfd, 0x46, 0xf2, 0x67, 0x44, 0xe9, 0x2b,
  0xff, 0x56, 0xba, 0x7d, 0xa7, 0xf1, 0xea, 0x22, 0x12, 0xf6, 0x23, 0xe8,
  0x34, 0x15, 0xe3, 0xee, 0x06, 0x51, 0xb4, 0x2b, 0x9c, 0xe1, 0xf4, 0x32,
  0xfa, 0xf1, 0x58, 0xe3, 0x40, 0x18, 0xc5, 0xef, 0x0a, 0x5b, 0xb0, 0x5a,
  0xa3, 0xcc, 0xfb, 0x1f, 0x18, 0xf4, 0x29, 0xe8, 0x2b, 0x0c, 0xd3, 0x0a,
  0xf3, 0x47, 0xbb, 0x31, 0xd4, 0xdb, 0xe4, 0xde, 0xf7, 0xfa, 0x25, 0xf3,
  0x21, 0xe5, 0x5c, 0xe8, 0xd9, 0xdd, 0xde, 0xdd, 0xef, 0xe1, 0x09, 0xfd,
  0x07, 0xfc, 0x49, 0x04, 0x03, 0xde, 0x64, 0xe6, 0xd0, 0xf6, 0xfc, 0xe3,
  0xea, 0xc6, 0xd3, 0xfa, 0xfb, 0x11, 0x34, 0xd4, 0xe4, 0xfc, 0x71, 0xdd,
  0xc3, 0x0c, 0xe5, 0xe2, 0xfc, 0xe8, 0xcf, 0x0b, 0x09, 0x05, 0x58, 0xf4,
  0x25, 0xdf, 0x5d, 0xe1, 0xb1, 0xfd, 0xfb, 0xf3, 0x0f, 0xf5, 0xf4, 0x07,
  0x0d, 0xef, 0x47, 0x02, 0x10, 0xde, 0x3f, 0xe7, 0xb4, 0xec, 0x12, 0xe2,
  0xf4, 0xdd, 0xc7, 0x02, 0x1b, 0x14, 0x4c, 0xea, 0xfa, 0xe2, 0x74, 0xda,
  0x99, 0x0f, 0xf3, 0xe0, 0x04, 0xe3, 0xcf, 0xf0, 0x06, 0xe4, 0x1c, 0x11,
  0x1e, 0xde, 0x20, 0xf1, 0x99, 0xf0, 0x13, 0xdf, 0x03, 0xfa, 0xd0, 0xf8,
  0x12, 0xf9, 0x36, 0x12, 0x1a, 0xe1, 0x1a, 0xff, 0xad, 0xec, 0x13, 0xd4,
  0xea, 0xea, 0xcf, 0x17, 0x08, 0x08, 0x06, 0x0c, 0xe6, 0xe9, 0x00, 0xf6,
  0x81, 0xfe, 0xfb, 0xd1, 0xd3, 0x1f, 0x20, 0xfc, 0x1a, 0x19, 0xf1, 0x8d,
  0xe4, 0xf4, 0xe5, 0x4b, 0x17, 0xf1, 0xfd, 0xf2, 0xfe, 0x45, 0x32, 0xd3,
  0x3d, 0x2a, 0xd0, 0xab, 0xf7, 0x05, 0xc5, 0x76, 0xf6, 0xe1, 0x2f, 0x01,
  0x25, 0x35, 0x29, 0xdf, 0x18, 0x16, 0xcf, 0xdf, 0x16, 0x0f, 0xc1, 0x2c,
  0xe6, 0xd5, 0x35, 0x0c, 0xaf, 0x26, 0x1d, 0xb8, 0x38, 0x1d, 0xc7, 0x81,
  0xec, 0xf1, 0xfd, 0x53, 0x0a, 0xd1, 0xf8, 0xeb, 0xc9, 0x43, 0x23, 0xa4,
  0x5a, 0x38, 0xc4, 0x86, 0xff, 0x01, 0xd5, 0x7e, 0xef, 0xe3, 0x1e, 0xf5,
  0x08, 0x2a, 0x1e, 0xb6, 0x38, 0x25, 0xd2, 0xd3, 0x32, 0x16, 0xc8, 0x41,
  0xde, 0xcc, 0x38, 0xe9, 0xc0, 0x14, 0xed, 0xcc, 0x25, 0x1f, 0xd5, 0xac,
  0xe2, 0xe2, 0x00, 0x22, 0xfb, 0xd3, 0x06, 0xe4, 0xcb, 0x26, 0x19, 0xb6,
  0x55, 0x2b, 0xce, 0xbc, 0x0b, 0xfd, 0xc7, 0x4d, 0xf1, 0xd7, 0x15, 0xed,
  0x05, 0x22, 0x03, 0xd5, 0x48, 0x1f, 0xe1, 0xea, 0x1b, 0x11, 0xb4, 0x22,
  0xe5, 0xd6, 0x22, 0xf4, 0x04, 0xfc, 0xd7, 0x1d, 0x00, 0x1d, 0xff, 0x0d,
  0x0a, 0x0a, 0x52, 0xd5, 0x19, 0x08, 0xfe, 0xf4, 0xfa, 0xfe, 0xd1, 0x2c,
  0x13, 0x1a, 0xf9, 0x00, 0x09, 0x0a, 0x6c, 0xd3, 0x0b, 0x2a, 0xf1, 0xfb,
  0xf7, 0xfc, 0xcc, 0x1b, 0x09, 0x18, 0xfe, 0x03, 0x20, 0x08, 0x51, 0xde,
  0x1f, 0x13, 0xf4, 0x0e, 0x05, 0x05, 0xd2, 0x1d, 0x0c, 0x21, 0xfd, 0x1c,
  0x19, 0xff, 0x66, 0xd6, 0xe9, 0x1a, 0xfb, 0x01, 0xf3, 0xf0, 0xd2, 0x36,
  0x0d, 0x1a, 0xf4, 0x26, 0x17, 0x0e, 0x7f, 0xd8, 0xf0, 0x1b, 0xee, 0x08,
  0xf6, 0xfa, 0xd1, 0x28, 0x02, 0x1d, 0x07, 0x17, 0x1a, 0x08, 0x6b, 0xda,
  0xfd, 0x1d, 0xec, 0x1b, 0x02, 0x00, 0xe7, 0x1a, 0x0c, 0x1e, 0xf7, 0x1a,
  0x15, 0x02, 0x4d, 0xd3, 0xf6, 0x11, 0x00, 0xff, 0xfe, 0xfa, 0xe4, 0x33,
  0x0a, 0x15, 0x00, 0x03, 0x12, 0x08, 0x78, 0xda, 0xea, 0x22, 0xf6, 0xfb,
  0xfd, 0xf2, 0xe7, 0x19, 0xfd, 0x12, 0x03, 0x13, 0x12, 0x04, 0x5e, 0xdb,
  0xec, 0x11, 0xf1, 0x14, 0xf2, 0xf3, 0x30, 0xd8, 0x4c, 0x3f, 0x12, 0xce,
  0x24, 0xcd, 0x01, 0x27, 0x02, 0xf3, 0xf5, 0xe3, 0x12, 0x0c, 0x28, 0xd7,
  0x5b, 0x47, 0x21, 0xe5, 0x27, 0xe0, 0x19, 0x28, 0xf0, 0xee, 0x17, 0xda,
  0x19, 0x15, 0x35, 0xde, 0x42, 0x35, 0x06, 0xf7, 0x2b, 0xf3, 0x09, 0x19,
  0xe6, 0xf8, 0x24, 0xe6, 0x05, 0xf8, 0x13, 0xdf, 0x60, 0x3a, 0x16, 0xcc,
  0x2d, 0xcd, 0x03, 0x21, 0xe5, 0xe5, 0xfe, 0xd3, 0xfb, 0x08, 0x1a, 0xd0,
  0x7f, 0x3d, 0x08, 0xc7, 0x1b, 0xdd, 0xfc, 0x23, 0xf9, 0xed, 0x07, 0xd2,
  0xfb, 0x0e, 0x12, 0xde, 0x52, 0x3d, 0xf1, 0xe3, 0x3a, 0xe8, 0x08, 0x1c,
  0xe5, 0xe9, 0x1a, 0xc4, 0xfa, 0x10, 0xeb, 0xe6, 0x49, 0x22, 0x0a, 0xc0,
  0x1b, 0xdd, 0xe6, 0x0b, 0xea, 0xed, 0x09, 0xdb, 0x01, 0x14, 0x03, 0xd1,
  0x61, 0x4b, 0xec, 0xd2, 0x22, 0xe3, 0xf5, 0x16, 0xe3, 0xd9, 0x05, 0xc1,
  0x07, 0x0d, 0x02, 0xe4, 0x59, 0x37, 0xe7, 0xf4, 0x29, 0xe6, 0xe7, 0x13,
  0xdc, 0xe8, 0x09, 0xd4, 0x15, 0xf3, 0xec, 0x2f, 0xf0, 0x01, 0xee, 0x35,
  0xf2, 0x0c, 0x2f, 0xdc, 0x38, 0x19, 0xf3, 0x02, 0x0c, 0xe7, 0xd0, 0x3d,
  0xe9, 0xf0, 0xee, 0x50, 0xf0, 0x13, 0x27, 0xc9, 0x2b, 0x25, 0xf7, 0x04,
  0x04, 0xef, 0xd3, 0x1e, 0xea, 0x01, 0xf7, 0x37, 0xe7, 0x0a, 0x27, 0xd0,
  0x34, 0x02, 0xfd, 0x0a, 0x17, 0x03, 0xed, 0x3d, 0xf1, 0x09, 0xf1, 0x69,
  0xe8, 0x03, 0x23, 0xcc, 0x0f, 0x25, 0xff, 0x13, 0x1a, 0xf0, 0xcf, 0x58,
  0xdf, 0x09, 0xe9, 0x7f, 0xe8, 0x1b, 0x49, 0xcc, 0x26, 0x22, 0xee, 0x1c,
  0x0d, 0x09, 0xd3, 0x40, 0xdf, 0x01, 0xea, 0x5b, 0xea, 0x10, 0x2e, 0xd6,
  0x24, 0x21, 0xf8, 0x18, 0x1c, 0x0c, 0xee, 0x20, 0xf8, 0x15, 0xdc, 0x47,
  0xe7, 0x21, 0x2f, 0xd8, 0x21, 0x06, 0x04, 0x04, 0x11, 0x09, 0xdf, 0x4e,
  0xe6, 0x07, 0xd7, 0x5d, 0xe3, 0x25, 0x40, 0xcf, 0x0c, 0x2a, 0xf2, 0x0c,
  0x0c, 0xfd, 0xeb, 0x37, 0xef, 0xfc, 0xdb, 0x35, 0xea, 0x1d, 0x32, 0xe2,
  0xeb, 0x07, 0xee, 0x1a, 0x4d, 0x26, 0x00, 0xef, 0xf5, 0x1c, 0xd0, 0x39,
  0xc5, 0xd9, 0x35, 0xe6, 0x28, 0xd7, 0x3d, 0xf5, 0x5d, 0x28, 0x1e, 0xfc,
  0x03, 0x04, 0xb6, 0x3e, 0xb4, 0xe4, 0x52, 0xe9, 0x42, 0xe2, 0x48, 0xdb,
  0x5b, 0x26, 0x0d, 0xfe, 0x04, 0x0a, 0xce, 0x36, 0xd2, 0xf1, 0x1a, 0xdd,
  0x3c, 0xdf, 0x58, 0xd2, 0x4c, 0x33, 0xff, 0xc9, 0xef, 0x1d, 0x99, 0x48,
  0xca, 0xc2, 0x5c, 0xdf, 0x39, 0xd8, 0x35, 0xd9, 0x61, 0x19, 0x22, 0xdc,
  0xed, 0x1b, 0x8b, 0x45, 0xaf, 0xda, 0x6f, 0xc9, 0x4b, 0xc4, 0x4d, 0xc8,
  0x5a, 0x25, 0x28, 0xe0, 0xf5, 0x19, 0x97, 0x55, 0xab, 0xdb, 0x28, 0xdb,
  0x5e, 0xec, 0x62, 0xb5, 0x4c, 0x03, 0xe4, 0x9c, 0xe9, 0x0b, 0x85, 0x1c,
  0xbf, 0xd6, 0x28, 0xfa, 0x1e, 0xc9, 0x33, 0xe9, 0x62, 0x23, 0x15, 0xbb,
  0xe3, 0xe7, 0x81, 0x38, 0xa2, 0xd4, 0x39, 0xe9, 0x44, 0xd3, 0x4a, 0xe1,
  0x5d, 0x0c, 0x1f, 0xe2, 0xf2, 0xe3, 0x98, 0x45, 0xae, 0xed, 0x0f, 0xe5,
  0x3b, 0xe1, 0x42, 0xe3, 0x38, 0x41, 0x81, 0x03, 0x99, 0xcf, 0x1d, 0x34,
  0x1f, 0x6a, 0xd6, 0x81, 0xca, 0xdf, 0x20, 0x3d, 0x17, 0x2b, 0x8d, 0x10,
  0xad, 0x8f, 0x12, 0x47, 0x2f, 0x60, 0xc0, 0x93, 0x01, 0xe5, 0x13, 0x57,
  0x23, 0x0f, 0xa3, 0x4f, 0xdd, 0xd7, 0x21, 0x6b, 0x03, 0x56, 0xc5, 0xe1,
  0xc6, 0x1e, 0x05, 0x63, 0x20, 0x1c, 0xba, 0x08, 0xb4, 0xe1, 0x01, 0x67,
  0x01, 0x71, 0xc1, 0xc1, 0x0b, 0x06, 0x1b, 0x5d, 0x2a, 0x32, 0xbb, 0xf5,
  0xbb, 0xc6, 0x2c, 0x49, 0x1d, 0x5a, 0xb3, 0xd1, 0x28, 0x33, 0xf5, 0x59,
  0x3c, 0x18, 0x9e, 0x21, 0xd7, 0xcc, 0x02, 0x41, 0xf6, 0x65, 0xb5, 0xd0,
  0xd3, 0x12, 0x20, 0x58, 0x2d, 0x52, 0xf7, 0xed, 0xe8, 0xe7, 0x22, 0x4a,
  0x36, 0x5d, 0xce, 0x06, 0x05, 0xff, 0x1e, 0x4c, 0x3b, 0x51, 0xe9, 0xb5,
  0xd9, 0xed, 0x20, 0x41, 0x14, 0x57, 0x82, 0x0a, 0x40, 0x03, 0x13, 0x7a,
  0x42, 0x37, 0xca, 0xd1, 0xf5, 0x03, 0xff, 0x21, 0x1f, 0x62, 0xb0, 0xe9,
  0x23, 0xe2, 0x34, 0x78, 0x11, 0xe3, 0x48, 0xe9, 0x0c, 0xf6, 0x1e, 0xf9,
  0xfe, 0xee, 0xe5, 0xfb, 0x07, 0xad, 0x03, 0xec, 0x17, 0xec, 0x6a, 0x11,
  0xf8, 0xf0, 0x19, 0x11, 0xf5, 0xe9, 0xdb, 0x03, 0xf0, 0xc7, 0x18, 0xf5,
  0x0a, 0xd5, 0x72, 0x09, 0x08, 0xeb, 0x0a, 0x11, 0xd3, 0xf0, 0xe1, 0x10,
  0xdd, 0xea, 0x0a, 0xf5, 0x22, 0xee, 0x5e, 0xe1, 0x02, 0xf3, 0x06, 0xc5,
  0xf9, 0xf2, 0xe4, 0x03, 0xff, 0x93, 0x16, 0x8d, 0x17, 0xf1, 0x79, 0xe8,
  0xfc, 0xee, 0x1f, 0xd8, 0x00, 0xec, 0xd1, 0x00, 0xf2, 0xca, 0x16, 0xa0,
  0xfb, 0xd1, 0x7f, 0x10, 0x01, 0xe3, 0x27, 0xee, 0xe0, 0xf8, 0xd5, 0x11,
  0xd3, 0xf1, 0xe6, 0xd1, 0x1f, 0xed, 0x26, 0xf8, 0x03, 0xfa, 0x13, 0xe3,
  0xf6, 0xed, 0xe0, 0x00, 0x0e, 0xad, 0x25, 0x8a, 0x1e, 0xf3, 0x48, 0x21,
  0xf4, 0xec, 0x18, 0xdd, 0xf5, 0xf0, 0xb8, 0x09, 0xf5, 0xe2, 0x1d, 0x9e,
  0x07, 0xdb, 0x47, 0x26, 0x06, 0xf1, 0x15, 0x0c, 0xe3, 0xfd, 0xc2, 0x14,
  0xc9, 0x03, 0xff, 0xe3, 0x32, 0x04, 0x2a, 0xdf, 0xef, 0xda, 0xed, 0x13,
  0xe8, 0xeb, 0x0a, 0x01, 0x0e, 0xc8, 0x1e, 0xec, 0x47, 0xfc, 0x53, 0xed,
  0xea, 0xcc, 0xf4, 0x29, 0xdc, 0xe4, 0x13, 0x00, 0x25, 0xdd, 0x38, 0xe5,
  0x32, 0x05, 0x46, 0x00, 0xe7, 0xca, 0xff, 0x16, 0xd7, 0xe4, 0x02, 0xfc,
  0x28, 0x00, 0x2c, 0xfc, 0x43, 0x07, 0x47, 0xdb, 0xea, 0xe4, 0xd3, 0x1e,
  0xd4, 0xda, 0x0b, 0x05, 0x32, 0xbc, 0x2c, 0xd3, 0x45, 0xff, 0x77, 0xf0,
  0xe8, 0xe1, 0xe7, 0x26, 0xda, 0xd9, 0xf0, 0x04, 0x24, 0xda, 0x2b, 0xbd,
  0x3b, 0x03, 0x7f, 0x0d, 0xdd, 0xd5, 0xe7, 0x2d, 0xe2, 0xe6, 0xf7, 0x0a,
  0x1d, 0xfb, 0x15, 0xd3, 0x32, 0x03, 0x27, 0xd4, 0xfa, 0xe8, 0xe3, 0x0b,
  0xe5, 0xe9, 0xd3, 0x0b, 0x2c, 0xbf, 0x2e, 0xc1, 0x3b, 0x07, 0x4d, 0xec,
  0xee, 0xdd, 0xcf, 0x20, 0xdc, 0xe6, 0xe9, 0x12, 0x0d, 0xd9, 0x2b, 0xc4,
  0x3c, 0x00, 0x5d, 0x06, 0xee, 0xe4, 0xca, 0x20, 0xe5, 0xf6, 0xe0, 0x09,
  0x00, 0x09, 0x0d, 0xe5, 0xf3, 0xc0, 0x1c, 0xb0, 0x28, 0x21, 0x7f, 0x20,
  0x30, 0xb9, 0x09, 0xdf, 0xc1, 0xac, 0x00, 0xdb, 0xea, 0xda, 0x56, 0xeb,
  0xdd, 0x2c, 0x39, 0xd2, 0x00, 0xbc, 0xcf, 0xcd, 0xe8, 0xc7, 0x17, 0xbc,
  0xe8, 0xce, 0x42, 0xe8, 0xe5, 0x27, 0xea, 0xd2, 0xdb, 0xdf, 0xec, 0xd1,
  0xbf, 0xc9, 0x0b, 0xb5, 0x0e, 0xb4, 0xe5, 0xbd, 0x23, 0xf8, 0x63, 0xe9,
  0x0a, 0xb1, 0x34, 0xf6, 0x95, 0xcd, 0xfe, 0xaa, 0xe6, 0x0e, 0xd5, 0xbb,
  0x0e, 0xd9, 0x51, 0xbf, 0x04, 0xd4, 0xca, 0xc1, 0xea, 0xd6, 0xf7, 0xbf,
  0x32, 0x01, 0xed, 0xda, 0x1d, 0xec, 0x21, 0xe6, 0x9a, 0xc6, 0xba, 0xda,
  0xdf, 0xf9, 0x1e, 0xd1, 0xf6, 0xad, 0x1e, 0xd0, 0x17, 0xe8, 0x69, 0x27,
  0x2d, 0xc8, 0x34, 0xf8, 0x97, 0xd2, 0x16, 0xc8, 0x1b, 0xb7, 0xf9, 0xe9,
  0xc1, 0xf1, 0x3c, 0xfa, 0x01, 0xb4, 0xd7, 0xfa, 0xc7, 0xcf, 0x29, 0xe8,
  0xce, 0xac, 0xd0, 0x14, 0xd5, 0xf1, 0xce, 0xea, 0x96, 0xc7, 0xa0, 0xf6,
  0xb4, 0xe7, 0xb1, 0xca, 0x2b, 0xf1, 0x28, 0xf6, 0xf9, 0xd5, 0xf6, 0x11,
  0x9e, 0xfa, 0xf0, 0x34, 0x22, 0xca, 0x09, 0xde, 0x26, 0x02, 0x5b, 0x14,
  0xe2, 0xdc, 0x09, 0x10, 0xd8, 0xfc, 0xfb, 0x2e, 0x11, 0xc6, 0x12, 0x01,
  0x3a, 0xf3, 0x54, 0x15, 0xdd, 0xc6, 0x09, 0x3d, 0xc9, 0xfd, 0xe1, 0x2a,
  0x18, 0xeb, 0x0c, 0xff, 0x47, 0xcd, 0x44, 0xe2, 0xf5, 0xcd, 0xd9, 0x36,
  0xcd, 0xfd, 0x0a, 0xfb, 0x30, 0xb1, 0x06, 0xa3, 0x2a, 0xe5, 0x6b, 0x06,
  0xf6, 0xcd, 0x12, 0x50, 0xf3, 0x00, 0xd8, 0x18, 0x29, 0xc9, 0x1b, 0xca,
  0x41, 0xec, 0x7f, 0x1c, 0xdf, 0xcf, 0xdb, 0x3b, 0xda, 0x16, 0x0b, 0x23,
  0x02, 0xfd, 0xff, 0xdb, 0x08, 0xd2, 0x30, 0x02, 0xef, 0xd1, 0x3d, 0x0b,
  0xed, 0x00, 0xe0, 0x02, 0x2e, 0xc7, 0x06, 0xe5, 0x22, 0xe5, 0x7a, 0x1d,
  0xe6, 0xc8, 0x08, 0x32, 0xf5, 0x03, 0xf1, 0xfb, 0x23, 0xdb, 0x02, 0xf5,
  0x12, 0xea, 0x7d, 0x1b, 0xea, 0xdb, 0xdf, 0x32, 0xf7, 0x06, 0x0a, 0x06,
  0xe7, 0x0f, 0xf4, 0x00, 0xb6, 0xfd, 0xff, 0xff, 0x04, 0x00, 0x00, 0x00,
  0x60, 0x00, 0x00, 0x00, 0x2f, 0x0b, 0x00, 0x00, 0xff, 0xfc, 0xff, 0xff,
  0xb8, 0xfd, 0xff, 0xff, 0xa7, 0xff, 0xff, 0xff, 0x98, 0xff, 0xff, 0xff,
  0xb7, 0x03, 0x00, 0x00, 0x70, 0x11, 0x00, 0x00, 0x6e, 0x16, 0x00, 0x00,
  0x07, 0xff, 0xff, 0xff, 0xd4, 0xfd, 0xff, 0xff, 0xef, 0xfd, 0xff, 0xff,
  0x33, 0xfd, 0xff, 0xff, 0xd5, 0xfe, 0xff, 0xff, 0x35, 0x0c, 0x00, 0x00,
  0xea, 0xfd, 0xff, 0xff, 0x40, 0xfe, 0xff, 0xff, 0x59, 0xff, 0xff, 0xff,
  0x7b, 0xfe, 0xff, 0xff, 0xb1, 0xfc, 0xff, 0xff, 0xa0, 0xfc, 0xff, 0xff,
  0xe8, 0x05, 0x00, 0x00, 0xb9, 0xfd, 0xff, 0xff, 0xca, 0x15, 0x00, 0x00,
  0x6c, 0xfe, 0xff, 0xff, 0x22, 0xfe, 0xff, 0xff, 0x04, 0x00, 0x00, 0x00,
  0xf0, 0x00, 0x00, 0x00, 0xa5, 0x64, 0xd4, 0xa2, 0x0f, 0xd3, 0x81, 0xb1,
  0x26, 0x1c, 0x1f, 0x3e, 0x45, 0x8c, 0x27, 0x48, 0x0b, 0x0e, 0xb1, 0xdb,
  0x85, 0x0c, 0x97, 0xbc, 0x19, 0xba, 0xd9, 0x21, 0xd0, 0x17, 0xfd, 0x0f,
  0x09, 0xe4, 0x9e, 0xab, 0xf0, 0x1f, 0xbb, 0x31, 0x05, 0xd7, 0xae, 0xb0,
  0xf2, 0x81, 0x0b, 0xd0, 0xe6, 0x04, 0xb5, 0xe4, 0xb0, 0xc2, 0xe1, 0xd4,
  0x88, 0x0f, 0xdb, 0x2f, 0xd3, 0xec, 0x81, 0x08, 0xa0, 0x28, 0x1a, 0xdd,
  0x0c, 0x4c, 0xe4, 0x1d, 0xd1, 0x0b, 0xd2, 0x95, 0xc6, 0xc3, 0xf2, 0xf2,
  0x81, 0xf2, 0xdc, 0x3c, 0xc7, 0xcd, 0xcf, 0xb0, 0xd7, 0xf8, 0x1c, 0xdb,
  0xd8, 0x55, 0xca, 0x1b, 0xcb, 0x98, 0x3b, 0x1e, 0xf9, 0x20, 0xde, 0xe2,
  0x26, 0x93, 0x19, 0x81, 0xb3, 0xea, 0x54, 0x00, 0x14, 0xcc, 0x23, 0xbb,
  0xd5, 0xf5, 0xdb, 0xe0, 0xdb, 0x81, 0xce, 0x08, 0xca, 0xe5, 0xf2, 0xe0,
  0x9c, 0xca, 0x42, 0xff, 0xb1, 0xe5, 0xcb, 0xfb, 0xbe, 0x1f, 0x48, 0x30,
  0xd3, 0x01, 0xf9, 0xd0, 0xe7, 0x27, 0xb8, 0xf6, 0xd4, 0xe8, 0xf0, 0xe8,
  0xd8, 0x0e, 0xee, 0xf9, 0x14, 0xfa, 0x81, 0x3d, 0xc3, 0x33, 0xb9, 0xf7,
  0xd5, 0xa7, 0xfd, 0xc8, 0x0f, 0xca, 0xd1, 0xc4, 0x02, 0xf1, 0x0c, 0x12,
  0xfa, 0xb9, 0xcb, 0xff, 0x9d, 0xff, 0x12, 0x81, 0x05, 0x96, 0xd7, 0xdf,
  0x1f, 0x17, 0x10, 0xe6, 0xb0, 0x62, 0x17, 0xb8, 0x41, 0xb2, 0xca, 0xcc,
  0x19, 0x27, 0xf9, 0x31, 0x4f, 0xce, 0x0e, 0xb2, 0xa7, 0xe7, 0x8c, 0x2f,
  0xc3, 0x81, 0xac, 0xef, 0xf9, 0xdc, 0x1a, 0xc4, 0xc5, 0xb1, 0xf2, 0xd0,
  0x1a, 0xd6, 0xf9, 0xa3, 0x05, 0xc7, 0x40, 0xa1, 0x0b, 0x81, 0xf9, 0xec,
  0x07, 0xfa, 0xeb, 0xee, 0x1e, 0xff, 0xff, 0xff, 0x04, 0x00, 0x00, 0x00,
  0x28, 0x00, 0x00, 0x00, 0xb5, 0xda, 0xff, 0xff, 0x21, 0xfb, 0xff, 0xff,
  0x53, 0xf0, 0xff, 0xff, 0x59, 0xec, 0xff, 0xff, 0x8f, 0xf0, 0xff, 0xff,
  0xaf, 0xf4, 0xff, 0xff, 0xe5, 0xf8, 0xff, 0xff, 0x3b, 0xfc, 0xff, 0xff,
  0xb7, 0xe6, 0xff, 0xff, 0x83, 0xe7, 0xff, 0xff, 0x52, 0xff, 0xff, 0xff,
  0x04, 0x00, 0x00, 0x00, 0x08, 0x00, 0x00, 0x00, 0x01, 0x00, 0x00, 0x00,
  0x02, 0x00, 0x00, 0x00, 0x08, 0xf3, 0xff, 0xff, 0x0c, 0xf3, 0xff, 0xff,
  0x0f, 0x00, 0x00, 0x00, 0x4d, 0x4c, 0x49, 0x52, 0x20, 0x43, 0x6f, 0x6e,
  0x76, 0x65, 0x72, 0x74, 0x65, 0x64, 0x2e, 0x00, 0x01, 0x00, 0x00, 0x00,
  0x14, 0x00, 0x00, 0x00, 0x00, 0x00, 0x0e, 0x00, 0x18, 0x00, 0x14, 0x00,
  0x10, 0x00, 0x0c, 0x00, 0x08, 0x00, 0x04, 0x00, 0x0e, 0x00, 0x00, 0x00,
  0x14, 0x00, 0x00, 0x00, 0x1c, 0x00, 0x00, 0x00, 0x80, 0x01, 0x00, 0x00,
  0x84, 0x01, 0x00, 0x00, 0x88, 0x01, 0x00, 0x00, 0x04, 0x00, 0x00, 0x00,
  0x6d, 0x61, 0x69, 0x6e, 0x00, 0x00, 0x00, 0x00, 0x05, 0x00, 0x00, 0x00,
  0x1c, 0x01, 0x00, 0x00, 0xcc, 0x00, 0x00, 0x00, 0x98, 0x00, 0x00, 0x00,
  0x50, 0x00, 0x00, 0x00, 0x14, 0x00, 0x00, 0x00, 0x00, 0x00, 0x0e, 0x00,
  0x1a, 0x00, 0x14, 0x00, 0x10, 0x00, 0x0c, 0x00, 0x0b, 0x00, 0x04, 0x00,
  0x0e, 0x00, 0x00, 0x00, 0x1c, 0x00, 0x00, 0x00, 0x00, 0x00, 0x00, 0x09,
  0x1c, 0x00, 0x00, 0x00, 0x20, 0x00, 0x00, 0x00, 0x03, 0x00, 0x00, 0x00,
  0x00, 0x00, 0x06, 0x00, 0x08, 0x00, 0x04, 0x00, 0x06, 0x00, 0x00, 0x00,
  0x00, 0x00, 0x80, 0x3f, 0x01, 0x00, 0x00, 0x00, 0x0c, 0x00, 0x00, 0x00,
  0x01, 0x00, 0x00, 0x00, 0x0b, 0x00, 0x00, 0x00, 0xca, 0xff, 0xff, 0xff,
  0x14, 0x00, 0x00, 0x00, 0x00, 0x00, 0x00, 0x08, 0x10, 0x00, 0x00, 0x00,
  0x14, 0x00, 0x00, 0x00, 0x02, 0x00, 0x00, 0x00, 0xd8, 0xf3, 0xff, 0xff,
  0x01, 0x00, 0x00, 0x00, 0x0b, 0x00, 0x00, 0x00, 0x03, 0x00, 0x00, 0x00,
  0x0a, 0x00, 0x00, 0x00, 0x03, 0x00, 0x00, 0x00, 0x02, 0x00, 0x00, 0x00,
  0x00, 0x00, 0x0e, 0x00, 0x18, 0x00, 0x14, 0x00, 0x10, 0x00, 0x0c, 0x00,
  0x0b, 0x00, 0x04, 0x00, 0x0e, 0x00, 0x00, 0x00, 0x14, 0x00, 0x00, 0x00,
  0x00, 0x00, 0x00, 0x1b, 0x10, 0x00, 0x00, 0x00, 0x14, 0x00, 0x00, 0x00,
  0x01, 0x00, 0x00, 0x00, 0x1c, 0xf4, 0xff, 0xff, 0x01, 0x00, 0x00, 0x00,
  0x0a, 0x00, 0x00, 0x00, 0x02, 0x00, 0x00, 0x00, 0x09, 0x00, 0x00, 0x00,
  0x01, 0x00, 0x00, 0x00, 0xc2, 0xff, 0xff, 0xff, 0x10, 0x00, 0x00, 0x00,
  0x00, 0x00, 0x00, 0x01, 0x18, 0x00, 0x00, 0x00, 0x1c, 0x00, 0x00, 0x00,
  0xb4, 0xff, 0xff, 0xff, 0x00, 0x00, 0x00, 0x01, 0x02, 0x00, 0x00, 0x00,
  0x02, 0x00, 0x00, 0x00, 0x01, 0x00, 0x00, 0x00, 0x09, 0x00, 0x00, 0x00,
  0x03, 0x00, 0x00, 0x00, 0x08, 0x00, 0x00, 0x00, 0x05, 0x00, 0x00, 0x00,
  0x04, 0x00, 0x00, 0x00, 0x00, 0x00, 0x0e, 0x00, 0x14, 0x00, 0x00, 0x00,
  0x10, 0x00, 0x0c, 0x00, 0x0b, 0x00, 0x04, 0x00, 0x0e, 0x00, 0x00, 0x00,
  0x1c, 0x00, 0x00, 0x00, 0x00, 0x00, 0x00, 0x01, 0x24, 0x00, 0x00, 0x00,
  0x28, 0x00, 0x00, 0x00, 0x0c, 0x00, 0x10, 0x00, 0x00, 0x00, 0x0c, 0x00,
  0x08, 0x00, 0x07, 0x00, 0x0c, 0x00, 0x00, 0x00, 0x00, 0x00, 0x00, 0x01,
  0x02, 0x00, 0x00, 0x00, 0x02, 0x00, 0x00, 0x00, 0x01, 0x00, 0x00, 0x00,
  0x08, 0x00, 0x00, 0x00, 0x03, 0x00, 0x00, 0x00, 0x00, 0x00, 0x00, 0x00,
  0x07, 0x00, 0x00, 0x00, 0x06, 0x00, 0x00, 0x00, 0x01, 0x00, 0x00, 0x00,
  0x0c, 0x00, 0x00, 0x00, 0x01, 0x00, 0x00, 0x00, 0x00, 0x00, 0x00, 0x00,
  0x0d, 0x00, 0x00, 0x00, 0x60, 0x0b, 0x00, 0x00, 0x04, 0x0b, 0x00, 0x00,
  0x1c, 0x0a, 0x00, 0x00, 0x48, 0x09, 0x00, 0x00, 0xd4, 0x07, 0x00, 0x00,
  0x50, 0x06, 0x00, 0x00, 0x3c, 0x05, 0x00, 0x00, 0x18, 0x04, 0x00, 0x00,
  0xe4, 0x02, 0x00, 0x00, 0xa8, 0x01, 0x00, 0x00, 0x1c, 0x01, 0x00, 0x00,
  0x80, 0x00, 0x00, 0x00, 0x04, 0x00, 0x00, 0x00, 0xea, 0xf4, 0xff, 0xff,
  0x00, 0x00, 0x00, 0x01, 0x18, 0x00, 0x00, 0x00, 0x20, 0x00, 0x00, 0x00,
  0x3c, 0x00, 0x00, 0x00, 0x0d, 0x00, 0x00, 0x00, 0x00, 0x00, 0x00, 0x09,
  0x50, 0x00, 0x00, 0x00, 0x02, 0x00, 0x00, 0x00, 0xff, 0xff, 0xff, 0xff,
  0x0a, 0x00, 0x00, 0x00, 0xcc, 0xf4, 0xff, 0xff, 0x08, 0x00, 0x00, 0x00,
  0x10, 0x00, 0x00, 0x00, 0x01, 0x00, 0x00, 0x00, 0x80, 0xff, 0xff, 0xff,
  0xff, 0xff, 0xff, 0xff, 0x01, 0x00, 0x00, 0x00, 0x00, 0x00, 0x80, 0x3b,
  0x1b, 0x00, 0x00, 0x00, 0x53, 0x74, 0x61, 0x74, 0x65, 0x66, 0x75, 0x6c,
  0x50, 0x61, 0x72, 0x74, 0x69, 0x74, 0x69, 0x6f, 0x6e, 0x65, 0x64, 0x43,
  0x61, 0x6c, 0x6c, 0x5f, 0x31, 0x3a, 0x30, 0x00, 0x02, 0x00, 0x00, 0x00,
  0x01, 0x00, 0x00, 0x00, 0x0a, 0x00, 0x00, 0x00, 0x62, 0xf5, 0xff, 0xff,
  0x00, 0x00, 0x00, 0x01, 0x18, 0x00, 0x00, 0x00, 0x20, 0x00, 0x00, 0x00,
  0x40, 0x00, 0x00, 0x00, 0x0c, 0x00, 0x00, 0x00, 0x00, 0x00, 0x00, 0x09,
  0x70, 0x00, 0x00, 0x00, 0x02, 0x00, 0x00, 0x00, 0xff, 0xff, 0xff, 0xff,
  0x0a, 0x00, 0x00, 0x00, 0x44, 0xf5, 0xff, 0xff, 0x08, 0x00, 0x00, 0x00,
  0x14, 0x00, 0x00, 0x00, 0x01, 0x00, 0x00, 0x00, 0x4a, 0x00, 0x00, 0x00,
  0x00, 0x00, 0x00, 0x00, 0x00, 0x00, 0x00, 0x00, 0x01, 0x00, 0x00, 0x00,
  0xc6, 0xec, 0x4c, 0x3d, 0x36, 0x00, 0x00, 0x00, 0x6d, 0x69, 0x64, 0x5f,
  0x31, 0x36, 0x5f, 0x32, 0x34, 0x5f, 0x31, 0x2f, 0x64, 0x65, 0x6e, 0x73,
  0x65, 0x5f, 0x31, 0x2f, 0x4d, 0x61, 0x74, 0x4d, 0x75, 0x6c, 0x3b, 0x6d,
  0x69, 0x64, 0x5f, 0x31, 0x36, 0x5f, 0x32, 0x34, 0x5f, 0x31, 0x2f, 0x64,
  0x65, 0x6e, 0x73, 0x65, 0x5f, 0x31, 0x2f, 0x42, 0x69, 0x61, 0x73, 0x41,
  0x64, 0x64, 0x00, 0x00, 0x02, 0x00, 0x00, 0x00, 0x01, 0x00, 0x00, 0x00,
  0x0a, 0x00, 0x00, 0x00, 0xfa, 0xf5, 0xff, 0xff, 0x00, 0x00, 0x00, 0x01,
  0x18, 0x00, 0x00, 0x00, 0x20, 0x00, 0x00, 0x00, 0x3c, 0x00, 0x00, 0x00,
  0x0b, 0x00, 0x00, 0x00, 0x00, 0x00, 0x00, 0x09, 0x60, 0x00, 0x00, 0x00,
  0x02, 0x00, 0x00, 0x00, 0xff, 0xff, 0xff, 0xff, 0x18, 0x00, 0x00, 0x00,
  0xdc, 0xf5, 0xff, 0xff, 0x08, 0x00, 0x00, 0x00, 0x10, 0x00, 0x00, 0x00,
  0x01, 0x00, 0x00, 0x00, 0x80, 0xff, 0xff, 0xff, 0xff, 0xff, 0xff, 0xff,
  0x01, 0x00, 0x00, 0x00, 0xd9, 0x1e, 0x16, 0x3c, 0x2b, 0x00, 0x00, 0x00,
  0x6d, 0x69, 0x64, 0x5f, 0x31, 0x36, 0x5f, 0x32, 0x34, 0x5f, 0x31, 0x2f,
  0x67, 0x6c, 0x6f, 0x62, 0x61, 0x6c, 0x5f, 0x61, 0x76, 0x65, 0x72, 0x61,
  0x67, 0x65, 0x5f, 0x70, 0x6f, 0x6f, 0x6c, 0x69, 0x6e, 0x67, 0x32, 0x64,
  0x5f, 0x31, 0x2f, 0x4d, 0x65, 0x61, 0x6e, 0x00, 0x02, 0x00, 0x00, 0x00,
  0x01, 0x00, 0x00, 0x00, 0x18, 0x00, 0x00, 0x00, 0x82, 0xf6, 0xff, 0xff,
  0x00, 0x00, 0x00, 0x01, 0x18, 0x00, 0x00, 0x00, 0x28, 0x00, 0x00, 0x00,
  0x44, 0x00, 0x00, 0x00, 0x0a, 0x00, 0x00, 0x00, 0x00, 0x00, 0x00, 0x09,
  0x08, 0x01, 0x00, 0x00, 0x04, 0x00, 0x00, 0x00, 0xff, 0xff, 0xff, 0xff,
  0x08, 0x00, 0x00, 0x00, 0x08, 0x00, 0x00, 0x00, 0x18, 0x00, 0x00, 0x00,
  0x6c, 0xf6, 0xff, 0xff, 0x08, 0x00, 0x00, 0x00, 0x10, 0x00, 0x00, 0x00,
  0x01, 0x00, 0x00, 0x00, 0x80, 0xff, 0xff, 0xff, 0xff, 0xff, 0xff, 0xff,
  0x01, 0x00, 0x00, 0x00, 0x5e, 0xa9, 0xc3, 0x3d, 0xca, 0x00, 0x00, 0x00,
  0x6d, 0x69, 0x64, 0x5f, 0x31, 0x36, 0x5f, 0x32, 0x34, 0x5f, 0x31, 0x2f,
  0x61, 0x63, 0x74, 0x69, 0x76, 0x61, 0x74, 0x69, 0x6f, 0x6e, 0x5f, 0x31,
  0x5f, 0x32, 0x2f, 0x52, 0x65, 0x6c, 0x75, 0x3b, 0x6d, 0x69, 0x64, 0x5f,
  0x31, 0x36, 0x5f, 0x32, 0x34, 0x5f, 0x31, 0x2f, 0x62, 0x61, 0x74, 0x63,
  0x68, 0x5f, 0x6e, 0x6f, 0x72, 0x6d, 0x61, 0x6c, 0x69, 0x7a, 0x61, 0x74,
  0x69, 0x6f, 0x6e, 0x5f, 0x31, 0x5f, 0x32, 0x2f, 0x62, 0x61, 0x74, 0x63,
  0x68, 0x6e, 0x6f, 0x72, 0x6d, 0x2f, 0x61, 0x64, 0x64, 0x5f, 0x31, 0x3b,
  0x6d, 0x69, 0x64, 0x5f, 0x31, 0x36, 0x5f, 0x32, 0x34, 0x5f, 0x31, 0x2f,
  0x62, 0x61, 0x74, 0x63, 0x68, 0x5f, 0x6e, 0x6f, 0x72, 0x6d, 0x61, 0x6c,
  0x69, 0x7a, 0x61, 0x74, 0x69, 0x6f, 0x6e, 0x5f, 0x31, 0x5f, 0x32, 0x2f,
  0x62, 0x61, 0x74, 0x63, 0x68, 0x6e, 0x6f, 0x72, 0x6d, 0x2f, 0x6d, 0x75,
  0x6c, 0x5f, 0x31, 0x3b, 0x3b, 0x6d, 0x69, 0x64, 0x5f, 0x31, 0x36, 0x5f,
  0x32, 0x34, 0x5f, 0x31, 0x2f, 0x63, 0x6f, 0x6e, 0x76, 0x32, 0x64, 0x5f,
  0x31, 0x5f, 0x32, 0x2f, 0x42, 0x69, 0x61, 0x73, 0x41, 0x64, 0x64, 0x3b,
  0x6d, 0x69, 0x64, 0x5f, 0x31, 0x36, 0x5f, 0x32, 0x34, 0x5f, 0x31, 0x2f,
  0x63, 0x6f, 0x6e, 0x76, 0x32, 0x64, 0x5f, 0x31, 0x5f, 0x32, 0x2f, 0x63,
  0x6f, 0x6e, 0x76, 0x6f, 0x6c, 0x75, 0x74, 0x69, 0x6f, 0x6e, 0x00, 0x00,
  0x04, 0x00, 0x00, 0x00, 0x01, 0x00, 0x00, 0x00, 0x08, 0x00, 0x00, 0x00,
  0x08, 0x00, 0x00, 0x00, 0x18, 0x00, 0x00, 0x00, 0xba, 0xf7, 0xff, 0xff,
  0x00, 0x00, 0x00, 0x01, 0x18, 0x00, 0x00, 0x00, 0x28, 0x00, 0x00, 0x00,
  0x44, 0x00, 0x00, 0x00, 0x09, 0x00, 0x00, 0x00, 0x00, 0x00, 0x00, 0x09,
  0x00, 0x01, 0x00, 0x00, 0x04, 0x00, 0x00, 0x00, 0xff, 0xff, 0xff, 0xff,
  0x10, 0x00, 0x00, 0x00, 0x10, 0x00, 0x00, 0x00, 0x10, 0x00, 0x00, 0x00,
  0xa4, 0xf7, 0xff, 0xff, 0x08, 0x00, 0x00, 0x00, 0x10, 0x00, 0x00, 0x00,
  0x01, 0x00, 0x00, 0x00, 0x80, 0xff, 0xff, 0xff, 0xff, 0xff, 0xff, 0xff,
  0x01, 0x00, 0x00, 0x00, 0x02, 0xb1, 0xb5, 0x3c, 0xc1, 0x00, 0x00, 0x00,
  0x6d, 0x69, 0x64, 0x5f, 0x31, 0x36, 0x5f, 0x32, 0x34, 0x5f, 0x31, 0x2f,
  0x61, 0x63, 0x74, 0x69, 0x76, 0x61, 0x74, 0x69, 0x6f, 0x6e, 0x5f, 0x31,
  0x2f, 0x52, 0x65, 0x6c, 0x75, 0x3b, 0x6d, 0x69, 0x64, 0x5f, 0x31, 0x36,
  0x5f, 0x32, 0x34, 0x5f, 0x31, 0x2f, 0x62, 0x61, 0x74, 0x63, 0x68, 0x5f,
  0x6e, 0x6f, 0x72, 0x6d, 0x61, 0x6c, 0x69, 0x7a, 0x61, 0x74, 0x69, 0x6f,
  0x6e, 0x5f, 0x31, 0x2f, 0x62, 0x61, 0x74, 0x63, 0x68, 0x6e, 0x6f, 0x72,
  0x6d, 0x2f, 0x61, 0x64, 0x64, 0x5f, 0x31, 0x3b, 0x6d, 0x69, 0x64, 0x5f,
  0x31, 0x36, 0x5f, 0x32, 0x34, 0x5f, 0x31, 0x2f, 0x62, 0x61, 0x74, 0x63,
  0x68, 0x5f, 0x6e, 0x6f, 0x72, 0x6d, 0x61, 0x6c, 0x69, 0x7a, 0x61, 0x74,
  0x69, 0x6f, 0x6e, 0x5f, 0x31, 0x2f, 0x62, 0x61, 0x74, 0x63, 0x68, 0x6e,
  0x6f, 0x72, 0x6d, 0x2f, 0x6d, 0x75, 0x6c, 0x5f, 0x31, 0x3b, 0x3b, 0x6d,
  0x69, 0x64, 0x5f, 0x31, 0x36, 0x5f, 0x32, 0x34, 0x5f, 0x31, 0x2f, 0x63,
  0x6f, 0x6e, 0x76, 0x32, 0x64, 0x5f, 0x31, 0x2f, 0x42, 0x69, 0x61, 0x73,
  0x41, 0x64, 0x64, 0x3b, 0x6d, 0x69, 0x64, 0x5f, 0x31, 0x36, 0x5f, 0x32,
  0x34, 0x5f, 0x31, 0x2f, 0x63, 0x6f, 0x6e, 0x76, 0x32, 0x64, 0x5f, 0x31,
  0x2f, 0x63, 0x6f, 0x6e, 0x76, 0x6f, 0x6c, 0x75, 0x74, 0x69, 0x6f, 0x6e,
  0x31, 0x00, 0x00, 0x00, 0x04, 0x00, 0x00, 0x00, 0x01, 0x00, 0x00, 0x00,
  0x10, 0x00, 0x00, 0x00, 0x10, 0x00, 0x00, 0x00, 0x10, 0x00, 0x00, 0x00,
  0x42, 0xf9, 0xff, 0xff, 0x00, 0x00, 0x00, 0x01, 0x14, 0x00, 0x00, 0x00,
  0xe8, 0x00, 0x00, 0x00, 0x08, 0x00, 0x00, 0x00, 0x00, 0x00, 0x00, 0x09,
  0xf4, 0x00, 0x00, 0x00, 0xbc, 0xf8, 0xff, 0xff, 0x08, 0x00, 0x00, 0x00,
  0x8c, 0x00, 0x00, 0x00, 0x10, 0x00, 0x00, 0x00, 0x00, 0x00, 0x00, 0x00,
  0x00, 0x00, 0x00, 0x00, 0x00, 0x00, 0x00, 0x00, 0x00, 0x00, 0x00, 0x00,
  0x00, 0x00, 0x00, 0x00, 0x00, 0x00, 0x00, 0x00, 0x00, 0x00, 0x00, 0x00,
  0x00, 0x00, 0x00, 0x00, 0x00, 0x00, 0x00, 0x00, 0x00, 0x00, 0x00, 0x00,
  0x00, 0x00, 0x00, 0x00, 0x00, 0x00, 0x00, 0x00, 0x00, 0x00, 0x00, 0x00,
  0x00, 0x00, 0x00, 0x00, 0x00, 0x00, 0x00, 0x00, 0x00, 0x00, 0x00, 0x00,
  0x00, 0x00, 0x00, 0x00, 0x00, 0x00, 0x00, 0x00, 0x00, 0x00, 0x00, 0x00,
  0x00, 0x00, 0x00, 0x00, 0x00, 0x00, 0x00, 0x00, 0x00, 0x00, 0x00, 0x00,
  0x00, 0x00, 0x00, 0x00, 0x00, 0x00, 0x00, 0x00, 0x00, 0x00, 0x00, 0x00,
  0x00, 0x00, 0x00, 0x00, 0x00, 0x00, 0x00, 0x00, 0x00, 0x00, 0x00, 0x00,
  0x00, 0x00, 0x00, 0x00, 0x00, 0x00, 0x00, 0x00, 0x00, 0x00, 0x00, 0x00,
  0x00, 0x00, 0x00, 0x00, 0x00, 0x00, 0x00, 0x00, 0x10, 0x00, 0x00, 0x00,
  0x70, 0xde, 0x1e, 0x39, 0x1e, 0xa0, 0x35, 0x39, 0x1d, 0x7a, 0x1e, 0x39,
  0xc5, 0xbf, 0x1d, 0x39, 0x9d, 0xd3, 0x40, 0x39, 0x00, 0x8c, 0xb0, 0x38,
  0x4a, 0x5c, 0x82, 0x39, 0x96, 0xe0, 0x70, 0x39, 0x95, 0x7e, 0xac, 0x38,
  0x7e, 0x82, 0x45, 0x39, 0x60, 0xe4, 0x9f, 0x39, 0x9d, 0x9d, 0x80, 0x39,
  0xef, 0xea, 0xf0, 0x38, 0x01, 0x97, 0x3d, 0x39, 0xed, 0x47, 0x76, 0x39,
  0xec, 0x7b, 0x13, 0x39, 0x12, 0x00, 0x00, 0x00, 0x74, 0x66, 0x6c, 0x2e,
  0x70, 0x73, 0x65, 0x75, 0x64, 0x6f, 0x5f, 0x71, 0x63, 0x6f, 0x6e, 0x73,
  0x74, 0x35, 0x00, 0x00, 0x04, 0x00, 0x00, 0x00, 0x10, 0x00, 0x00, 0x00,
  0x03, 0x00, 0x00, 0x00, 0x03, 0x00, 0x00, 0x00, 0x03, 0x00, 0x00, 0x00,
  0x62, 0xfa, 0xff, 0xff, 0x00, 0x00, 0x00, 0x01, 0x14, 0x00, 0x00, 0x00,
  0xe4, 0x00, 0x00, 0x00, 0x07, 0x00, 0x00, 0x00, 0x00, 0x00, 0x00, 0x02,
  0xf0, 0x00, 0x00, 0x00, 0xdc, 0xf9, 0xff, 0xff, 0x08, 0x00, 0x00, 0x00,
  0x88, 0x00, 0x00, 0x00, 0x10, 0x00, 0x00, 0x00, 0x00, 0x00, 0x00, 0x00,
  0x00, 0x00, 0x00, 0x00, 0x00, 0x00, 0x00, 0x00, 0x00, 0x00, 0x00, 0x00,
  0x00, 0x00, 0x00, 0x00, 0x00, 0x00, 0x00, 0x00, 0x00, 0x00, 0x00, 0x00,
  0x00, 0x00, 0x00, 0x00, 0x00, 0x00, 0x00, 0x00, 0x00, 0x00, 0x00, 0x00,
  0x00, 0x00, 0x00, 0x00, 0x00, 0x00, 0x00, 0x00, 0x00, 0x00, 0x00, 0x00,
  0x00, 0x00, 0x00, 0x00, 0x00, 0x00, 0x00, 0x00, 0x00, 0x00, 0x00, 0x00,
  0x00, 0x00, 0x00, 0x00, 0x00, 0x00, 0x00, 0x00, 0x00, 0x00, 0x00, 0x00,
  0x00, 0x00, 0x00, 0x00, 0x00, 0x00, 0x00, 0x00, 0x00, 0x00, 0x00, 0x00,
  0x00, 0x00, 0x00, 0x00, 0x00, 0x00, 0x00, 0x00, 0x00, 0x00, 0x00, 0x00,
  0x00, 0x00, 0x00, 0x00, 0x00, 0x00, 0x00, 0x00, 0x00, 0x00, 0x00, 0x00,
  0x00, 0x00, 0x00, 0x00, 0x00, 0x00, 0x00, 0x00, 0x00, 0x00, 0x00, 0x00,
  0x00, 0x00, 0x00, 0x00, 0x10, 0x00, 0x00, 0x00, 0x70, 0xde, 0x1e, 0x39,
  0x1e, 0xa0, 0x35, 0x39, 0x1d, 0x7a, 0x1e, 0x39, 0xc5, 0xbf, 0x1d, 0x39,
  0x9d, 0xd3, 0x40, 0x39, 0x00, 0x8c, 0xb0, 0x38, 0x4a, 0x5c, 0x82, 0x39,
  0x96, 0xe0, 0x70, 0x39, 0x95, 0x7e, 0xac, 0x38, 0x7e, 0x82, 0x45, 0x39,
  0x60, 0xe4, 0x9f, 0x39, 0x9d, 0x9d, 0x80, 0x39, 0xef, 0xea, 0xf0, 0x38,
  0x01, 0x97, 0x3d, 0x39, 0xed, 0x47, 0x76, 0x39, 0xec, 0x7b, 0x13, 0x39,
  0x12, 0x00, 0x00, 0x00, 0x74, 0x66, 0x6c, 0x2e, 0x70, 0x73, 0x65, 0x75,
  0x64, 0x6f, 0x5f, 0x71, 0x63, 0x6f, 0x6e, 0x73, 0x74, 0x34, 0x00, 0x00,
  0x01, 0x00, 0x00, 0x00, 0x10, 0x00, 0x00, 0x00, 0x72, 0xfb, 0xff, 0xff,
  0x00, 0x00, 0x00, 0x01, 0x14, 0x00, 0x00, 0x00, 0x48, 0x01, 0x00, 0x00,
  0x06, 0x00, 0x00, 0x00, 0x00, 0x00, 0x00, 0x09, 0x54, 0x01, 0x00, 0x00,
  0xec, 0xfa, 0xff, 0xff, 0x08, 0x00, 0x00, 0x00, 0xcc, 0x00, 0x00, 0x00,
  0x18, 0x00, 0x00, 0x00, 0x00, 0x00, 0x00, 0x00, 0x00, 0x00, 0x00, 0x00,
  0x00, 0x00, 0x00, 0x00, 0x00, 0x00, 0x00, 0x00, 0x00, 0x00, 0x00, 0x00,
  0x00, 0x00, 0x00, 0x00, 0x00, 0x00, 0x00, 0x00, 0x00, 0x00, 0x00, 0x00,
  0x00, 0x00, 0x00, 0x00, 0x00, 0x00, 0x00, 0x00, 0x00, 0x00, 0x00, 0x00,
  0x00, 0x00, 0x00, 0x00, 0x00, 0x00, 0x00, 0x00, 0x00, 0x00, 0x00, 0x00,
  0x00, 0x00, 0x00, 0x00, 0x00, 0x00, 0x00, 0x00, 0x00, 0x00, 0x00, 0x00,
  0x00, 0x00, 0x00, 0x00, 0x00, 0x00, 0x00, 0x00, 0x00, 0x00, 0x00, 0x00,
  0x00, 0x00, 0x00, 0x00, 0x00, 0x00, 0x00, 0x00, 0x00, 0x00, 0x00, 0x00,
  0x00, 0x00, 0x00, 0x00, 0x00, 0x00, 0x00, 0x00, 0x00, 0x00, 0x00, 0x00,
  0x00, 0x00, 0x00, 0x00, 0x00, 0x00, 0x00, 0x00, 0x00, 0x00, 0x00, 0x00,
  0x00, 0x00, 0x00, 0x00, 0x00, 0x00, 0x00, 0x00, 0x00, 0x00, 0x00, 0x00,
  0x00, 0x00, 0x00, 0x00, 0x00, 0x00, 0x00, 0x00, 0x00, 0x00, 0x00, 0x00,
  0x00, 0x00, 0x00, 0x00, 0x00, 0x00, 0x00, 0x00, 0x00, 0x00, 0x00, 0x00,
  0x00, 0x00, 0x00, 0x00, 0x00, 0x00, 0x00, 0x00, 0x00, 0x00, 0x00, 0x00,
  0x00, 0x00, 0x00, 0x00, 0x00, 0x00, 0x00, 0x00, 0x00, 0x00, 0x00, 0x00,
  0x00, 0x00, 0x00, 0x00, 0x00, 0x00, 0x00, 0x00, 0x00, 0x00, 0x00, 0x00,
  0x00, 0x00, 0x00, 0x00, 0x00, 0x00, 0x00, 0x00, 0x18, 0x00, 0x00, 0x00,
  0xac, 0xe7, 0x48, 0x3c, 0xc4, 0x5a, 0x4d, 0x3c, 0x1a, 0x5d, 0x3d, 0x3c,
  0x0d, 0xbf, 0xd0, 0x3c, 0x87, 0x18, 0x86, 0x3c, 0xd4, 0x0f, 0x93, 0x3c,
  0x56, 0x89, 0x22, 0x3c, 0x73, 0x65, 0x01, 0x3c, 0x38, 0x78, 0xa0, 0x3c,
  0xf9, 0x38, 0x43, 0x3c, 0x35, 0x75, 0x5b, 0x3c, 0x28, 0x8b, 0x85, 0x3c,
  0x85, 0x29, 0x86, 0x3c, 0x19, 0x90, 0x51, 0x3c, 0xf8, 0xc4, 0x85, 0x3c,
  0xae, 0xb0, 0xbe, 0x3c, 0x0b, 0x71, 0x7f, 0x3c, 0x24, 0x6e, 0xc3, 0x3c,
  0xf2, 0xe6, 0x7d, 0x3c, 0x7a, 0x47, 0x0d, 0x3c, 0x3b, 0x9b, 0x7a, 0x3c,
  0x6a, 0xa9, 0xa0, 0x3c, 0xa0, 0x4c, 0xe9, 0x3b, 0xe5, 0x91, 0x5d, 0x3c,
  0x12, 0x00, 0x00, 0x00, 0x74, 0x66, 0x6c, 0x2e, 0x70, 0x73, 0x65, 0x75,
  0x64, 0x6f, 0x5f, 0x71, 0x63, 0x6f, 0x6e, 0x73, 0x74, 0x33, 0x00, 0x00,
  0x04, 0x00, 0x00, 0x00, 0x18, 0x00, 0x00, 0x00, 0x03, 0x00, 0x00, 0x00,
  0x03, 0x00, 0x00, 0x00, 0x10, 0x00, 0x00, 0x00, 0xf2, 0xfc, 0xff, 0xff,
  0x00, 0x00, 0x00, 0x01, 0x14, 0x00, 0x00, 0x00, 0x44, 0x01, 0x00, 0x00,
  0x05, 0x00, 0x00, 0x00, 0x00, 0x00, 0x00, 0x02, 0x50, 0x01, 0x00, 0x00,
  0x6c, 0xfc, 0xff, 0xff, 0x08, 0x00, 0x00, 0x00, 0xc8, 0x00, 0x00, 0x00,
  0x18, 0x00, 0x00, 0x00, 0x00, 0x00, 0x00, 0x00, 0x00, 0x00, 0x00, 0x00,
  0x00, 0x00, 0x00, 0x00, 0x00, 0x00, 0x00, 0x00, 0x00, 0x00, 0x00, 0x00,
  0x00, 0x00, 0x00, 0x00, 0x00, 0x00, 0x00, 0x00, 0x00, 0x00, 0x00, 0x00,
  0x00, 0x00, 0x00, 0x00, 0x00, 0x00, 0x00, 0x00, 0x00, 0x00, 0x00, 0x00,
  0x00, 0x00, 0x00, 0x00, 0x00, 0x00, 0x00, 0x00, 0x00, 0x00, 0x00, 0x00,
  0x00, 0x00, 0x00, 0x00, 0x00, 0x00, 0x00, 0x00, 0x00, 0x00, 0x00, 0x00,
  0x00, 0x00, 0x00, 0x00, 0x00, 0x00, 0x00, 0x00, 0x00, 0x00, 0x00, 0x00,
  0x00, 0x00, 0x00, 0x00, 0x00, 0x00, 0x00, 0x00, 0x00, 0x00, 0x00, 0x00,
  0x00, 0x00, 0x00, 0x00, 0x00, 0x00, 0x00, 0x00, 0x00, 0x00, 0x00, 0x00,
  0x00, 0x00, 0x00, 0x00, 0x00, 0x00, 0x00, 0x00, 0x00, 0x00, 0x00, 0x00,
  0x00, 0x00, 0x00, 0x00, 0x00, 0x00, 0x00, 0x00, 0x00, 0x00, 0x00, 0x00,
  0x00, 0x00, 0x00, 0x00, 0x00, 0x00, 0x00, 0x00, 0x00, 0x00, 0x00, 0x00,
  0x00, 0x00, 0x00, 0x00, 0x00, 0x00, 0x00, 0x00, 0x00, 0x00, 0x00, 0x00,
  0x00, 0x00, 0x00, 0x00, 0x00, 0x00, 0x00, 0x00, 0x00, 0x00, 0x00, 0x00,
  0x00, 0x00, 0x00, 0x00, 0x00, 0x00, 0x00, 0x00, 0x00, 0x00, 0x00, 0x00,
  0x00, 0x00, 0x00, 0x00, 0x00, 0x00, 0x00, 0x00, 0x00, 0x00, 0x00, 0x00,
  0x00, 0x00, 0x00, 0x00, 0x18, 0x00, 0x00, 0x00, 0xb6, 0x96, 0x8e, 0x39,
  0x2a, 0xbf, 0x91, 0x39, 0xc2, 0x65, 0x86, 0x39, 0x6a, 0x27, 0x14, 0x3a,
  0x1f, 0x58, 0xbe, 0x39, 0xc0, 0xbf, 0xd0, 0x39, 0xf8, 0xb6, 0x66, 0x39,
  0x65, 0xac, 0x37, 0x39, 0xe8, 0xc7, 0xe3, 0x39, 0x44, 0x8e, 0x8a, 0x39,
  0x9c, 0xc1, 0x9b, 0x39, 0x73, 0x8f, 0xbd, 0x39, 0x3e, 0x70, 0xbe, 0x39,
  0xc8, 0xbb, 0x94, 0x39, 0x83, 0xe1, 0xbd, 0x39, 0xc5, 0x56, 0x07, 0x3a,
  0x8c, 0x4b, 0xb5, 0x39, 0x00, 0xb4, 0x0a, 0x3a, 0xd8, 0x33, 0xb4, 0x39,
  0x72, 0x8a, 0x48, 0x39, 0x08, 0xdd, 0xb1, 0x39, 0xbd, 0x0d, 0xe4, 0x39,
  0x7d, 0x94, 0x25, 0x39, 0x5b, 0x41, 0x9d, 0x39, 0x12, 0x00, 0x00, 0x00,
  0x74, 0x66, 0x6c, 0x2e, 0x70, 0x73, 0x65, 0x75, 0x64, 0x6f, 0x5f, 0x71,
  0x63, 0x6f, 0x6e, 0x73, 0x74, 0x32, 0x00, 0x00, 0x01, 0x00, 0x00, 0x00,
  0x18, 0x00, 0x00, 0x00, 0x62, 0xfe, 0xff, 0xff, 0x00, 0x00, 0x00, 0x01,
  0x14, 0x00, 0x00, 0x00, 0xa0, 0x00, 0x00, 0x00, 0x04, 0x00, 0x00, 0x00,
  0x00, 0x00, 0x00, 0x09, 0xac, 0x00, 0x00, 0x00, 0xdc, 0xfd, 0xff, 0xff,
  0x08, 0x00, 0x00, 0x00, 0x5c, 0x00, 0x00, 0x00, 0x0a, 0x00, 0x00, 0x00,
  0x00, 0x00, 0x00, 0x00, 0x00, 0x00, 0x00, 0x00, 0x00, 0x00, 0x00, 0x00,
  0x00, 0x00, 0x00, 0x00, 0x00, 0x00, 0x00, 0x00, 0x00, 0x00, 0x00, 0x00,
  0x00, 0x00, 0x00, 0x00, 0x00, 0x00, 0x00, 0x00, 0x00, 0x00, 0x00, 0x00,
  0x00, 0x00, 0x00, 0x00, 0x00, 0x00, 0x00, 0x00, 0x00, 0x00, 0x00, 0x00,
  0x00, 0x00, 0x00, 0x00, 0x00, 0x00, 0x00, 0x00, 0x00, 0x00, 0x00, 0x00,
  0x00, 0x00, 0x00, 0x00, 0x00, 0x00, 0x00, 0x00, 0x00, 0x00, 0x00, 0x00,
  0x00, 0x00, 0x00, 0x00, 0x00, 0x00, 0x00, 0x00, 0x00, 0x00, 0x00, 0x00,
  0x0a, 0x00, 0x00, 0x00, 0x36, 0x14, 0xc1, 0x3b, 0xd5, 0x15, 0x49, 0x3c,
  0x2b, 0x35, 0x16, 0x3c, 0xce, 0xd3, 0xcb, 0x3b, 0x92, 0xf0, 0x37, 0x3c,
  0x32, 0xac, 0x1b, 0x3c, 0xcb, 0xd3, 0x21, 0x3c, 0xd2, 0x93, 0x39, 0x3c,
  0x9b, 0xef, 0xe0, 0x3b, 0x84, 0x86, 0xc5, 0x3b, 0x12, 0x00, 0x00, 0x00,
  0x74, 0x66, 0x6c, 0x2e, 0x70, 0x73, 0x65, 0x75, 0x64, 0x6f, 0x5f, 0x71,
  0x63, 0x6f, 0x6e, 0x73, 0x74, 0x31, 0x00, 0x00, 0x02, 0x00, 0x00, 0x00,
  0x0a, 0x00, 0x00, 0x00, 0x18, 0x00, 0x00, 0x00, 0x32, 0xff, 0xff, 0xff,
  0x00, 0x00, 0x00, 0x01, 0x14, 0x00, 0x00, 0x00, 0xa0, 0x00, 0x00, 0x00,
  0x03, 0x00, 0x00, 0x00, 0x00, 0x00, 0x00, 0x02, 0xac, 0x00, 0x00, 0x00,
  0xac, 0xfe, 0xff, 0xff, 0x08, 0x00, 0x00, 0x00, 0x5c, 0x00, 0x00, 0x00,
  0x0a, 0x00, 0x00, 0x00, 0x00, 0x00, 0x00, 0x00, 0x00, 0x00, 0x00, 0x00,
  0x00, 0x00, 0x00, 0x00, 0x00, 0x00, 0x00, 0x00, 0x00, 0x00, 0x00, 0x00,
  0x00, 0x00, 0x00, 0x00, 0x00, 0x00, 0x00, 0x00, 0x00, 0x00, 0x00, 0x00,
  0x00, 0x00, 0x00, 0x00, 0x00, 0x00, 0x00, 0x00, 0x00, 0x00, 0x00, 0x00,
  0x00, 0x00, 0x00, 0x00, 0x00, 0x00, 0x00, 0x00, 0x00, 0x00, 0x00, 0x00,
  0x00, 0x00, 0x00, 0x00, 0x00, 0x00, 0x00, 0x00, 0x00, 0x00, 0x00, 0x00,
  0x00, 0x00, 0x00, 0x00, 0x00, 0x00, 0x00, 0x00, 0x00, 0x00, 0x00, 0x00,
  0x00, 0x00, 0x00, 0x00, 0x0a, 0x00, 0x00, 0x00, 0x37, 0x72, 0x62, 0x38,
  0x0c, 0xd6, 0xeb, 0x38, 0x82, 0x2a, 0xb0, 0x38, 0x55, 0x0d, 0x6f, 0x38,
  0x3f, 0xba, 0xd7, 0x38, 0x4f, 0x93, 0xb6, 0x38, 0x32, 0xcb, 0xbd, 0x38,
  0xf3, 0xa5, 0xd9, 0x38, 0x80, 0xe7, 0x83, 0x38, 0x3d, 0xa9, 0x67, 0x38,
  0x11, 0x00, 0x00, 0x00, 0x74, 0x66, 0x6c, 0x2e, 0x70, 0x73, 0x65, 0x75,
  0x64, 0x6f, 0x5f, 0x71, 0x63, 0x6f, 0x6e, 0x73, 0x74, 0x00, 0x00, 0x00,
  0x01, 0x00, 0x00, 0x00, 0x0a, 0x00, 0x00, 0x00, 0x00, 0x00, 0x16, 0x00,
  0x1c, 0x00, 0x18, 0x00, 0x17, 0x00, 0x10, 0x00, 0x0c, 0x00, 0x08, 0x00,
  0x00, 0x00, 0x00, 0x00, 0x00, 0x00, 0x07, 0x00, 0x16, 0x00, 0x00, 0x00,
  0x00, 0x00, 0x00, 0x01, 0x18, 0x00, 0x00, 0x00, 0x18, 0x00, 0x00, 0x00,
  0x02, 0x00, 0x00, 0x00, 0x00, 0x00, 0x00, 0x02, 0x20, 0x00, 0x00, 0x00,
  0x04, 0x00, 0x04, 0x00, 0x04, 0x00, 0x00, 0x00, 0x0e, 0x00, 0x00, 0x00,
  0x61, 0x72, 0x69, 0x74, 0x68, 0x2e, 0x63, 0x6f, 0x6e, 0x73, 0x74, 0x61,
  0x6e, 0x74, 0x00, 0x00, 0x01, 0x00, 0x00, 0x00, 0x02, 0x00, 0x00, 0x00,
  0x00, 0x00, 0x16, 0x00, 0x20, 0x00, 0x1c, 0x00, 0x1b, 0x00, 0x14, 0x00,
  0x10, 0x00, 0x0c, 0x00, 0x00, 0x00, 0x00, 0x00, 0x08, 0x00, 0x07, 0x00,
  0x16, 0x00, 0x00, 0x00, 0x00, 0x00, 0x00, 0x01, 0x18, 0x00, 0x00, 0x00,
  0x34, 0x00, 0x00, 0x00, 0x50, 0x00, 0x00, 0x00, 0x01, 0x00, 0x00, 0x00,
  0x00, 0x00, 0x00, 0x09, 0x68, 0x00, 0x00, 0x00, 0x04, 0x00, 0x00, 0x00,
  0xff, 0xff, 0xff, 0xff, 0x20, 0x00, 0x00, 0x00, 0x20, 0x00, 0x00, 0x00,
  0x03, 0x00, 0x00, 0x00, 0x0c, 0x00, 0x0c, 0x00, 0x00, 0x00, 0x00, 0x00,
  0x08, 0x00, 0x04, 0x00, 0x0c, 0x00, 0x00, 0x00, 0x08, 0x00, 0x00, 0x00,
  0x10, 0x00, 0x00, 0x00, 0x01, 0x00, 0x00, 0x00, 0x80, 0xff, 0xff, 0xff,
  0xff, 0xff, 0xff, 0xff, 0x01, 0x00, 0x00, 0x00, 0x00, 0x00, 0x80, 0x3f,
  0x1e, 0x00, 0x00, 0x00, 0x73, 0x65, 0x72, 0x76, 0x69, 0x6e, 0x67, 0x5f,
  0x64, 0x65, 0x66, 0x61, 0x75, 0x6c, 0x74, 0x5f, 0x6b, 0x65, 0x72, 0x61,
  0x73, 0x5f, 0x74, 0x65, 0x6e, 0x73, 0x6f, 0x72, 0x3a, 0x30, 0x00, 0x00,
  0x04, 0x00, 0x00, 0x00, 0x01, 0x00, 0x00, 0x00, 0x20, 0x00, 0x00, 0x00,
  0x20, 0x00, 0x00, 0x00, 0x03, 0x00, 0x00, 0x00, 0x04, 0x00, 0x00, 0x00,
  0x4c, 0x00, 0x00, 0x00, 0x2c, 0x00, 0x00, 0x00, 0x18, 0x00, 0x00, 0x00,
  0x04, 0x00, 0x00, 0x00, 0xd0, 0xff, 0xff, 0xff, 0x19, 0x00, 0x00, 0x00,
  0x02, 0x00, 0x00, 0x00, 0x00, 0x00, 0x00, 0x19, 0xe0, 0xff, 0xff, 0xff,
  0x09, 0x00, 0x00, 0x00, 0x04, 0x00, 0x00, 0x00, 0x00, 0x00, 0x00, 0x09,
  0xf0, 0xff, 0xff, 0xff, 0x28, 0x00, 0x00, 0x00, 0x02, 0x00, 0x00, 0x00,
  0x00, 0x00, 0x00, 0x28, 0x0c, 0x00, 0x10, 0x00, 0x0f, 0x00, 0x00, 0x00,
  0x08, 0x00, 0x04, 0x00, 0x0c, 0x00, 0x00, 0x00, 0x03, 0x00, 0x00, 0x00,
  0x03, 0x00, 0x00, 0x00, 0x00, 0x00, 0x00, 0x03
};
unsigned int g_magic_wand_model_data_len = 8624;
