unsigned char g_magic_wand_model_data[] = {
  0x20, 0x00, 0x00, 0x00, 0x54, 0x46, 0x4c, 0x33, 0x00, 0x00, 0x00, 0x00,
  0x14, 0x00, 0x20, 0x00, 0x1c, 0x00, 0x18, 0x00, 0x14, 0x00, 0x10, 0x00,
  0x0c, 0x00, 0x00, 0x00, 0x08, 0x00, 0x04, 0x00, 0x14, 0x00, 0x00, 0x00,
  0x1c, 0x00, 0x00, 0x00, 0x98, 0x00, 0x00, 0x00, 0x18, 0x01, 0x00, 0x00,
  0xa4, 0x13, 0x00, 0x00, 0xb4, 0x13, 0x00, 0x00, 0x90, 0x21, 0x00, 0x00,
  0x03, 0x00, 0x00, 0x00, 0x01, 0x00, 0x00, 0x00, 0x10, 0x00, 0x00, 0x00,
  0x00, 0x00, 0x0a, 0x00, 0x10, 0x00, 0x0c, 0x00, 0x08, 0x00, 0x04, 0x00,
  0x0a, 0x00, 0x00, 0x00, 0x0c, 0x00, 0x00, 0x00, 0x1c, 0x00, 0x00, 0x00,
  0x3c, 0x00, 0x00, 0x00, 0x0f, 0x00, 0x00, 0x00, 0x73, 0x65, 0x72, 0x76,
  0x69, 0x6e, 0x67, 0x5f, 0x64, 0x65, 0x66, 0x61, 0x75, 0x6c, 0x74, 0x00,
  0x01, 0x00, 0x00, 0x00, 0x04, 0x00, 0x00, 0x00, 0x68, 0xff, 0xff, 0xff,
  0x0c, 0x00, 0x00, 0x00, 0x04, 0x00, 0x00, 0x00, 0x08, 0x00, 0x00, 0x00,
  0x6f, 0x75, 0x74, 0x70, 0x75, 0x74, 0x5f, 0x30, 0x00, 0x00, 0x00, 0x00,
  0x01, 0x00, 0x00, 0x00, 0x04, 0x00, 0x00, 0x00, 0x3e, 0xec, 0xff, 0xff,
  0x04, 0x00, 0x00, 0x00, 0x0c, 0x00, 0x00, 0x00, 0x6b, 0x65, 0x72, 0x61,
  0x73, 0x5f, 0x74, 0x65, 0x6e, 0x73, 0x6f, 0x72, 0x00, 0x00, 0x00, 0x00,
  0x03, 0x00, 0x00, 0x00, 0x5c, 0x00, 0x00, 0x00, 0x2c, 0x00, 0x00, 0x00,
  0x04, 0x00, 0x00, 0x00, 0xb8, 0xff, 0xff, 0xff, 0x10, 0x00, 0x00, 0x00,
  0x04, 0x00, 0x00, 0x00, 0x13, 0x00, 0x00, 0x00, 0x43, 0x4f, 0x4e, 0x56,
  0x45, 0x52, 0x53, 0x49, 0x4f, 0x4e, 0x5f, 0x4d, 0x45, 0x54, 0x41, 0x44,
  0x41, 0x54, 0x41, 0x00, 0xdc, 0xff, 0xff, 0xff, 0x0f, 0x00, 0x00, 0x00,
  0x04, 0x00, 0x00, 0x00, 0x13, 0x00, 0x00, 0x00, 0x6d, 0x69, 0x6e, 0x5f,
  0x72, 0x75, 0x6e, 0x74, 0x69, 0x6d, 0x65, 0x5f, 0x76, 0x65, 0x72, 0x73,
  0x69, 0x6f, 0x6e, 0x00, 0x08, 0x00, 0x0c, 0x00, 0x08, 0x00, 0x04, 0x00,
  0x08, 0x00, 0x00, 0x00, 0x0e, 0x00, 0x00, 0x00, 0x04, 0x00, 0x00, 0x00,
  0x13, 0x00, 0x00, 0x00, 0x6d, 0x69, 0x6e, 0x5f, 0x72, 0x75, 0x6e, 0x74,
  0x69, 0x6d, 0x65, 0x5f, 0x76, 0x65, 0x72, 0x73, 0x69, 0x6f, 0x6e, 0x00,
  0x11, 0x00, 0x00, 0x00, 0x88, 0x12, 0x00, 0x00, 0x80, 0x12, 0x00, 0x00,
  0x68, 0x12, 0x00, 0x00, 0x30, 0x12, 0x00, 0x00, 0x08, 0x11, 0x00, 0x00,
  0x88, 0x10, 0x00, 0x00, 0xb0, 0x02, 0x00, 0x00, 0x68, 0x02, 0x00, 0x00,
  0xdc, 0x00, 0x00, 0x00, 0xd4, 0x00, 0x00, 0x00, 0xcc, 0x00, 0x00, 0x00,
  0xc4, 0x00, 0x00, 0x00, 0xbc, 0x00, 0x00, 0x00, 0xb4, 0x00, 0x00, 0x00,
  0x94, 0x00, 0x00, 0x00, 0x74, 0x00, 0x00, 0x00, 0x04, 0x00, 0x00, 0x00,
  0x26, 0xed, 0xff, 0xff, 0x04, 0x00, 0x00, 0x00, 0x60, 0x00, 0x00, 0x00,
  0x0c, 0x00, 0x00, 0x00, 0x08, 0x00, 0x0e, 0x00, 0x08, 0x00, 0x04, 0x00,
  0x08, 0x00, 0x00, 0x00, 0x10, 0x00, 0x00, 0x00, 0x28, 0x00, 0x00, 0x00,
  0x00, 0x00, 0x06, 0x00, 0x08, 0x00, 0x04, 0x00, 0x06, 0x00, 0x00, 0x00,
  0x04, 0x00, 0x00, 0x00, 0x01, 0x00, 0x00, 0x00, 0xeb, 0x03, 0x00, 0x00,
  0x0c, 0x00, 0x18, 0x00, 0x14, 0x00, 0x10, 0x00, 0x0c, 0x00, 0x04, 0x00,
  0x0c, 0x00, 0x00, 0x00, 0xac, 0x34, 0x6f, 0x3d, 0x70, 0x31, 0xb9, 0x50,
  0x02, 0x00, 0x00, 0x00, 0x02, 0x00, 0x00, 0x00, 0x04, 0x00, 0x00, 0x00,
  0x06, 0x00, 0x00, 0x00, 0x32, 0x2e, 0x31, 0x39, 0x2e, 0x30, 0x00, 0x00,
  0x92, 0xed, 0xff, 0xff, 0x04, 0x00, 0x00, 0x00, 0x10, 0x00, 0x00, 0x00,
  0x00, 0x00, 0x00, 0x00, 0x00, 0x00, 0x00, 0x00, 0x00, 0x00, 0x00, 0x00,
  0x00, 0x00, 0x00, 0x00, 0xae, 0xed, 0xff, 0xff, 0x04, 0x00, 0x00, 0x00,
  0x10, 0x00, 0x00, 0x00, 0x31, 0x2e, 0x31, 0x34, 0x2e, 0x30, 0x00, 0x00,
  0x00, 0x00, 0x00, 0x00, 0x00, 0x00, 0x00, 0x00, 0x3c, 0xe1, 0xff, 0xff,
  0x40, 0xe1, 0xff, 0xff, 0x44, 0xe1, 0xff, 0xff, 0x48, 0xe1, 0xff, 0xff,
  0x4c, 0xe1, 0xff, 0xff, 0xde, 0xed, 0xff, 0xff, 0x04, 0x00, 0x00, 0x00,
  0x7a, 0x01, 0x00, 0x00, 0x52, 0xc0, 0x3c, 0xe3, 0x8b, 0x27, 0xe3, 0x2f,
  0xe2, 0x08, 0x2f, 0xe2, 0xbf, 0x8c, 0x08, 0x11, 0xf6, 0x03, 0xc1, 0x39,
  0xb8, 0x81, 0xf9, 0xa0, 0x04, 0x04, 0xf2, 0xfd, 0xe1, 0xb9, 0xef, 0xca,
  0x81, 0x02, 0xd0, 0xf7, 0x01, 0x0e, 0x19, 0xec, 0x23, 0x1c, 0x02, 0x0a,
  0x0d, 0x05, 0x13, 0x10, 0x04, 0x0b, 0x0e, 0xf9, 0xfd, 0x0f, 0xdf, 0x19,
  0xbb, 0x22, 0xef, 0xd5, 0x1d, 0xca, 0xe5, 0xc7, 0x1d, 0xb4, 0xfa, 0x1f,
  0x8c, 0xba, 0xec, 0xb0, 0xdd, 0x13, 0xc9, 0xd7, 0x20, 0x81, 0xfc, 0xc0,
  0xfb, 0x2a, 0xd1, 0x37, 0xee, 0x0d, 0xd9, 0x26, 0xec, 0x99, 0x2b, 0xbd,
  0x43, 0xb4, 0x4a, 0xa7, 0x36, 0xc9, 0xf0, 0xd7, 0xdb, 0x1a, 0x81, 0x23,
  0xc5, 0x17, 0xdc, 0x14, 0x21, 0x26, 0x91, 0x2d, 0xfa, 0xa6, 0x31, 0xd6,
  0xa7, 0xb7, 0x96, 0xd6, 0x91, 0x81, 0x09, 0xeb, 0xd2, 0xf6, 0x21, 0xf9,
  0x08, 0x32, 0x1c, 0x19, 0x0a, 0x33, 0x0c, 0xfc, 0x16, 0xbc, 0xda, 0x1c,
  0xe8, 0xe9, 0xf9, 0x02, 0xc4, 0x0d, 0xb5, 0x05, 0x21, 0xf3, 0xcd, 0x0c,
  0xc3, 0xde, 0xa4, 0x01, 0x5f, 0xe4, 0x81, 0xe9, 0xfd, 0xc1, 0xe2, 0x05,
  0xf8, 0xa4, 0x24, 0xec, 0x10, 0x15, 0xfb, 0xba, 0xe2, 0xa7, 0x01, 0xbd,
  0xa9, 0x54, 0xfb, 0xb1, 0x81, 0x01, 0x27, 0x07, 0xf8, 0x20, 0x3d, 0xea,
  0x00, 0xe7, 0xfb, 0x21, 0x20, 0xf0, 0x16, 0x1e, 0xc8, 0xe2, 0xae, 0xf2,
  0x27, 0x41, 0x1f, 0xf7, 0xd6, 0xd3, 0x0a, 0x2c, 0xb6, 0x81, 0x27, 0x19,
  0x05, 0xd5, 0x01, 0x27, 0x7f, 0xa7, 0x05, 0x2c, 0xc2, 0x33, 0x27, 0xec,
  0x3b, 0x4c, 0xf3, 0x28, 0x04, 0xe4, 0x13, 0xfb, 0xe5, 0x58, 0x11, 0x32,
  0x49, 0xe8, 0x0d, 0x09, 0x1c, 0xf7, 0x3d, 0xdc, 0x0a, 0x22, 0x89, 0x0e,
  0x15, 0x81, 0x02, 0x24, 0xe9, 0x0e, 0x0e, 0x0c, 0x0f, 0x1d, 0x2c, 0xe5,
  0x10, 0xaa, 0xbe, 0xeb, 0xbe, 0xb5, 0xbd, 0xa5, 0xc9, 0xc2, 0xc1, 0xea,
  0xe8, 0xc4, 0x11, 0xb7, 0xcf, 0x20, 0x02, 0x49, 0x9c, 0x7f, 0x2e, 0xbc,
  0xdf, 0xcf, 0x3d, 0x8e, 0xaa, 0x27, 0x95, 0x1c, 0xa8, 0xf2, 0xfd, 0x02,
  0xf1, 0xf6, 0x09, 0x14, 0xf3, 0x0e, 0x10, 0x0d, 0x03, 0x81, 0xf6, 0x07,
  0x10, 0x05, 0xfd, 0x29, 0x1c, 0xde, 0x9a, 0xff, 0x00, 0x22, 0x25, 0xe8,
  0x25, 0xf5, 0x11, 0x98, 0x59, 0xf4, 0x2d, 0x2f, 0xe0, 0x4d, 0x2b, 0xd5,
  0x7f, 0x27, 0x29, 0x32, 0xdd, 0x2b, 0x08, 0x0c, 0x0b, 0x2f, 0x21, 0x01,
  0x12, 0xf4, 0x0c, 0x27, 0x23, 0x20, 0x3d, 0xf7, 0x0f, 0xd9, 0xf9, 0x0d,
  0x14, 0xe5, 0x0d, 0x1a, 0x0d, 0x05, 0x9d, 0xfd, 0x12, 0x1d, 0x12, 0x03,
  0x1d, 0x13, 0x06, 0x81, 0xfd, 0x16, 0x17, 0x04, 0xff, 0x1b, 0x00, 0x00,
  0x66, 0xef, 0xff, 0xff, 0x04, 0x00, 0x00, 0x00, 0x38, 0x00, 0x00, 0x00,
  0xf7, 0xfe, 0xff, 0xff, 0xb9, 0x00, 0x00, 0x00, 0x67, 0x00, 0x00, 0x00,
  0x83, 0xfb, 0xff, 0xff, 0x0f, 0xff, 0xff, 0xff, 0xb9, 0xfa, 0xff, 0xff,
  0xdb, 0xff, 0xff, 0xff, 0x46, 0xfb, 0xff, 0xff, 0x48, 0xf6, 0xff, 0xff,
  0x42, 0xff, 0xff, 0xff, 0xa6, 0xfb, 0xff, 0xff, 0xe8, 0xfd, 0xff, 0xff,
  0xa1, 0xe3, 0xff, 0xff, 0xb0, 0xed, 0xff, 0xff, 0xaa, 0xef, 0xff, 0xff,
  0x04, 0x00, 0x00, 0x00, 0xc8, 0x0d, 0x00, 0x00, 0x2a, 0xf6, 0xf2, 0xd8,
  0xd7, 0x43, 0x22, 0x24, 0x1a, 0xd0, 0x0f, 0x06, 0x0e, 0x16, 0x3f, 0xee,
  0xeb, 0xc9, 0xc6, 0x62, 0x39, 0x40, 0x1a, 0xc3, 0x12, 0xee, 0x16, 0x1a,
  0x1e, 0xea, 0xee, 0xe0, 0xdb, 0x53, 0x2d, 0x26, 0x0a, 0xd2, 0x11, 0xf8,
  0x0e, 0x21, 0x2f, 0xfc, 0xe2, 0xc2, 0xbf, 0x54, 0x45, 0x38, 0x24, 0x8e,
  0xf0, 0x06, 0x1a, 0x21, 0x27, 0xe9, 0xcc, 0xb6, 0xc7, 0x7f, 0x5f, 0x44,
  0x27, 0x8f, 0xfd, 0xd5, 0x24, 0x21, 0x18, 0xe7, 0xe0, 0xc1, 0xc9, 0x64,
  0x57, 0x15, 0x02, 0x9d, 0xf4, 0xfe, 0x0f, 0x1c, 0x23, 0xf5, 0xd2, 0xb3,
  0xe6, 0x51, 0x0e, 0x08, 0x03, 0x99, 0x01, 0xf3, 0x10, 0x1a, 0x2e, 0x05,
  0xcc, 0xaa, 0xe0, 0x6b, 0x2a, 0x27, 0x06, 0x98, 0xfa, 0xdb, 0x06, 0x1f,
  0x18, 0xec, 0xcc, 0xb3, 0xdf, 0x42, 0x19, 0x03, 0xe9, 0xac, 0x00, 0xd1,
  0x0f, 0x15, 0x1e, 0x03, 0xf5, 0xe5, 0x1d, 0x59, 0x0c, 0xf2, 0xf7, 0xff,
  0x18, 0x10, 0x1b, 0x36, 0xf9, 0x1c, 0xef, 0xca, 0x28, 0x5d, 0x71, 0xc9,
  0xe1, 0x0a, 0x0d, 0xf7, 0x20, 0x3c, 0x13, 0x13, 0xd6, 0xef, 0x08, 0x36,
  0x5c, 0xf7, 0xed, 0xf5, 0x04, 0xff, 0x12, 0x26, 0x0c, 0x2d, 0xdd, 0xce,
  0x2a, 0x45, 0x62, 0xc1, 0xf4, 0xe8, 0x09, 0xf3, 0x2a, 0x3f, 0xd0, 0x3d,
  0xc4, 0xe0, 0x08, 0x59, 0x59, 0xc7, 0xfa, 0xf9, 0x03, 0xe9, 0x24, 0x2d,
  0x05, 0x51, 0xdf, 0xd8, 0x23, 0x50, 0x7f, 0xbe, 0xdb, 0xef, 0xf9, 0xe1,
  0x21, 0x1c, 0x20, 0x4e, 0xf2, 0xdf, 0x18, 0x2d, 0x3e, 0xd7, 0xdb, 0xd0,
  0x0f, 0xe7, 0x14, 0x23, 0xe3, 0x14, 0xea, 0xc0, 0x62, 0x5a, 0x31, 0xda,
  0xed, 0xc6, 0x0d, 0xde, 0x20, 0x2f, 0xf9, 0x35, 0xbf, 0xf9, 0x22, 0x59,
  0x25, 0xed, 0xd7, 0xde, 0xf9, 0xdd, 0x1a, 0x12, 0x1e, 0x63, 0xd5, 0xc4,
  0x2a, 0x1e, 0x16, 0xeb, 0xfc, 0x64, 0x08, 0xe2, 0xd4, 0x21, 0xc7, 0x74,
  0xbe, 0xdd, 0x62, 0x33, 0xf7, 0xe7, 0xd1, 0x07, 0xf7, 0xdf, 0xeb, 0xf2,
  0x35, 0x50, 0xbe, 0xdb, 0x41, 0x73, 0x30, 0xf0, 0xcd, 0x23, 0xf9, 0x02,
  0xcc, 0x15, 0xf1, 0x74, 0xd7, 0xd9, 0x60, 0x23, 0x39, 0xfd, 0xf5, 0x57,
  0x09, 0xdd, 0xfa, 0x2f, 0xf1, 0x15, 0xde, 0x0c, 0x2b, 0x47, 0x1c, 0x17,
  0x01, 0x41, 0x0c, 0xc1, 0xeb, 0x25, 0x24, 0x19, 0xcc, 0xe1, 0x14, 0x54,
  0x66, 0xd1, 0xf1, 0x10, 0xe1, 0xfd, 0xbb, 0x09, 0x54, 0x6e, 0xe2, 0xbe,
  0x4e, 0x1a, 0xfe, 0xf8, 0xf2, 0x77, 0xc4, 0xb8, 0xcc, 0x15, 0x0c, 0x2d,
  0xe1, 0xda, 0x4c, 0xd3, 0x20, 0xf2, 0x02, 0x25, 0x0d, 0xca, 0xdc, 0xfd,
  0x39, 0x17, 0xba, 0x0d, 0x7f, 0xcc, 0xd6, 0x1a, 0xfa, 0x18, 0xdc, 0xe7,
  0xe4, 0xe9, 0xf8, 0x48, 0x06, 0xf1, 0x14, 0x2d, 0x52, 0xfc, 0xf6, 0x3e,
  0xf2, 0xd9, 0xf9, 0x04, 0x01, 0x46, 0x09, 0xd9, 0x20, 0x3d, 0x61, 0x10,
  0x02, 0x40, 0xea, 0xbf, 0xfa, 0xf3, 0xe8, 0x3f, 0xf8, 0xe7, 0x0b, 0x26,
  0x53, 0x20, 0xfc, 0x2b, 0xdf, 0xd1, 0xf6, 0xeb, 0xf8, 0x6b, 0xfd, 0xe4,
  0x1e, 0x3e, 0x55, 0x07, 0x05, 0x5a, 0xf7, 0xd0, 0x09, 0xf2, 0x03, 0x7f,
  0xfd, 0xc5, 0x3a, 0x50, 0x76, 0x1c, 0xfd, 0x52, 0xf6, 0xc4, 0xf8, 0xe3,
  0xec, 0x61, 0xe4, 0xe0, 0x12, 0x39, 0x65, 0x29, 0xf4, 0x50, 0xd4, 0xdd,
  0xff, 0xec, 0xd3, 0x4e, 0xf9, 0xec, 0x29, 0x25, 0x36, 0x1a, 0x0d, 0x3b,
  0xdf, 0xdc, 0xff, 0xe5, 0xe1, 0x56, 0xfb, 0xcb, 0x2b, 0x3f, 0x5a, 0x1d,
  0x04, 0x35, 0xd1, 0xd3, 0xff, 0xec, 0xd8, 0x4e, 0xf7, 0xde, 0x27, 0x22,
  0x55, 0x20, 0xfa, 0x25, 0xe2, 0xe1, 0xf1, 0xee, 0xf3, 0x2c, 0xcc, 0xc9,
  0xf5, 0x32, 0xfc, 0x1e, 0x4b, 0x11, 0xd9, 0xff, 0x31, 0xf1, 0xef, 0x0b,
  0xde, 0x9d, 0xde, 0x35, 0x0e, 0x47, 0x47, 0x1a, 0xd0, 0xea, 0x18, 0xf8,
  0x09, 0x07, 0xe5, 0xb2, 0xcc, 0x1e, 0x1e, 0x28, 0x2f, 0xf5, 0xc5, 0xd6,
  0x27, 0xf5, 0xe6, 0x31, 0xc5, 0xb5, 0xf3, 0x0c, 0xea, 0x29, 0x37, 0x0d,
  0xc1, 0xfe, 0x13, 0xf8, 0xf7, 0x40, 0xd5, 0x83, 0xf5, 0x05, 0x1b, 0x34,
  0x22, 0xf0, 0xb5, 0xdb, 0x1d, 0xfc, 0xf1, 0xfc, 0xef, 0xaa, 0xf0, 0xf6,
  0x18, 0x4b, 0x3a, 0xec, 0xbe, 0xc9, 0x1b, 0xf5, 0xdf, 0x1c, 0xde, 0xc6,
  0x07, 0x13, 0xfa, 0x1e, 0x3e, 0x03, 0xd6, 0x1c, 0x25, 0x07, 0xd2, 0x11,
  0xe0, 0x81, 0xf7, 0x0c, 0x08, 0x31, 0x25, 0xe9, 0xce, 0x0b, 0x23, 0x09,
  0xe1, 0x08, 0xd1, 0xb2, 0x03, 0xea, 0x0c, 0x2d, 0x45, 0xef, 0xc1, 0xea,
  0x23, 0x05, 0xe3, 0xdd, 0xfd, 0xd2, 0xe7, 0x3b, 0x22, 0x08, 0x27, 0xbb,
  0xde, 0x34, 0x26, 0x10, 0xfe, 0xd9, 0x07, 0xbd, 0xe4, 0x47, 0x37, 0x15,
  0x12, 0xa7, 0xe4, 0x38, 0x1f, 0x2a, 0xe4, 0xd8, 0x07, 0xc2, 0xd7, 0x30,
  0x46, 0x15, 0x1a, 0xa5, 0xef, 0x21, 0x25, 0x24, 0xd4, 0xea, 0xf3, 0xc5,
  0xdf, 0x52, 0x26, 0x0e, 0x21, 0x8f, 0xd8, 0x3a, 0x24, 0x2b, 0xf4, 0xe7,
  0xf5, 0xa4, 0xd1, 0x49, 0x2f, 0x17, 0x20, 0x94, 0xe2, 0x3e, 0x1e, 0x37,
  0xe0, 0xed, 0xd2, 0xbb, 0xd4, 0x4d, 0x41, 0x0f, 0x0c, 0x81, 0xe6, 0x16,
  0x1d, 0x26, 0xf4, 0xf5, 0xf2, 0xc5, 0xf5, 0x37, 0x14, 0xf4, 0x0b, 0x97,
  0xd3, 0x22, 0x17, 0x2a, 0xec, 0xe4, 0xf1, 0xaa, 0xf4, 0x38, 0x31, 0x0b,
  0xfd, 0x85, 0xdb, 0x2d, 0x15, 0x39, 0xf2, 0xe3, 0xee, 0xbd, 0xe4, 0x34,
  0x26, 0x04, 0x00, 0xa2, 0xd8, 0x1a, 0x11, 0x2a, 0x03, 0xcd, 0x24, 0x14,
  0xef, 0xf3, 0xc6, 0xc1, 0xfb, 0xb3, 0x0a, 0x6e, 0x08, 0x2f, 0xfe, 0xd6,
  0x02, 0x08, 0xf2, 0xe1, 0xc6, 0xf8, 0x0d, 0xec, 0x0c, 0x7f, 0x16, 0x40,
  0xef, 0xd7, 0x01, 0xf7, 0xf0, 0xf5, 0xec, 0xe4, 0x1a, 0xe4, 0x0a, 0x5d,
  0x18, 0x2c, 0xe2, 0xc4, 0xf1, 0x17, 0xea, 0xce, 0xd9, 0xe2, 0x01, 0xc3,
  0xfb, 0x76, 0x17, 0x3c, 0xff, 0xd4, 0xf7, 0x01, 0xf7, 0xe3, 0xc3, 0xeb,
  0x01, 0xd7, 0xee, 0x7f, 0x19, 0x3a, 0xf0, 0xce, 0xdf, 0xfa, 0xe7, 0xea,
  0xe8, 0xe5, 0x1b, 0xd6, 0xf7, 0x64, 0x16, 0x3a, 0xdd, 0xc9, 0xe2, 0x00,
  0xeb, 0xd7, 0xe6, 0xf6, 0x00, 0xbf, 0xec, 0x55, 0x17, 0x2d, 0xf1, 0xde,
  0xda, 0x05, 0xee, 0xcb, 0xdf, 0xf8, 0xfd, 0xbf, 0xfc, 0x72, 0x15, 0x3a,
  0xd8, 0xca, 0xd6, 0x02, 0xf7, 0xe9, 0xf3, 0xf2, 0x0f, 0xe7, 0xdc, 0x52,
  0x1c, 0x3d, 0xd0, 0xe3, 0xfc, 0x14, 0x06, 0xcd, 0xe5, 0xfa, 0x0c, 0x43,
  0xda, 0x62, 0x0f, 0x21, 0xd0, 0xd7, 0xf8, 0x05, 0x0d, 0xdd, 0xb0, 0xe5,
  0xf9, 0x48, 0xee, 0x76, 0x23, 0x4a, 0xec, 0xcd, 0x13, 0xf1, 0x4c, 0xf7,
  0xe4, 0xf1, 0x06, 0x67, 0xff, 0x32, 0x29, 0x4d, 0xbf, 0xde, 0xd8, 0x06,
  0x08, 0xa2, 0xae, 0xe9, 0x1f, 0x22, 0xdb, 0x71, 0x16, 0x21, 0xd2, 0xe1,
  0x01, 0xf0, 0xfe, 0xdf, 0x97, 0xe1, 0xf1, 0x4e, 0xec, 0x77, 0x14, 0x37,
  0xd6, 0xe6, 0xff, 0xdf, 0x3b, 0xfd, 0xc2, 0xcf, 0x15, 0x48, 0xe2, 0x39,
  0x25, 0x35, 0x81, 0xdc, 0xb9, 0x0f, 0xf3, 0xa7, 0xed, 0xed, 0x01, 0x27,
  0xcc, 0x3f, 0xfd, 0xdd, 0x8d, 0xe6, 0xd0, 0xe0, 0x10, 0xd4, 0xd3, 0xda,
  0x13, 0x4b, 0xc0, 0x53, 0x0e, 0x0d, 0x88, 0xfd, 0xef, 0xe1, 0x26, 0xfc,
  0xe1, 0xef, 0x27, 0x6a, 0xb4, 0x27, 0x19, 0x13, 0x0c, 0xdc, 0x22, 0x2d,
  0xf2, 0xf2, 0xcf, 0xc0, 0xc9, 0xce, 0x20, 0x31, 0xef, 0x24, 0xf2, 0xe9,
  0x04, 0x3c, 0xf4, 0xe2, 0xc2, 0xd3, 0xef, 0x00, 0x26, 0x66, 0xf6, 0x33,
  0xf8, 0xd1, 0x08, 0x31, 0x06, 0xe2, 0xdb, 0xd0, 0x10, 0xe3, 0x09, 0x44,
  0x07, 0x1c, 0xfa, 0xbf, 0x04, 0x42, 0xed, 0xd4, 0xd0, 0xd4, 0xdc, 0xe4,
  0x15, 0x5f, 0x13, 0x34, 0xed, 0xcf, 0x0e, 0x69, 0xfa, 0xd1, 0xb3, 0xc9,
  0xdd, 0xec, 0x14, 0x7f, 0x0c, 0x47, 0xf8, 0xda, 0x10, 0x3e, 0x03, 0xc8,
  0xc9, 0xd0, 0x0b, 0xe3, 0x00, 0x6b, 0x0e, 0x49, 0xe3, 0xc2, 0xee, 0x19,
  0xf7, 0xcd, 0xe1, 0xe1, 0xe6, 0xde, 0xff, 0x53, 0x10, 0x21, 0xd6, 0xe4,
  0x00, 0x5c, 0xff, 0xc0, 0xcd, 0xe2, 0xf5, 0xf0, 0x04, 0x76, 0x15, 0x37,
  0xd8, 0xe2, 0xee, 0x17, 0xfc, 0xbf, 0xd2, 0xd4, 0xfe, 0xe5, 0xfe, 0x5a,
  0x0a, 0x31, 0xd3, 0x24, 0xf8, 0x05, 0x39, 0xd9, 0xee, 0x01, 0xf2, 0x6a,
  0xfb, 0xef, 0xed, 0xeb, 0xe7, 0x2f, 0x15, 0x00, 0x4e, 0xf3, 0xe5, 0xef,
  0xfe, 0x77, 0xfe, 0xf7, 0xef, 0xec, 0xd9, 0x29, 0x19, 0xfc, 0x50, 0x01,
  0x07, 0x0c, 0x05, 0x6a, 0xff, 0xe9, 0xf6, 0xfa, 0xe3, 0x2f, 0x0a, 0xfe,
  0x46, 0xd1, 0xe0, 0xf3, 0xeb, 0x71, 0xfd, 0xf7, 0xec, 0xf2, 0x05, 0x37,
  0x2b, 0x01, 0x43, 0xf6, 0xdf, 0xf3, 0xef, 0x6b, 0x05, 0xf7, 0xf4, 0xe1,
  0xf8, 0x3e, 0x1c, 0x04, 0x51, 0xfa, 0xe1, 0xf0, 0xf1, 0x7f, 0x08, 0xf0,
  0x00, 0xf1, 0xb3, 0x16, 0xe0, 0x08, 0x3f, 0xdb, 0xef, 0xf7, 0xfc, 0x58,
  0xd8, 0x08, 0xf7, 0xdb, 0xc6, 0x27, 0xec, 0xfd, 0x34, 0xe8, 0xe5, 0xee,
  0x0a, 0x62, 0xe3, 0x11, 0xf5, 0xdd, 0xd0, 0x24, 0x02, 0xfa, 0x50, 0xf9,
  0xf0, 0xfc, 0x20, 0x66, 0xf2, 0x02, 0xfe, 0xde, 0xe6, 0xd0, 0xc6, 0x18,
  0xdd, 0xf0, 0xb1, 0xef, 0xec, 0x81, 0x1f, 0x11, 0xf6, 0x0d, 0xcc, 0xd0,
  0x06, 0xdf, 0xdb, 0xd2, 0xa3, 0xf3, 0x12, 0x0e, 0x10, 0x6b, 0x04, 0x14,
  0xec, 0xdd, 0x1d, 0x11, 0xe1, 0xc0, 0xa8, 0xe1, 0x1f, 0x27, 0xf3, 0x54,
  0x01, 0x1a, 0xeb, 0xb8, 0xce, 0x24, 0xf5, 0xdf, 0xb8, 0xfa, 0x03, 0x9e,
  0xf8, 0x46, 0xf7, 0x26, 0xef, 0xc9, 0xf0, 0x15, 0xda, 0xd2, 0xb9, 0xff,
  0x00, 0x10, 0x17, 0x73, 0xfa, 0x21, 0xec, 0xc1, 0x22, 0x22, 0xdd, 0xbd,
  0xba, 0x05, 0x32, 0x26, 0x02, 0x7b, 0xfe, 0x13, 0xb2, 0xbc, 0xf8, 0x25,
  0xc4, 0xd5, 0xf0, 0xfb, 0x08, 0xe0, 0xe6, 0x09, 0xf7, 0xe6, 0xe5, 0xca,
  0xeb, 0x30, 0xc5, 0xd6, 0xb6, 0xf5, 0x18, 0x0e, 0xeb, 0x66, 0x04, 0x0e,
  0xc1, 0xcb, 0xd7, 0x1e, 0xbf, 0xc4, 0xd5, 0xf7, 0x31, 0x35, 0xba, 0x47,
  0xf7, 0xd7, 0xed, 0x17, 0xbc, 0x06, 0xd9, 0xcc, 0xe8, 0x20, 0xf4, 0x33,
  0x22, 0xe7, 0xf8, 0xe3, 0xff, 0xfd, 0xe8, 0xfa, 0xe6, 0xd7, 0xd2, 0x15,
  0x02, 0x2e, 0x05, 0x0f, 0xf0, 0xf1, 0xe2, 0x14, 0xfd, 0xfa, 0xed, 0xcb,
  0xc3, 0x12, 0x12, 0x51, 0xd1, 0xf8, 0xfe, 0xe6, 0xe4, 0xea, 0xeb, 0xf3,
  0xf2, 0xd0, 0xd7, 0x1a, 0x12, 0x59, 0x2b, 0xe3, 0x00, 0xcd, 0xe4, 0xf0,
  0xf7, 0xf5, 0xe4, 0xe2, 0xe2, 0x07, 0x07, 0x5a, 0xe9, 0xfc, 0xf4, 0xe6,
  0xf9, 0xf8, 0x01, 0xff, 0xf4, 0xe5, 0xcf, 0x06, 0x12, 0x7f, 0xd0, 0xf2,
  0xfc, 0xe8, 0xcc, 0xe1, 0xdd, 0x12, 0xd3, 0xe3, 0xe6, 0xf7, 0xfa, 0x56,
  0x0b, 0xed, 0xec, 0xb8, 0xe5, 0xfd, 0xf6, 0xf9, 0xe8, 0x0f, 0xd3, 0xeb,
  0x06, 0x74, 0xe8, 0xec, 0xf0, 0xc6, 0xe9, 0xed, 0x17, 0x12, 0xc2, 0xf0,
  0xce, 0xd6, 0xfd, 0x56, 0xc5, 0xdf, 0xef, 0xc6, 0x0b, 0xdb, 0x21, 0x34,
  0xd3, 0xe5, 0xdc, 0xd3, 0xea, 0xe2, 0x39, 0x25, 0xff, 0x2f, 0x05, 0xd5,
  0x14, 0x76, 0xec, 0xcd, 0xd4, 0xd5, 0xf3, 0xd2, 0x4e, 0x42, 0x0e, 0x27,
  0x0b, 0xd9, 0xfa, 0x44, 0xf4, 0xe6, 0xdd, 0xf7, 0x01, 0xd2, 0x3c, 0x2c,
  0x15, 0x2f, 0x1f, 0xbd, 0x2a, 0x64, 0xe5, 0xe6, 0xca, 0xd0, 0xee, 0xde,
  0x53, 0x3d, 0x09, 0x37, 0x05, 0xc1, 0x1a, 0x7f, 0xf2, 0xcd, 0xbc, 0xed,
  0xfe, 0xe0, 0x4a, 0x55, 0x18, 0x45, 0x31, 0xce, 0x0f, 0x5b, 0x08, 0xdf,
  0xd7, 0xe4, 0xf8, 0xd3, 0x68, 0x37, 0x17, 0x44, 0x06, 0xd2, 0x1c, 0x5a,
  0xeb, 0xf0, 0xed, 0xe5, 0xf1, 0xcd, 0x34, 0x26, 0x11, 0x3b, 0x0b, 0xce,
  0x14, 0x7d, 0xf3, 0xd5, 0xdb, 0xf9, 0xf4, 0xd6, 0x2c, 0x46, 0x16, 0x3d,
  0x1b, 0xdb, 0x13, 0x40, 0x04, 0xdc, 0xed, 0xf5, 0xff, 0xd5, 0x46, 0x20,
  0x18, 0x48, 0xe1, 0xd4, 0xb8, 0x5e, 0xcf, 0xc9, 0xd5, 0xd8, 0xe9, 0xd3,
  0x41, 0xe0, 0xcd, 0xde, 0xcf, 0xf4, 0x0a, 0x66, 0x02, 0xc4, 0xaf, 0xde,
  0xe2, 0x1a, 0x0d, 0x10, 0xee, 0xdc, 0xc6, 0xf2, 0x4c, 0x69, 0xd5, 0xdf,
  0x94, 0xc7, 0xea, 0x09, 0xd2, 0x1d, 0xe6, 0xcb, 0xfe, 0xbc, 0xe8, 0x23,
  0xdf, 0xc8, 0xb4, 0xfa, 0xd1, 0x0e, 0x46, 0xf6, 0xc9, 0xee, 0x09, 0xe5,
  0x22, 0x6a, 0x11, 0xc7, 0xd5, 0xd7, 0xe3, 0x43, 0x31, 0x3d, 0xf6, 0xe9,
  0xff, 0xd1, 0x14, 0x77, 0xee, 0xcb, 0xb8, 0x06, 0xeb, 0x2f, 0xfc, 0x36,
  0xf1, 0xcb, 0xd7, 0xa9, 0xb1, 0x61, 0xc4, 0xc9, 0xc8, 0xf2, 0xc6, 0x06,
  0x15, 0xf1, 0xe0, 0xda, 0x01, 0xee, 0x1b, 0x6a, 0xb9, 0xbc, 0xe0, 0xe8,
  0x08, 0x53, 0x10, 0x19, 0xf5, 0xca, 0xd5, 0xd6, 0x11, 0x7f, 0x94, 0xc0,
  0x9b, 0xcf, 0xef, 0x2a, 0xdb, 0x26, 0xd9, 0xba, 0xee, 0x44, 0xea, 0xf8,
  0x2d, 0x29, 0x36, 0xfc, 0x00, 0x3d, 0x01, 0xdf, 0x04, 0x02, 0xf4, 0x47,
  0xf0, 0xd9, 0x39, 0x3e, 0x32, 0xf4, 0xf6, 0x4f, 0xf0, 0xc8, 0x07, 0xfc,
  0xde, 0x25, 0xf1, 0xf5, 0x25, 0x2c, 0x4b, 0x0b, 0xff, 0x28, 0xd3, 0xd3,
  0x04, 0xf8, 0xf6, 0x7f, 0xdb, 0xe4, 0x2e, 0x42, 0x30, 0xed, 0xfa, 0x4d,
  0xf2, 0xd1, 0x08, 0xf6, 0xf7, 0x78, 0xd8, 0xc1, 0x42, 0x4a, 0x4a, 0x06,
  0xf4, 0x52, 0x00, 0xc6, 0xfd, 0xee, 0xdd, 0x68, 0xc4, 0xe4, 0x36, 0x37,
  0x53, 0x07, 0xed, 0x39, 0xb5, 0xc6, 0x00, 0xee, 0xef, 0x52, 0xc7, 0xe9,
  0x38, 0x0d, 0x26, 0xff, 0x0e, 0x28, 0xea, 0xe4, 0x0a, 0xf0, 0xe3, 0x5e,
  0xbe, 0xce, 0x3a, 0x29, 0x37, 0x16, 0x01, 0x34, 0xdb, 0xd3, 0x0b, 0x00,
  0xde, 0x3a, 0xd3, 0xe7, 0x35, 0x06, 0x4d, 0x16, 0x01, 0x1f, 0xd8, 0xd7,
  0xfc, 0xe6, 0xb0, 0xc2, 0xb1, 0xea, 0xa8, 0xb5, 0xe6, 0xee, 0xe7, 0x88,
  0xdc, 0xec, 0xc5, 0xd9, 0xd8, 0xdb, 0xe8, 0x0a, 0xdf, 0xd6, 0xed, 0xfe,
  0x11, 0x31, 0xeb, 0x5e, 0xfc, 0xeb, 0x87, 0x01, 0xec, 0x48, 0x34, 0xba,
  0xb0, 0xde, 0x22, 0x34, 0xd4, 0x24, 0xfe, 0xc6, 0xfa, 0xb2, 0xdf, 0x2a,
  0xc4, 0xc4, 0x02, 0xed, 0xcc, 0xc6, 0xfa, 0x0d, 0xca, 0xf6, 0xf7, 0x00,
  0xe6, 0x0f, 0x36, 0x09, 0x03, 0xfc, 0xf7, 0x1f, 0xe7, 0x3b, 0x07, 0xdb,
  0xd6, 0x1c, 0x04, 0x5f, 0x3b, 0xfa, 0xe1, 0xed, 0xe6, 0x30, 0xd3, 0x19,
  0xf4, 0xc3, 0xa9, 0xaf, 0xed, 0xfb, 0xc8, 0xd6, 0x03, 0xf0, 0xb2, 0xe6,
  0xce, 0xcf, 0xd2, 0xb8, 0xc9, 0x03, 0xea, 0x18, 0xed, 0xff, 0x08, 0xcc,
  0x0c, 0x40, 0x00, 0xce, 0xe5, 0xaa, 0xc1, 0x02, 0xf8, 0x7f, 0x93, 0x10,
  0xe3, 0x88, 0xdd, 0x31, 0xdb, 0xed, 0xdf, 0x9e, 0x30, 0xc7, 0x7f, 0x2a,
  0xda, 0x0f, 0x02, 0x0c, 0xe4, 0xef, 0x6a, 0xeb, 0xf2, 0x0b, 0x3a, 0xe2,
  0x67, 0x3f, 0xf2, 0x13, 0x0a, 0x19, 0x02, 0x06, 0x27, 0xe9, 0xf9, 0xf0,
  0x20, 0x02, 0x54, 0x28, 0xf6, 0xf2, 0xf4, 0x0e, 0x02, 0xf7, 0x46, 0xd8,
  0xf4, 0xf1, 0x48, 0xca, 0x3f, 0x2c, 0xe0, 0xf6, 0xec, 0x2a, 0xe2, 0x0f,
  0x67, 0xf3, 0xf1, 0x02, 0x47, 0xd7, 0x3d, 0x49, 0x00, 0xe8, 0x0b, 0x22,
  0x07, 0x19, 0x4f, 0xf4, 0xfc, 0xeb, 0x54, 0xf9, 0x58, 0x38, 0xe4, 0xf6,
  0xf8, 0x34, 0xf5, 0x24, 0x3b, 0xea, 0xf2, 0xdd, 0x0d, 0xd3, 0x20, 0x42,
  0xb9, 0xf8, 0x13, 0x1f, 0x02, 0x19, 0x44, 0xe9, 0xe7, 0xe9, 0x37, 0xed,
  0x4e, 0x4e, 0xd5, 0xf6, 0xfd, 0x29, 0x0a, 0x19, 0x3f, 0xde, 0xe5, 0xda,
  0x47, 0x0b, 0x2e, 0x53, 0xdd, 0xfb, 0xdd, 0x10, 0xfc, 0x36, 0x43, 0xdc,
  0xe3, 0xeb, 0x5b, 0xfd, 0x73, 0x26, 0xea, 0x0d, 0x17, 0x1c, 0xf8, 0xeb,
  0x2b, 0xf2, 0xec, 0xfe, 0x4b, 0x07, 0x77, 0x58, 0xe5, 0xff, 0x1a, 0x3d,
  0xfe, 0xdd, 0x48, 0xf0, 0xdc, 0xe6, 0x4f, 0x04, 0x5a, 0x1f, 0xe8, 0x1c,
  0xfd, 0x27, 0xf5, 0xd0, 0x16, 0xf3, 0xdc, 0xca, 0x53, 0xe5, 0x68, 0x39,
  0xf0, 0x14, 0x1c, 0x34, 0xfb, 0x06, 0x43, 0xfc, 0xf1, 0x05, 0x4e, 0xe9,
  0x7f, 0x4d, 0xe8, 0x03, 0x1b, 0x2d, 0xfe, 0x00, 0x39, 0x02, 0xe9, 0xe0,
  0x45, 0xee, 0x4e, 0x44, 0xd0, 0xf9, 0x0d, 0x26, 0xfa, 0xeb, 0x40, 0xfb,
  0xdf, 0xed, 0x5f, 0x0a, 0x5a, 0x31, 0xf7, 0x26, 0x17, 0x19, 0x06, 0xfc,
  0x21, 0xf7, 0xf5, 0x05, 0x68, 0xf9, 0x61, 0x57, 0xef, 0xd6, 0x18, 0x30,
  0x0a, 0xfe, 0x33, 0xf2, 0xec, 0xec, 0x6e, 0x00, 0x58, 0x41, 0xee, 0x07,
  0xfd, 0x13, 0xe1, 0xf2, 0x39, 0xe4, 0xe0, 0xeb, 0x71, 0xed, 0x30, 0x33,
  0xe2, 0x20, 0x03, 0x23, 0xf6, 0x00, 0x4b, 0xf6, 0x02, 0x08, 0x46, 0xf2,
  0x16, 0x5b, 0xe9, 0x1d, 0x09, 0x33, 0xfc, 0xec, 0x55, 0xf3, 0x02, 0xf7,
  0x65, 0xf5, 0x0f, 0x26, 0xe8, 0x0a, 0x07, 0x24, 0x01, 0xf7, 0x6e, 0xf8,
  0xfd, 0x02, 0x4b, 0xd4, 0x2d, 0x62, 0xd5, 0xdb, 0xfe, 0x29, 0xfb, 0x07,
  0x67, 0xf2, 0x01, 0xf0, 0x77, 0xf0, 0x1d, 0x4f, 0xe4, 0x07, 0x01, 0x3a,
  0xee, 0xfd, 0x6c, 0x01, 0x06, 0xf5, 0x48, 0xf4, 0x0d, 0x3f, 0xe9, 0x07,
  0x06, 0x28, 0xf3, 0x09, 0x7f, 0xf6, 0xf8, 0x0a, 0x52, 0xe2, 0x04, 0x49,
  0xce, 0xce, 0x0b, 0x3b, 0xf5, 0xf4, 0x4f, 0xec, 0xef, 0xf6, 0x62, 0xed,
  0x24, 0x69, 0xdf, 0xfb, 0xe5, 0x31, 0xf9, 0xfb, 0x3c, 0xee, 0xf7, 0xfd,
  0x55, 0xfd, 0x1e, 0x30, 0xed, 0x0b, 0xfb, 0x21, 0xeb, 0xfa, 0x6b, 0xec,
  0xee, 0x0b, 0xd1, 0xf6, 0xa9, 0xb4, 0xa8, 0xc3, 0xde, 0xf2, 0xfb, 0x29,
  0x05, 0x0c, 0x0a, 0xc6, 0xcf, 0xd9, 0xda, 0x05, 0xc2, 0xb2, 0xb2, 0xca,
  0xe5, 0x4c, 0xc5, 0x1c, 0xd7, 0xb0, 0xee, 0xf2, 0x3d, 0xf4, 0xc0, 0x94,
  0xd8, 0x16, 0x30, 0x1b, 0xe9, 0x81, 0xe0, 0x8e, 0xae, 0xb8, 0xad, 0xf5,
  0xca, 0x39, 0xfa, 0xfe, 0x03, 0x51, 0xfe, 0xf0, 0xd7, 0xd7, 0xc1, 0xf8,
  0xcc, 0xef, 0xc7, 0xe7, 0xd8, 0x26, 0x18, 0x00, 0xfa, 0xd8, 0xe8, 0xfb,
  0xb9, 0xd3, 0x18, 0xfd, 0xd8, 0x93, 0x9c, 0xeb, 0x3d, 0x19, 0xb9, 0x04,
  0x05, 0xec, 0xb8, 0xac, 0xaf, 0x08, 0x60, 0xfc, 0xbb, 0xcd, 0xca, 0xd1,
  0xc0, 0xaa, 0xd3, 0xde, 0x07, 0xc0, 0xe0, 0xf4, 0xce, 0x16, 0x09, 0x04,
  0xea, 0x02, 0xb2, 0xc0, 0x09, 0x9a, 0xca, 0xdd, 0xd0, 0x0e, 0x8c, 0xd9,
  0xa0, 0xdb, 0xcc, 0x76, 0xc2, 0xf7, 0xcc, 0x88, 0xe6, 0x0e, 0x1d, 0xfe,
  0xf0, 0xc8, 0x07, 0xdd, 0xd1, 0xfd, 0x34, 0xd7, 0xcf, 0xf5, 0x17, 0x0b,
  0x27, 0x62, 0xf8, 0xde, 0xf2, 0xe7, 0xe9, 0xf5, 0x0f, 0xe8, 0xee, 0xcb,
  0xde, 0x03, 0x26, 0x33, 0x04, 0xdd, 0xea, 0x02, 0xf5, 0x1f, 0xe8, 0xdd,
  0xd7, 0xc7, 0xf7, 0xe7, 0xf8, 0x7f, 0xed, 0xd2, 0xf4, 0xe5, 0xe3, 0x11,
  0x2a, 0xee, 0xf4, 0xf7, 0x11, 0x0d, 0x24, 0x31, 0xfa, 0xcd, 0xf7, 0xf2,
  0x02, 0x30, 0x08, 0x0c, 0xf2, 0xeb, 0xf4, 0xeb, 0x51, 0x7f, 0x05, 0xdb,
  0x03, 0x03, 0xf6, 0x15, 0xd7, 0x02, 0xeb, 0xdf, 0xe8, 0xe6, 0xf0, 0x40,
  0xf2, 0xcf, 0xd4, 0xdd, 0xdd, 0x28, 0x20, 0xed, 0xed, 0xf6, 0x1e, 0xf7,
  0x31, 0x67, 0xf3, 0xc7, 0x0f, 0xf1, 0xfd, 0x3c, 0xfd, 0x04, 0xea, 0xd9,
  0xe0, 0xf6, 0x20, 0x55, 0xbf, 0xbf, 0x01, 0xef, 0xef, 0x2b, 0xdd, 0x1b,
  0xdf, 0xcf, 0xfb, 0xff, 0xd1, 0xc9, 0xc4, 0xe9, 0x2a, 0x50, 0x31, 0xef,
  0xc6, 0x0c, 0x31, 0xc2, 0xf1, 0xe0, 0xf7, 0x97, 0xb2, 0x13, 0x53, 0x6c,
  0x3b, 0xeb, 0xe2, 0x04, 0x20, 0xef, 0xec, 0x0d, 0x0e, 0xb8, 0xc8, 0xec,
  0x24, 0x50, 0x32, 0xf0, 0xdc, 0x03, 0x2f, 0xe7, 0x06, 0x11, 0xce, 0xb4,
  0xc7, 0x07, 0x15, 0x4e, 0x40, 0xda, 0xd5, 0x0d, 0x1e, 0xe2, 0xe0, 0x05,
  0x0e, 0x87, 0xc1, 0x22, 0x4d, 0x51, 0x49, 0xcf, 0xea, 0xfb, 0x10, 0xf6,
  0xdb, 0xf9, 0x17, 0x96, 0xd4, 0x15, 0x3d, 0x4e, 0x33, 0xbe, 0xed, 0xf1,
  0x19, 0xfe, 0xe2, 0x13, 0xfe, 0xb3, 0xd6, 0x14, 0x1a, 0x56, 0x39, 0xc9,
  0xd4, 0x26, 0x20, 0xf5, 0x02, 0x00, 0x0e, 0x81, 0xd9, 0x1d, 0x37, 0x62,
  0x24, 0xb5, 0xc9, 0x13, 0x17, 0x09, 0xdf, 0xfe, 0x13, 0x98, 0xef, 0x0b,
  0x20, 0x44, 0x48, 0xd4, 0xe9, 0x11, 0x18, 0x08, 0x28, 0xbf, 0xdf, 0xe5,
  0xb4, 0xe2, 0xe4, 0x21, 0x1e, 0xbb, 0x00, 0x3f, 0x1d, 0x17, 0x32, 0xce,
  0xca, 0xc1, 0xaa, 0xe8, 0x0d, 0x4c, 0x22, 0xbb, 0xe6, 0x3f, 0x34, 0x23,
  0x27, 0xe3, 0xe2, 0xc2, 0xc6, 0x01, 0x0f, 0x1a, 0x28, 0xce, 0x12, 0x2f,
  0x27, 0x2d, 0x2b, 0xc2, 0xf2, 0xe7, 0xbc, 0xfb, 0xf9, 0x26, 0x29, 0x8f,
  0x0d, 0x4c, 0x1a, 0x29, 0x20, 0xd1, 0xda, 0xb0, 0xbb, 0x16, 0x17, 0x31,
  0x2a, 0x81, 0x02, 0x4a, 0x29, 0x3e, 0x11, 0xe3, 0xde, 0xba, 0xc3, 0x25,
  0x20, 0x34, 0x35, 0x86, 0xf3, 0x21, 0x24, 0x27, 0x11, 0xd8, 0xed, 0xd8,
  0xda, 0x16, 0xf2, 0x1d, 0x18, 0x95, 0x0e, 0x3d, 0x25, 0x2b, 0x26, 0xdc,
  0xe0, 0xb8, 0xcc, 0x25, 0x16, 0x4f, 0x0e, 0x82, 0xfb, 0x30, 0x20, 0x37,
  0x22, 0xf3, 0xde, 0xb0, 0xe7, 0x1e, 0x0e, 0x14, 0x13, 0x8f, 0x13, 0x21,
  0x22, 0x30, 0x15, 0xfe, 0x5c, 0x05, 0xf8, 0x2e, 0x39, 0x0b, 0xf7, 0xf9,
  0x04, 0xf9, 0xf8, 0x07, 0x1a, 0xf0, 0x78, 0x12, 0xee, 0x24, 0x5a, 0x25,
  0xf9, 0xf4, 0x14, 0xfd, 0xec, 0xef, 0x31, 0xe7, 0x39, 0x07, 0xdc, 0x1f,
  0x41, 0x28, 0x04, 0x00, 0x0c, 0xf4, 0xfc, 0xed, 0x14, 0xf2, 0x61, 0x15,
  0xf5, 0x38, 0x4f, 0x24, 0xfe, 0xff, 0x27, 0xfd, 0xf7, 0xf4, 0x27, 0xf7,
  0x62, 0x25, 0xf8, 0x12, 0x6b, 0x20, 0x05, 0xf5, 0x1e, 0x02, 0xe4, 0xe1,
  0x1d, 0xf4, 0x4f, 0x33, 0xd9, 0x21, 0x4f, 0x2b, 0x0f, 0xe9, 0x3b, 0xf8,
  0xe0, 0xd9, 0x17, 0x00, 0x5f, 0x12, 0xf8, 0x18, 0x3c, 0x1d, 0xfa, 0xfe,
  0x13, 0xf1, 0xfb, 0xf0, 0x16, 0xf5, 0x7f, 0x22, 0xf5, 0x0b, 0x2a, 0x2c,
  0xfb, 0xf7, 0x36, 0xea, 0xe8, 0xe9, 0x22, 0xeb, 0x41, 0x15, 0xe6, 0x17,
  0x2a, 0x12, 0xd5, 0xee, 0x12, 0xf5, 0xd8, 0xed, 0xaf, 0xe5, 0xde, 0xff,
  0x58, 0xcf, 0xdd, 0xc3, 0xc1, 0x49, 0xd7, 0x50, 0xe9, 0x29, 0xc0, 0x49,
  0xe4, 0xd8, 0x73, 0xfc, 0xd3, 0xb9, 0xbd, 0x2d, 0xe5, 0x49, 0x13, 0x3a,
  0xdf, 0x2f, 0xf5, 0xd8, 0x57, 0x15, 0xd9, 0xa5, 0xca, 0x38, 0xfd, 0x1e,
  0xfc, 0x29, 0xcb, 0xf4, 0xbc, 0x09, 0x78, 0xdf, 0xc7, 0xcc, 0xd3, 0x0e,
  0xe3, 0x54, 0x04, 0x37, 0xd9, 0x42, 0xef, 0xf8, 0x7f, 0x04, 0xa6, 0xb3,
  0xb9, 0x16, 0xe0, 0x3e, 0x0a, 0x53, 0xf1, 0x28, 0xf8, 0xf7, 0x44, 0x12,
  0xdb, 0xb8, 0xd6, 0x09, 0xed, 0x28, 0x13, 0x39, 0xa7, 0x07, 0xc1, 0xf4,
  0x30, 0xc9, 0xf2, 0xd3, 0xd8, 0x31, 0xd4, 0x35, 0xf0, 0x2b, 0xcd, 0x0a,
  0xac, 0xcc, 0x61, 0xfa, 0xb9, 0xc9, 0xe2, 0xf7, 0xc9, 0x59, 0x11, 0x33,
  0xcd, 0x37, 0xe6, 0xf0, 0x68, 0x02, 0xcb, 0xb6, 0xcb, 0x1b, 0xef, 0x50,
  0x0e, 0x40, 0xc3, 0x03, 0xf1, 0x15, 0x00, 0xf8, 0x00, 0xf6, 0xee, 0xe4,
  0xe4, 0xee, 0xe7, 0xfb, 0xe7, 0x13, 0x07, 0x57, 0x39, 0xf3, 0xa8, 0xbf,
  0xe4, 0xf1, 0x16, 0x34, 0xe1, 0x03, 0xed, 0x0d, 0x39, 0x21, 0xf0, 0xe3,
  0xc1, 0xd2, 0xda, 0x05, 0xfd, 0x17, 0xda, 0x16, 0xb0, 0xfa, 0xe6, 0xf0,
  0x47, 0xdb, 0xbb, 0xc3, 0xd4, 0xf9, 0x10, 0x17, 0xdc, 0x13, 0xdc, 0x09,
  0x35, 0x7f, 0x5b, 0xfd, 0xb1, 0xaa, 0x04, 0x26, 0xf7, 0x4b, 0xf2, 0x22,
  0xe9, 0x15, 0x4d, 0x0e, 0x46, 0xe1, 0xaf, 0xba, 0xdd, 0x04, 0x05, 0x50,
  0xef, 0x2c, 0x83, 0x03, 0x22, 0x25, 0x55, 0xb9, 0xc7, 0xc9, 0xbd, 0xf3,
  0xf1, 0x2c, 0xe7, 0x31, 0xbe, 0x25, 0x6d, 0xe3, 0x45, 0xca, 0xb0, 0xb2,
  0xdc, 0x13, 0xe6, 0x75, 0xee, 0x3a, 0xe3, 0x2a, 0x25, 0x02, 0x38, 0xf7,
  0xb3, 0xb6, 0xd9, 0xfc, 0xf4, 0x60, 0xf4, 0x51, 0xe7, 0xef, 0xe1, 0x48,
  0xfe, 0xe2, 0xbc, 0xcb, 0xcc, 0xc6, 0x30, 0xf8, 0xd5, 0xff, 0xe1, 0xd7,
  0xef, 0x29, 0x08, 0xdb, 0x95, 0xdb, 0xdf, 0x02, 0x16, 0x62, 0xf3, 0x26,
  0xe7, 0xd8, 0x05, 0x34, 0xff, 0xd7, 0xbc, 0xdb, 0x0a, 0x25, 0x06, 0x4b,
  0x18, 0x1e, 0xf0, 0xb8, 0xfa, 0x24, 0x11, 0xcf, 0xae, 0xcf, 0xd4, 0xf0,
  0x3b, 0x3d, 0xe8, 0x2b, 0x05, 0xc5, 0x01, 0x60, 0x0a, 0xce, 0xa2, 0xd5,
  0xcf, 0x0d, 0x2f, 0x7e, 0x0c, 0x35, 0xf6, 0xc0, 0x09, 0x52, 0x05, 0xbd,
  0xb5, 0xdc, 0x0e, 0x1f, 0xe1, 0x35, 0x14, 0x34, 0xf0, 0xb7, 0xdb, 0x59,
  0xee, 0xce, 0xd5, 0xdc, 0xdc, 0xd3, 0x24, 0x35, 0xf4, 0x1e, 0xde, 0xd3,
  0xe0, 0x5e, 0xfb, 0xc4, 0xbe, 0xf2, 0x0e, 0x18, 0x16, 0x7f, 0x16, 0x27,
  0xe1, 0xdd, 0x04, 0x51, 0xf1, 0xbc, 0xbb, 0xde, 0xfb, 0x20, 0xb3, 0x55,
  0x16, 0x0f, 0x3f, 0xf7, 0x6f, 0xfe, 0xea, 0x44, 0x45, 0x1e, 0xfc, 0xed,
  0x0d, 0xf4, 0xfa, 0x0c, 0x48, 0x0a, 0x63, 0xfd, 0xe8, 0x3a, 0x6b, 0x37,
  0xf1, 0xf1, 0x25, 0xf5, 0xf5, 0xe9, 0x49, 0x07, 0x2f, 0xfe, 0xda, 0x36,
  0x35, 0x39, 0xf1, 0x06, 0x29, 0xf7, 0xe9, 0xe7, 0x5d, 0xff, 0x69, 0x03,
  0xee, 0x4d, 0x58, 0x27, 0xfe, 0xf0, 0x25, 0xf5, 0xf3, 0xfb, 0x47, 0xfc,
  0x4a, 0x21, 0xe2, 0x3b, 0x7b, 0x3e, 0x07, 0x00, 0x2b, 0xe5, 0xde, 0xeb,
  0x53, 0xf4, 0x37, 0x1b, 0xd0, 0x1a, 0x7f, 0x34, 0xfb, 0x0b, 0x3b, 0xea,
  0xd8, 0xde, 0x45, 0x02, 0x6e, 0x19, 0xfe, 0x28, 0x46, 0x39, 0xf8, 0xe8,
  0x13, 0xd9, 0xe7, 0xf9, 0x36, 0x11, 0x6d, 0x28, 0xf0, 0x2d, 0x57, 0x25,
  0xe1, 0xf5, 0x2a, 0xce, 0xeb, 0xde, 0x54, 0xeb, 0x42, 0x25, 0xcd, 0x0c,
  0x2d, 0x1f, 0xd2, 0xf8, 0x1e, 0xd9, 0xcd, 0xf4, 0x7e, 0xfd, 0xff, 0xff,
  0x04, 0x00, 0x00, 0x00, 0x70, 0x00, 0x00, 0x00, 0xf2, 0xff, 0xff, 0xff,
  0xf7, 0xfb, 0xff, 0xff, 0x2f, 0x01, 0x00, 0x00, 0x07, 0xfa, 0xff, 0xff,
  0x90, 0x00, 0x00, 0x00, 0xa0, 0xff, 0xff, 0xff, 0x70, 0xfe, 0xff, 0xff,
  0x40, 0xfe, 0xff, 0xff, 0xf4, 0x01, 0x00, 0x00, 0x0a, 0xfd, 0xff, 0xff,
  0x42, 0x09, 0x00, 0x00, 0x07, 0x0b, 0x00, 0x00, 0x26, 0xfd, 0xff, 0xff,
  0x98, 0x12, 0x00, 0x00, 0x3b, 0xfe, 0xff, 0xff, 0xfa, 0x15, 0x00, 0x00,
  0x83, 0x01, 0x00, 0x00, 0xa1, 0xfb, 0xff, 0xff, 0xd7, 0xfc, 0xff, 0xff,
  0xbc, 0x1a, 0x00, 0x00, 0xb5, 0x0a, 0x00, 0x00, 0xca, 0x00, 0x00, 0x00,
  0xf5, 0x00, 0x00, 0x00, 0x8d, 0xfc, 0xff, 0xff, 0x8f, 0xfe, 0xff, 0xff,
  0xe3, 0x03, 0x00, 0x00, 0x47, 0x06, 0x00, 0x00, 0x18, 0xfc, 0xff, 0xff,
  0xfa, 0xfd, 0xff, 0xff, 0x04, 0x00, 0x00, 0x00, 0x18, 0x01, 0x00, 0x00,
  0x39, 0xe8, 0xeb, 0x2a, 0xfa, 0x26, 0xe6, 0xc1, 0xc0, 0x00, 0xb9, 0x87,
  0xce, 0x9a, 0x06, 0x81, 0xf4, 0x3c, 0x37, 0x99, 0x93, 0x1b, 0x2b, 0x30,
  0xac, 0xb7, 0xbe, 0x45, 0x9a, 0x85, 0xc2, 0x99, 0x8c, 0x89, 0x0e, 0xb4,
  0xfc, 0xa2, 0x0a, 0x0d, 0x1a, 0x1d, 0x81, 0x02, 0x32, 0x26, 0x1c, 0xf9,
  0x21, 0xae, 0xd2, 0x21, 0x98, 0xdf, 0x0b, 0xfb, 0xac, 0x27, 0xde, 0x46,
  0xcb, 0xe8, 0x8d, 0xed, 0xc7, 0x2e, 0xa2, 0xcd, 0xc2, 0xc4, 0x30, 0xc9,
  0xd6, 0xee, 0xce, 0xb2, 0xea, 0xc9, 0x81, 0x29, 0x20, 0x0c, 0xb8, 0x35,
  0x0b, 0xec, 0x0b, 0x3d, 0x29, 0x00, 0xe9, 0xf7, 0xba, 0xf0, 0xeb, 0xf4,
  0x84, 0xd0, 0x40, 0x06, 0xac, 0x9d, 0x81, 0xe9, 0xf5, 0xbc, 0xb6, 0x8b,
  0x17, 0xa7, 0xad, 0x9b, 0xe6, 0xf6, 0xbc, 0x81, 0xe1, 0x21, 0x5a, 0x1f,
  0x2a, 0xcd, 0x09, 0xc8, 0x2c, 0xf1, 0xc1, 0xfd, 0xbe, 0xb8, 0xe1, 0xcf,
  0xd5, 0xd4, 0x1a, 0xa1, 0x29, 0xff, 0x1b, 0xa3, 0x9f, 0xcd, 0xbc, 0x2c,
  0x45, 0xa1, 0xb2, 0x02, 0xc3, 0x4f, 0xdc, 0x18, 0xc1, 0xd5, 0x1b, 0xc8,
  0xe7, 0xb0, 0xd7, 0x09, 0xc2, 0x1a, 0xca, 0x81, 0xba, 0xbf, 0xfa, 0xa6,
  0x32, 0x2f, 0x0e, 0x01, 0xc5, 0xd3, 0x94, 0x81, 0xb9, 0xa3, 0xb5, 0xdb,
  0xf5, 0xef, 0xf8, 0xd9, 0x01, 0xec, 0x1f, 0x0a, 0xee, 0xb7, 0xef, 0xef,
  0xe4, 0xbf, 0xcb, 0x29, 0x99, 0xbd, 0xd3, 0xcf, 0xe5, 0xa7, 0xfc, 0xe9,
  0xe0, 0x0f, 0x1a, 0x13, 0xa4, 0x18, 0xc4, 0x03, 0xcf, 0xad, 0xa8, 0x13,
  0xed, 0xd2, 0xcb, 0x92, 0x31, 0xf5, 0x17, 0x81, 0x79, 0x14, 0x94, 0x2f,
  0x67, 0x73, 0xfb, 0xc0, 0x99, 0x8a, 0xd7, 0x85, 0xc6, 0xa6, 0x11, 0xa1,
  0xe4, 0xb6, 0xc3, 0x8f, 0x92, 0x70, 0x67, 0x29, 0x8b, 0x81, 0x85, 0x0c,
  0x20, 0xe7, 0xf1, 0xa6, 0x88, 0x0f, 0x16, 0x1c, 0xf7, 0x98, 0xe3, 0xf8,
  0xe3, 0xaa, 0x81, 0xc1, 0xb2, 0x33, 0xa9, 0x03, 0xba, 0xbb, 0xbe, 0xb4,
  0x0f, 0xed, 0xc1, 0x2c, 0x1e, 0xff, 0xff, 0xff, 0x04, 0x00, 0x00, 0x00,
  0x28, 0x00, 0x00, 0x00, 0xe3, 0xdd, 0xff, 0xff, 0xea, 0xf3, 0xff, 0xff,
  0x0d, 0xeb, 0xff, 0xff, 0x92, 0xe9, 0xff, 0xff, 0xe0, 0xee, 0xff, 0xff,
  0xf0, 0xed, 0xff, 0xff, 0x87, 0xef, 0xff, 0xff, 0x0a, 0xfa, 0xff, 0xff,
  0x27, 0xd5, 0xff, 0xff, 0x3c, 0xd8, 0xff, 0xff, 0x52, 0xff, 0xff, 0xff,
  0x04, 0x00, 0x00, 0x00, 0x08, 0x00, 0x00, 0x00, 0x01, 0x00, 0x00, 0x00,
  0x02, 0x00, 0x00, 0x00, 0xd8, 0xf2, 0xff, 0xff, 0xdc, 0xf2, 0xff, 0xff,
  0x0f, 0x00, 0x00, 0x00, 0x4d, 0x4c, 0x49, 0x52, 0x20, 0x43, 0x6f, 0x6e,
  0x76, 0x65, 0x72, 0x74, 0x65, 0x64, 0x2e, 0x00, 0x01, 0x00, 0x00, 0x00,
  0x14, 0x00, 0x00, 0x00, 0x00, 0x00, 0x0e, 0x00, 0x18, 0x00, 0x14, 0x00,
  0x10, 0x00, 0x0c, 0x00, 0x08, 0x00, 0x04, 0x00, 0x0e, 0x00, 0x00, 0x00,
  0x14, 0x00, 0x00, 0x00, 0x1c, 0x00, 0x00, 0x00, 0x80, 0x01, 0x00, 0x00,
  0x84, 0x01, 0x00, 0x00, 0x88, 0x01, 0x00, 0x00, 0x04, 0x00, 0x00, 0x00,
  0x6d, 0x61, 0x69, 0x6e, 0x00, 0x00, 0x00, 0x00, 0x05, 0x00, 0x00, 0x00,
  0x1c, 0x01, 0x00, 0x00, 0xcc, 0x00, 0x00, 0x00, 0x98, 0x00, 0x00, 0x00,
  0x50, 0x00, 0x00, 0x00, 0x14, 0x00, 0x00, 0x00, 0x00, 0x00, 0x0e, 0x00,
  0x1a, 0x00, 0x14, 0x00, 0x10, 0x00, 0x0c, 0x00, 0x0b, 0x00, 0x04, 0x00,
  0x0e, 0x00, 0x00, 0x00, 0x1c, 0x00, 0x00, 0x00, 0x00, 0x00, 0x00, 0x09,
  0x1c, 0x00, 0x00, 0x00, 0x20, 0x00, 0x00, 0x00, 0x03, 0x00, 0x00, 0x00,
  0x00, 0x00, 0x06, 0x00, 0x08, 0x00, 0x04, 0x00, 0x06, 0x00, 0x00, 0x00,
  0x00, 0x00, 0x80, 0x3f, 0x01, 0x00, 0x00, 0x00, 0x0c, 0x00, 0x00, 0x00,
  0x01, 0x00, 0x00, 0x00, 0x0b, 0x00, 0x00, 0x00, 0xca, 0xff, 0xff, 0xff,
  0x14, 0x00, 0x00, 0x00, 0x00, 0x00, 0x00, 0x08, 0x10, 0x00, 0x00, 0x00,
  0x14, 0x00, 0x00, 0x00, 0x02, 0x00, 0x00, 0x00, 0xa8, 0xf3, 0xff, 0xff,
  0x01, 0x00, 0x00, 0x00, 0x0b, 0x00, 0x00, 0x00, 0x03, 0x00, 0x00, 0x00,
  0x0a, 0x00, 0x00, 0x00, 0x03, 0x00, 0x00, 0x00, 0x02, 0x00, 0x00, 0x00,
  0x00, 0x00, 0x0e, 0x00, 0x18, 0x00, 0x14, 0x00, 0x10, 0x00, 0x0c, 0x00,
  0x0b, 0x00, 0x04, 0x00, 0x0e, 0x00, 0x00, 0x00, 0x14, 0x00, 0x00, 0x00,
  0x00, 0x00, 0x00, 0x1b, 0x10, 0x00, 0x00, 0x00, 0x14, 0x00, 0x00, 0x00,
  0x01, 0x00, 0x00, 0x00, 0xec, 0xf3, 0xff, 0xff, 0x01, 0x00, 0x00, 0x00,
  0x0a, 0x00, 0x00, 0x00, 0x02, 0x00, 0x00, 0x00, 0x09, 0x00, 0x00, 0x00,
  0x01, 0x00, 0x00, 0x00, 0xc2, 0xff, 0xff, 0xff, 0x10, 0x00, 0x00, 0x00,
  0x00, 0x00, 0x00, 0x01, 0x18, 0x00, 0x00, 0x00, 0x1c, 0x00, 0x00, 0x00,
  0xb4, 0xff, 0xff, 0xff, 0x00, 0x00, 0x00, 0x01, 0x02, 0x00, 0x00, 0x00,
  0x02, 0x00, 0x00, 0x00, 0x01, 0x00, 0x00, 0x00, 0x09, 0x00, 0x00, 0x00,
  0x03, 0x00, 0x00, 0x00, 0x08, 0x00, 0x00, 0x00, 0x05, 0x00, 0x00, 0x00,
  0x04, 0x00, 0x00, 0x00, 0x00, 0x00, 0x0e, 0x00, 0x14, 0x00, 0x00, 0x00,
  0x10, 0x00, 0x0c, 0x00, 0x0b, 0x00, 0x04, 0x00, 0x0e, 0x00, 0x00, 0x00,
  0x1c, 0x00, 0x00, 0x00, 0x00, 0x00, 0x00, 0x01, 0x24, 0x00, 0x00, 0x00,
  0x28, 0x00, 0x00, 0x00, 0x0c, 0x00, 0x10, 0x00, 0x00, 0x00, 0x0c, 0x00,
  0x08, 0x00, 0x07, 0x00, 0x0c, 0x00, 0x00, 0x00, 0x00, 0x00, 0x00, 0x01,
  0x02, 0x00, 0x00, 0x00, 0x02, 0x00, 0x00, 0x00, 0x01, 0x00, 0x00, 0x00,
  0x08, 0x00, 0x00, 0x00, 0x03, 0x00, 0x00, 0x00, 0x00, 0x00, 0x00, 0x00,
  0x07, 0x00, 0x00, 0x00, 0x06, 0x00, 0x00, 0x00, 0x01, 0x00, 0x00, 0x00,
  0x0c, 0x00, 0x00, 0x00, 0x01, 0x00, 0x00, 0x00, 0x00, 0x00, 0x00, 0x00,
  0x0d, 0x00, 0x00, 0x00, 0x90, 0x0b, 0x00, 0x00, 0x34, 0x0b, 0x00, 0x00,
  0x4c, 0x0a, 0x00, 0x00, 0x78, 0x09, 0x00, 0x00, 0xd4, 0x07, 0x00, 0x00,
  0x20, 0x06, 0x00, 0x00, 0x24, 0x05, 0x00, 0x00, 0x18, 0x04, 0x00, 0x00,
  0xe4, 0x02, 0x00, 0x00, 0xa8, 0x01, 0x00, 0x00, 0x1c, 0x01, 0x00, 0x00,
  0x80, 0x00, 0x00, 0x00, 0x04, 0x00, 0x00, 0x00, 0xba, 0xf4, 0xff, 0xff,
  0x00, 0x00, 0x00, 0x01, 0x18, 0x00, 0x00, 0x00, 0x20, 0x00, 0x00, 0x00,
  0x3c, 0x00, 0x00, 0x00, 0x0d, 0x00, 0x00, 0x00, 0x00, 0x00, 0x00, 0x09,
  0x50, 0x00, 0x00, 0x00, 0x02, 0x00, 0x00, 0x00, 0xff, 0xff, 0xff, 0xff,
  0x0a, 0x00, 0x00, 0x00, 0x9c, 0xf4, 0xff, 0xff, 0x08, 0x00, 0x00, 0x00,
  0x10, 0x00, 0x00, 0x00, 0x01, 0x00, 0x00, 0x00, 0x80, 0xff, 0xff, 0xff,
  0xff, 0xff, 0xff, 0xff, 0x01, 0x00, 0x00, 0x00, 0x00, 0x00, 0x80, 0x3b,
  0x1b, 0x00, 0x00, 0x00, 0x53, 0x74, 0x61, 0x74, 0x65, 0x66, 0x75, 0x6c,
  0x50, 0x61, 0x72, 0x74, 0x69, 0x74, 0x69, 0x6f, 0x6e, 0x65, 0x64, 0x43,
  0x61, 0x6c, 0x6c, 0x5f, 0x31, 0x3a, 0x30, 0x00, 0x02, 0x00, 0x00, 0x00,
  0x01, 0x00, 0x00, 0x00, 0x0a, 0x00, 0x00, 0x00, 0x32, 0xf5, 0xff, 0xff,
  0x00, 0x00, 0x00, 0x01, 0x18, 0x00, 0x00, 0x00, 0x20, 0x00, 0x00, 0x00,
  0x40, 0x00, 0x00, 0x00, 0x0c, 0x00, 0x00, 0x00, 0x00, 0x00, 0x00, 0x09,
  0x70, 0x00, 0x00, 0x00, 0x02, 0x00, 0x00, 0x00, 0xff, 0xff, 0xff, 0xff,
  0x0a, 0x00, 0x00, 0x00, 0x14, 0xf5, 0xff, 0xff, 0x08, 0x00, 0x00, 0x00,
  0x14, 0x00, 0x00, 0x00, 0x01, 0x00, 0x00, 0x00, 0x61, 0x00, 0x00, 0x00,
  0x00, 0x00, 0x00, 0x00, 0x00, 0x00, 0x00, 0x00, 0x01, 0x00, 0x00, 0x00,
  0xa8, 0xd6, 0x49, 0x3d, 0x36, 0x00, 0x00, 0x00, 0x6d, 0x69, 0x64, 0x5f,
  0x31, 0x34, 0x5f, 0x32, 0x38, 0x5f, 0x31, 0x2f, 0x64, 0x65, 0x6e, 0x73,
  0x65, 0x5f, 0x31, 0x2f, 0x4d, 0x61, 0x74, 0x4d, 0x75, 0x6c, 0x3b, 0x6d,
  0x69, 0x64, 0x5f, 0x31, 0x34, 0x5f, 0x32, 0x38, 0x5f, 0x31, 0x2f, 0x64,
  0x65, 0x6e, 0x73, 0x65, 0x5f, 0x31, 0x2f, 0x42, 0x69, 0x61, 0x73, 0x41,
  0x64, 0x64, 0x00, 0x00, 0x02, 0x00, 0x00, 0x00, 0x01, 0x00, 0x00, 0x00,
  0x0a, 0x00, 0x00, 0x00, 0xca, 0xf5, 0xff, 0xff, 0x00, 0x00, 0x00, 0x01,
  0x18, 0x00, 0x00, 0x00, 0x20, 0x00, 0x00, 0x00, 0x3c, 0x00, 0x00, 0x00,
  0x0b, 0x00, 0x00, 0x00, 0x00, 0x00, 0x00, 0x09, 0x60, 0x00, 0x00, 0x00,
  0x02, 0x00, 0x00, 0x00, 0xff, 0xff, 0xff, 0xff, 0x1c, 0x00, 0x00, 0x00,
  0xac, 0xf5, 0xff, 0xff, 0x08, 0x00, 0x00, 0x00, 0x10, 0x00, 0x00, 0x00,
  0x01, 0x00, 0x00, 0x00, 0x80, 0xff, 0xff, 0xff, 0xff, 0xff, 0xff, 0xff,
  0x01, 0x00, 0x00, 0x00, 0x85, 0x01, 0xe2, 0x3b, 0x2b, 0x00, 0x00, 0x00,
  0x6d, 0x69, 0x64, 0x5f, 0x31, 0x34, 0x5f, 0x32, 0x38, 0x5f, 0x31, 0x2f,
  0x67, 0x6c, 0x6f, 0x62, 0x61, 0x6c, 0x5f, 0x61, 0x76, 0x65, 0x72, 0x61,
  0x67, 0x65, 0x5f, 0x70, 0x6f, 0x6f, 0x6c, 0x69, 0x6e, 0x67, 0x32, 0x64,
  0x5f, 0x31, 0x2f, 0x4d, 0x65, 0x61, 0x6e, 0x00, 0x02, 0x00, 0x00, 0x00,
  0x01, 0x00, 0x00, 0x00, 0x1c, 0x00, 0x00, 0x00, 0x52, 0xf6, 0xff, 0xff,
  0x00, 0x00, 0x00, 0x01, 0x18, 0x00, 0x00, 0x00, 0x28, 0x00, 0x00, 0x00,
  0x44, 0x00, 0x00, 0x00, 0x0a, 0x00, 0x00, 0x00, 0x00, 0x00, 0x00, 0x09,
  0x08, 0x01, 0x00, 0x00, 0x04, 0x00, 0x00, 0x00, 0xff, 0xff, 0xff, 0xff,
  0x08, 0x00, 0x00, 0x00, 0x08, 0x00, 0x00, 0x00, 0x1c, 0x00, 0x00, 0x00,
  0x3c, 0xf6, 0xff, 0xff, 0x08, 0x00, 0x00, 0x00, 0x10, 0x00, 0x00, 0x00,
  0x01, 0x00, 0x00, 0x00, 0x80, 0xff, 0xff, 0xff, 0xff, 0xff, 0xff, 0xff,
  0x01, 0x00, 0x00, 0x00, 0x56, 0xb8, 0x94, 0x3d, 0xca, 0x00, 0x00, 0x00,
  0x6d, 0x69, 0x64, 0x5f, 0x31, 0x34, 0x5f, 0x32, 0x38, 0x5f, 0x31, 0x2f,
  0x61, 0x63, 0x74, 0x69, 0x76, 0x61, 0x74, 0x69, 0x6f, 0x6e, 0x5f, 0x31,
  0x5f, 0x32, 0x2f, 0x52, 0x65, 0x6c, 0x75, 0x3b, 0x6d, 0x69, 0x64, 0x5f,
  0x31, 0x34, 0x5f, 0x32, 0x38, 0x5f, 0x31, 0x2f, 0x62, 0x61, 0x74, 0x63,
  0x68, 0x5f, 0x6e, 0x6f, 0x72, 0x6d, 0x61, 0x6c, 0x69, 0x7a, 0x61, 0x74,
  0x69, 0x6f, 0x6e, 0x5f, 0x31, 0x5f, 0x32, 0x2f, 0x62, 0x61, 0x74, 0x63,
  0x68, 0x6e, 0x6f, 0x72, 0x6d, 0x2f, 0x61, 0x64, 0x64, 0x5f, 0x31, 0x3b,
  0x6d, 0x69, 0x64, 0x5f, 0x31, 0x34, 0x5f, 0x32, 0x38, 0x5f, 0x31, 0x2f,
  0x62, 0x61, 0x74, 0x63, 0x68, 0x5f, 0x6e, 0x6f, 0x72, 0x6d, 0x61, 0x6c,
  0x69, 0x7a, 0x61, 0x74, 0x69, 0x6f, 0x6e, 0x5f, 0x31, 0x5f, 0x32, 0x2f,
  0x62, 0x61, 0x74, 0x63, 0x68, 0x6e, 0x6f, 0x72, 0x6d, 0x2f, 0x6d, 0x75,
  0x6c, 0x5f, 0x31, 0x3b, 0x3b, 0x6d, 0x69, 0x64, 0x5f, 0x31, 0x34, 0x5f,
  0x32, 0x38, 0x5f, 0x31, 0x2f, 0x63, 0x6f, 0x6e, 0x76, 0x32, 0x64, 0x5f,
  0x31, 0x5f, 0x32, 0x2f, 0x42, 0x69, 0x61, 0x73, 0x41, 0x64, 0x64, 0x3b,
  0x6d, 0x69, 0x64, 0x5f, 0x31, 0x34, 0x5f, 0x32, 0x38, 0x5f, 0x31, 0x2f,
  0x63, 0x6f, 0x6e, 0x76, 0x32, 0x64, 0x5f, 0x31, 0x5f, 0x32, 0x2f, 0x63,
  0x6f, 0x6e, 0x76, 0x6f, 0x6c, 0x75, 0x74, 0x69, 0x6f, 0x6e, 0x00, 0x00,
  0x04, 0x00, 0x00, 0x00, 0x01, 0x00, 0x00, 0x00, 0x08, 0x00, 0x00, 0x00,
  0x08, 0x00, 0x00, 0x00, 0x1c, 0x00, 0x00, 0x00, 0x8a, 0xf7, 0xff, 0xff,
  0x00, 0x00, 0x00, 0x01, 0x18, 0x00, 0x00, 0x00, 0x28, 0x00, 0x00, 0x00,
  0x44, 0x00, 0x00, 0x00, 0x09, 0x00, 0x00, 0x00, 0x00, 0x00, 0x00, 0x09,
  0x00, 0x01, 0x00, 0x00, 0x04, 0x00, 0x00, 0x00, 0xff, 0xff, 0xff, 0xff,
  0x10, 0x00, 0x00, 0x00, 0x10, 0x00, 0x00, 0x00, 0x0e, 0x00, 0x00, 0x00,
  0x74, 0xf7, 0xff, 0xff, 0x08, 0x00, 0x00, 0x00, 0x10, 0x00, 0x00, 0x00,
  0x01, 0x00, 0x00, 0x00, 0x80, 0xff, 0xff, 0xff, 0xff, 0xff, 0xff, 0xff,
  0x01, 0x00, 0x00, 0x00, 0x27, 0x95, 0xfe, 0x3c, 0xc1, 0x00, 0x00, 0x00,
  0x6d, 0x69, 0x64, 0x5f, 0x31, 0x34, 0x5f, 0x32, 0x38, 0x5f, 0x31, 0x2f,
  0x61, 0x63, 0x74, 0x69, 0x76, 0x61, 0x74, 0x69, 0x6f, 0x6e, 0x5f, 0x31,
  0x2f, 0x52, 0x65, 0x6c, 0x75, 0x3b, 0x6d, 0x69, 0x64, 0x5f, 0x31, 0x34,
  0x5f, 0x32, 0x38, 0x5f, 0x31, 0x2f, 0x62, 0x61, 0x74, 0x63, 0x68, 0x5f,
  0x6e, 0x6f, 0x72, 0x6d, 0x61, 0x6c, 0x69, 0x7a, 0x61, 0x74, 0x69, 0x6f,
  0x6e, 0x5f, 0x31, 0x2f, 0x62, 0x61, 0x74, 0x63, 0x68, 0x6e, 0x6f, 0x72,
  0x6d, 0x2f, 0x61, 0x64, 0x64, 0x5f, 0x31, 0x3b, 0x6d, 0x69, 0x64, 0x5f,
  0x31, 0x34, 0x5f, 0x32, 0x38, 0x5f, 0x31, 0x2f, 0x62, 0x61, 0x74, 0x63,
  0x68, 0x5f, 0x6e, 0x6f, 0x72, 0x6d, 0x61, 0x6c, 0x69, 0x7a, 0x61, 0x74,
  0x69, 0x6f, 0x6e, 0x5f, 0x31, 0x2f, 0x62, 0x61, 0x74, 0x63, 0x68, 0x6e,
  0x6f, 0x72, 0x6d, 0x2f, 0x6d, 0x75, 0x6c, 0x5f, 0x31, 0x3b, 0x3b, 0x6d,
  0x69, 0x64, 0x5f, 0x31, 0x34, 0x5f, 0x32, 0x38, 0x5f, 0x31, 0x2f, 0x63,
  0x6f, 0x6e, 0x76, 0x32, 0x64, 0x5f, 0x31, 0x2f, 0x42, 0x69, 0x61, 0x73,
  0x41, 0x64, 0x64, 0x3b, 0x6d, 0x69, 0x64, 0x5f, 0x31, 0x34, 0x5f, 0x32,
  0x38, 0x5f, 0x31, 0x2f, 0x63, 0x6f, 0x6e, 0x76, 0x32, 0x64, 0x5f, 0x31,
  0x2f, 0x63, 0x6f, 0x6e, 0x76, 0x6f, 0x6c, 0x75, 0x74, 0x69, 0x6f, 0x6e,
  0x31, 0x00, 0x00, 0x00, 0x04, 0x00, 0x00, 0x00, 0x01, 0x00, 0x00, 0x00,
  0x10, 0x00, 0x00, 0x00, 0x10, 0x00, 0x00, 0x00, 0x0e, 0x00, 0x00, 0x00,
  0x12, 0xf9, 0xff, 0xff, 0x00, 0x00, 0x00, 0x01, 0x14, 0x00, 0x00, 0x00,
  0xd0, 0x00, 0x00, 0x00, 0x08, 0x00, 0x00, 0x00, 0x00, 0x00, 0x00, 0x09,
  0xdc, 0x00, 0x00, 0x00, 0x8c, 0xf8, 0xff, 0xff, 0x08, 0x00, 0x00, 0x00,
  0x7c, 0x00, 0x00, 0x00, 0x0e, 0x00, 0x00, 0x00, 0x00, 0x00, 0x00, 0x00,
  0x00, 0x00, 0x00, 0x00, 0x00, 0x00, 0x00, 0x00, 0x00, 0x00, 0x00, 0x00,
  0x00, 0x00, 0x00, 0x00, 0x00, 0x00, 0x00, 0x00, 0x00, 0x00, 0x00, 0x00,
  0x00, 0x00, 0x00, 0x00, 0x00, 0x00, 0x00, 0x00, 0x00, 0x00, 0x00, 0x00,
  0x00, 0x00, 0x00, 0x00, 0x00, 0x00, 0x00, 0x00, 0x00, 0x00, 0x00, 0x00,
  0x00, 0x00, 0x00, 0x00, 0x00, 0x00, 0x00, 0x00, 0x00, 0x00, 0x00, 0x00,
  0x00, 0x00, 0x00, 0x00, 0x00, 0x00, 0x00, 0x00, 0x00, 0x00, 0x00, 0x00,
  0x00, 0x00, 0x00, 0x00, 0x00, 0x00, 0x00, 0x00, 0x00, 0x00, 0x00, 0x00,
  0x00, 0x00, 0x00, 0x00, 0x00, 0x00, 0x00, 0x00, 0x00, 0x00, 0x00, 0x00,
  0x00, 0x00, 0x00, 0x00, 0x00, 0x00, 0x00, 0x00, 0x00, 0x00, 0x00, 0x00,
  0x00, 0x00, 0x00, 0x00, 0x0e, 0x00, 0x00, 0x00, 0x98, 0xe7, 0xf5, 0x38,
  0x86, 0xa1, 0x49, 0x39, 0x53, 0x3d, 0x1d, 0x39, 0x42, 0xc3, 0x30, 0x39,
  0xcf, 0x5b, 0xd7, 0x38, 0x38, 0xf5, 0x33, 0x39, 0x00, 0x7d, 0x48, 0x39,
  0x29, 0xfb, 0x25, 0x39, 0xa3, 0xe4, 0xd2, 0x38, 0x44, 0x92, 0x1e, 0x39,
  0xf7, 0xfb, 0x07, 0x39, 0x83, 0xee, 0x74, 0x39, 0xb2, 0x50, 0xbf, 0x38,
  0x96, 0x94, 0x1f, 0x39, 0x12, 0x00, 0x00, 0x00, 0x74, 0x66, 0x6c, 0x2e,
  0x70, 0x73, 0x65, 0x75, 0x64, 0x6f, 0x5f, 0x71, 0x63, 0x6f, 0x6e, 0x73,
  0x74, 0x35, 0x00, 0x00, 0x04, 0x00, 0x00, 0x00, 0x0e, 0x00, 0x00, 0x00,
  0x03, 0x00, 0x00, 0x00, 0x03, 0x00, 0x00, 0x00, 0x03, 0x00, 0x00, 0x00,
  0x1a, 0xfa, 0xff, 0xff, 0x00, 0x00, 0x00, 0x01, 0x14, 0x00, 0x00, 0x00,
  0xcc, 0x00, 0x00, 0x00, 0x07, 0x00, 0x00, 0x00, 0x00, 0x00, 0x00, 0x02,
  0xd8, 0x00, 0x00, 0x00, 0x94, 0xf9, 0xff, 0xff, 0x08, 0x00, 0x00, 0x00,
  0x78, 0x00, 0x00, 0x00, 0x0e, 0x00, 0x00, 0x00, 0x00, 0x00, 0x00, 0x00,
  0x00, 0x00, 0x00, 0x00, 0x00, 0x00, 0x00, 0x00, 0x00, 0x00, 0x00, 0x00,
  0x00, 0x00, 0x00, 0x00, 0x00, 0x00, 0x00, 0x00, 0x00, 0x00, 0x00, 0x00,
  0x00, 0x00, 0x00, 0x00, 0x00, 0x00, 0x00, 0x00, 0x00, 0x00, 0x00, 0x00,
  0x00, 0x00, 0x00, 0x00, 0x00, 0x00, 0x00, 0x00, 0x00, 0x00, 0x00, 0x00,
  0x00, 0x00, 0x00, 0x00, 0x00, 0x00, 0x00, 0x00, 0x00, 0x00, 0x00, 0x00,
  0x00, 0x00, 0x00, 0x00, 0x00, 0x00, 0x00, 0x00, 0x00, 0x00, 0x00, 0x00,
  0x00, 0x00, 0x00, 0x00, 0x00, 0x00, 0x00, 0x00, 0x00, 0x00, 0x00, 0x00,
  0x00, 0x00, 0x00, 0x00, 0x00, 0x00, 0x00, 0x00, 0x00, 0x00, 0x00, 0x00,
  0x00, 0x00, 0x00, 0x00, 0x00, 0x00, 0x00, 0x00, 0x00, 0x00, 0x00, 0x00,
  0x0e, 0x00, 0x00, 0x00, 0x98, 0xe7, 0xf5, 0x38, 0x86, 0xa1, 0x49, 0x39,
  0x53, 0x3d, 0x1d, 0x39, 0x42, 0xc3, 0x30, 0x39, 0xcf, 0x5b, 0xd7, 0x38,
  0x38, 0xf5, 0x33, 0x39, 0x00, 0x7d, 0x48, 0x39, 0x29, 0xfb, 0x25, 0x39,
  0xa3, 0xe4, 0xd2, 0x38, 0x44, 0x92, 0x1e, 0x39, 0xf7, 0xfb, 0x07, 0x39,
  0x83, 0xee, 0x74, 0x39, 0xb2, 0x50, 0xbf, 0x38, 0x96, 0x94, 0x1f, 0x39,
  0x12, 0x00, 0x00, 0x00, 0x74, 0x66, 0x6c, 0x2e, 0x70, 0x73, 0x65, 0x75,
  0x64, 0x6f, 0x5f, 0x71, 0x63, 0x6f, 0x6e, 0x73, 0x74, 0x34, 0x00, 0x00,
  0x01, 0x00, 0x00, 0x00, 0x0e, 0x00, 0x00, 0x00, 0x12, 0xfb, 0xff, 0xff,
  0x00, 0x00, 0x00, 0x01, 0x14, 0x00, 0x00, 0x00, 0x78, 0x01, 0x00, 0x00,
  0x06, 0x00, 0x00, 0x00, 0x00, 0x00, 0x00, 0x09, 0x84, 0x01, 0x00, 0x00,
  0x8c, 0xfa, 0xff, 0xff, 0x08, 0x00, 0x00, 0x00, 0xec, 0x00, 0x00, 0x00,
  0x1c, 0x00, 0x00, 0x00, 0x00, 0x00, 0x00, 0x00, 0x00, 0x00, 0x00, 0x00,
  0x00, 0x00, 0x00, 0x00, 0x00, 0x00, 0x00, 0x00, 0x00, 0x00, 0x00, 0x00,
  0x00, 0x00, 0x00, 0x00, 0x00, 0x00, 0x00, 0x00, 0x00, 0x00, 0x00, 0x00,
  0x00, 0x00, 0x00, 0x00, 0x00, 0x00, 0x00, 0x00, 0x00, 0x00, 0x00, 0x00,
  0x00, 0x00, 0x00, 0x00, 0x00, 0x00, 0x00, 0x00, 0x00, 0x00, 0x00, 0x00,
  0x00, 0x00, 0x00, 0x00, 0x00, 0x00, 0x00, 0x00, 0x00, 0x00, 0x00, 0x00,
  0x00, 0x00, 0x00, 0x00, 0x00, 0x00, 0x00, 0x00, 0x00, 0x00, 0x00, 0x00,
  0x00, 0x00, 0x00, 0x00, 0x00, 0x00, 0x00, 0x00, 0x00, 0x00, 0x00, 0x00,
  0x00, 0x00, 0x00, 0x00, 0x00, 0x00, 0x00, 0x00, 0x00, 0x00, 0x00, 0x00,
  0x00, 0x00, 0x00, 0x00, 0x00, 0x00, 0x00, 0x00, 0x00, 0x00, 0x00, 0x00,
  0x00, 0x00, 0x00, 0x00, 0x00, 0x00, 0x00, 0x00, 0x00, 0x00, 0x00, 0x00,
  0x00, 0x00, 0x00, 0x00, 0x00, 0x00, 0x00, 0x00, 0x00, 0x00, 0x00, 0x00,
  0x00, 0x00, 0x00, 0x00, 0x00, 0x00, 0x00, 0x00, 0x00, 0x00, 0x00, 0x00,
  0x00, 0x00, 0x00, 0x00, 0x00, 0x00, 0x00, 0x00, 0x00, 0x00, 0x00, 0x00,
  0x00, 0x00, 0x00, 0x00, 0x00, 0x00, 0x00, 0x00, 0x00, 0x00, 0x00, 0x00,
  0x00, 0x00, 0x00, 0x00, 0x00, 0x00, 0x00, 0x00, 0x00, 0x00, 0x00, 0x00,
  0x00, 0x00, 0x00, 0x00, 0x00, 0x00, 0x00, 0x00, 0x00, 0x00, 0x00, 0x00,
  0x00, 0x00, 0x00, 0x00, 0x00, 0x00, 0x00, 0x00, 0x00, 0x00, 0x00, 0x00,
  0x00, 0x00, 0x00, 0x00, 0x00, 0x00, 0x00, 0x00, 0x00, 0x00, 0x00, 0x00,
  0x00, 0x00, 0x00, 0x00, 0x1c, 0x00, 0x00, 0x00, 0x78, 0x96, 0x32, 0x3c,
  0xff, 0x1e, 0xf7, 0x3b, 0x61, 0xc4, 0xd1, 0x3b, 0x9e, 0x7c, 0x06, 0x3c,
  0x70, 0x7f, 0x08, 0x3c, 0xf0, 0x86, 0x2c, 0x3c, 0xec, 0x54, 0x06, 0x3c,
  0x02, 0x1c, 0x05, 0x3c, 0x46, 0xa1, 0x10, 0x3c, 0xf2, 0x70, 0x42, 0x3c,
  0x50, 0x34, 0xe1, 0x3b, 0xde, 0x1d, 0x02, 0x3c, 0x4b, 0xbe, 0x0c, 0x3c,
  0xcb, 0x95, 0xb2, 0x3b, 0x9d, 0xfc, 0x13, 0x3c, 0x43, 0x60, 0x9d, 0x3b,
  0xd9, 0xc1, 0x16, 0x3c, 0x7d, 0x98, 0x15, 0x3c, 0xd5, 0x06, 0x15, 0x3c,
  0xbf, 0x3e, 0x62, 0x3b, 0x0e, 0x3e, 0xf9, 0x3b, 0x63, 0x5c, 0x05, 0x3c,
  0x5a, 0xf6, 0x18, 0x3c, 0xca, 0x13, 0x2b, 0x3c, 0xe4, 0x4f, 0xee, 0x3b,
  0x31, 0x9f, 0xea, 0x3b, 0x44, 0x68, 0x07, 0x3c, 0xa0, 0x1e, 0x18, 0x3c,
  0x12, 0x00, 0x00, 0x00, 0x74, 0x66, 0x6c, 0x2e, 0x70, 0x73, 0x65, 0x75,
  0x64, 0x6f, 0x5f, 0x71, 0x63, 0x6f, 0x6e, 0x73, 0x74, 0x33, 0x00, 0x00,
  0x04, 0x00, 0x00, 0x00, 0x1c, 0x00, 0x00, 0x00, 0x03, 0x00, 0x00, 0x00,
  0x03, 0x00, 0x00, 0x00, 0x0e, 0x00, 0x00, 0x00, 0xc2, 0xfc, 0xff, 0xff,
  0x00, 0x00, 0x00, 0x01, 0x14, 0x00, 0x00, 0x00, 0x74, 0x01, 0x00, 0x00,
  0x05, 0x00, 0x00, 0x00, 0x00, 0x00, 0x00, 0x02, 0x80, 0x01, 0x00, 0x00,
  0x3c, 0xfc, 0xff, 0xff, 0x08, 0x00, 0x00, 0x00, 0xe8, 0x00, 0x00, 0x00,
  0x1c, 0x00, 0x00, 0x00, 0x00, 0x00, 0x00, 0x00, 0x00, 0x00, 0x00, 0x00,
  0x00, 0x00, 0x00, 0x00, 0x00, 0x00, 0x00, 0x00, 0x00, 0x00, 0x00, 0x00,
  0x00, 0x00, 0x00, 0x00, 0x00, 0x00, 0x00, 0x00, 0x00, 0x00, 0x00, 0x00,
  0x00, 0x00, 0x00, 0x00, 0x00, 0x00, 0x00, 0x00, 0x00, 0x00, 0x00, 0x00,
  0x00, 0x00, 0x00, 0x00, 0x00, 0x00, 0x00, 0x00, 0x00, 0x00, 0x00, 0x00,
  0x00, 0x00, 0x00, 0x00, 0x00, 0x00, 0x00, 0x00, 0x00, 0x00, 0x00, 0x00,
  0x00, 0x00, 0x00, 0x00, 0x00, 0x00, 0x00, 0x00, 0x00, 0x00, 0x00, 0x00,
  0x00, 0x00, 0x00, 0x00, 0x00, 0x00, 0x00, 0x00, 0x00, 0x00, 0x00, 0x00,
  0x00, 0x00, 0x00, 0x00, 0x00, 0x00, 0x00, 0x00, 0x00, 0x00, 0x00, 0x00,
  0x00, 0x00, 0x00, 0x00, 0x00, 0x00, 0x00, 0x00, 0x00, 0x00, 0x00, 0x00,
  0x00, 0x00, 0x00, 0x00, 0x00, 0x00, 0x00, 0x00, 0x00, 0x00, 0x00, 0x00,
  0x00, 0x00, 0x00, 0x00, 0x00, 0x00, 0x00, 0x00, 0x00, 0x00, 0x00, 0x00,
  0x00, 0x00, 0x00, 0x00, 0x00, 0x00, 0x00, 0x00, 0x00, 0x00, 0x00, 0x00,
  0x00, 0x00, 0x00, 0x00, 0x00, 0x00, 0x00, 0x00, 0x00, 0x00, 0x00, 0x00,
  0x00, 0x00, 0x00, 0x00, 0x00, 0x00, 0x00, 0x00, 0x00, 0x00, 0x00, 0x00,
  0x00, 0x00, 0x00, 0x00, 0x00, 0x00, 0x00, 0x00, 0x00, 0x00, 0x00, 0x00,
  0x00, 0x00, 0x00, 0x00, 0x00, 0x00, 0x00, 0x00, 0x00, 0x00, 0x00, 0x00,
  0x00, 0x00, 0x00, 0x00, 0x00, 0x00, 0x00, 0x00, 0x00, 0x00, 0x00, 0x00,
  0x00, 0x00, 0x00, 0x00, 0x00, 0x00, 0x00, 0x00, 0x00, 0x00, 0x00, 0x00,
  0x1c, 0x00, 0x00, 0x00, 0x58, 0x99, 0xb1, 0x39, 0xbc, 0xc0, 0x75, 0x39,
  0x0f, 0x9b, 0x50, 0x39, 0x00, 0xbe, 0x85, 0x39, 0xf8, 0xbd, 0x87, 0x39,
  0x67, 0x92, 0xab, 0x39, 0x86, 0x96, 0x85, 0x39, 0x58, 0x5f, 0x84, 0x39,
  0x47, 0xd4, 0x8f, 0x39, 0x59, 0x5d, 0xc1, 0x39, 0x1d, 0xf5, 0x5f, 0x39,
  0x71, 0x65, 0x81, 0x39, 0xcf, 0xf6, 0x8b, 0x39, 0xac, 0x98, 0x31, 0x39,
  0xdc, 0x2a, 0x93, 0x39, 0x33, 0x81, 0x1c, 0x39, 0x2b, 0xec, 0x95, 0x39,
  0x75, 0xc4, 0x94, 0x39, 0x9b, 0x33, 0x94, 0x39, 0x12, 0xfe, 0xe0, 0x38,
  0xc9, 0xdc, 0x77, 0x39, 0x5d, 0x9f, 0x84, 0x39, 0x8c, 0x1d, 0x98, 0x39,
  0x4f, 0x21, 0xaa, 0x39, 0x1d, 0xfe, 0x6c, 0x39, 0xa5, 0x52, 0x69, 0x39,
  0x58, 0xa8, 0x86, 0x39, 0x04, 0x47, 0x97, 0x39, 0x12, 0x00, 0x00, 0x00,
  0x74, 0x66, 0x6c, 0x2e, 0x70, 0x73, 0x65, 0x75, 0x64, 0x6f, 0x5f, 0x71,
  0x63, 0x6f, 0x6e, 0x73, 0x74, 0x32, 0x00, 0x00, 0x01, 0x00, 0x00, 0x00,
  0x1c, 0x00, 0x00, 0x00, 0x62, 0xfe, 0xff, 0xff, 0x00, 0x00, 0x00, 0x01,
  0x14, 0x00, 0x00, 0x00, 0xa0, 0x00, 0x00, 0x00, 0x04, 0x00, 0x00, 0x00,
  0x00, 0x00, 0x00, 0x09, 0xac, 0x00, 0x00, 0x00, 0xdc, 0xfd, 0xff, 0xff,
  0x08, 0x00, 0x00, 0x00, 0x5c, 0x00, 0x00, 0x00, 0x0a, 0x00, 0x00, 0x00,
  0x00, 0x00, 0x00, 0x00, 0x00, 0x00, 0x00, 0x00, 0x00, 0x00, 0x00, 0x00,
  0x00, 0x00, 0x00, 0x00, 0x00, 0x00, 0x00, 0x00, 0x00, 0x00, 0x00, 0x00,
  0x00, 0x00, 0x00, 0x00, 0x00, 0x00, 0x00, 0x00, 0x00, 0x00, 0x00, 0x00,
  0x00, 0x00, 0x00, 0x00, 0x00, 0x00, 0x00, 0x00, 0x00, 0x00, 0x00, 0x00,
  0x00, 0x00, 0x00, 0x00, 0x00, 0x00, 0x00, 0x00, 0x00, 0x00, 0x00, 0x00,
  0x00, 0x00, 0x00, 0x00, 0x00, 0x00, 0x00, 0x00, 0x00, 0x00, 0x00, 0x00,
  0x00, 0x00, 0x00, 0x00, 0x00, 0x00, 0x00, 0x00, 0x00, 0x00, 0x00, 0x00,
  0x0a, 0x00, 0x00, 0x00, 0x45, 0xc6, 0xb8, 0x3b, 0x7a, 0xdf, 0x0f, 0x3c,
  0xc5, 0x5f, 0xc7, 0x3b, 0xc7, 0x48, 0xbb, 0x3b, 0x4a, 0xc9, 0x06, 0x3c,
  0x33, 0x42, 0xc5, 0x3b, 0x48, 0x60, 0xc8, 0x3b, 0x09, 0xae, 0xcb, 0x3b,
  0xa6, 0xd9, 0x9e, 0x3b, 0x18, 0x77, 0x7d, 0x3b, 0x12, 0x00, 0x00, 0x00,
  0x74, 0x66, 0x6c, 0x2e, 0x70, 0x73, 0x65, 0x75, 0x64, 0x6f, 0x5f, 0x71,
  0x63, 0x6f, 0x6e, 0x73, 0x74, 0x31, 0x00, 0x00, 0x02, 0x00, 0x00, 0x00,
  0x0a, 0x00, 0x00, 0x00, 0x1c, 0x00, 0x00, 0x00, 0x32, 0xff, 0xff, 0xff,
  0x00, 0x00, 0x00, 0x01, 0x14, 0x00, 0x00, 0x00, 0xa0, 0x00, 0x00, 0x00,
  0x03, 0x00, 0x00, 0x00, 0x00, 0x00, 0x00, 0x02, 0xac, 0x00, 0x00, 0x00,
  0xac, 0xfe, 0xff, 0xff, 0x08, 0x00, 0x00, 0x00, 0x5c, 0x00, 0x00, 0x00,
  0x0a, 0x00, 0x00, 0x00, 0x00, 0x00, 0x00, 0x00, 0x00, 0x00, 0x00, 0x00,
  0x00, 0x00, 0x00, 0x00, 0x00, 0x00, 0x00, 0x00, 0x00, 0x00, 0x00, 0x00,
  0x00, 0x00, 0x00, 0x00, 0x00, 0x00, 0x00, 0x00, 0x00, 0x00, 0x00, 0x00,
  0x00, 0x00, 0x00, 0x00, 0x00, 0x00, 0x00, 0x00, 0x00, 0x00, 0x00, 0x00,
  0x00, 0x00, 0x00, 0x00, 0x00, 0x00, 0x00, 0x00, 0x00, 0x00, 0x00, 0x00,
  0x00, 0x00, 0x00, 0x00, 0x00, 0x00, 0x00, 0x00, 0x00, 0x00, 0x00, 0x00,
  0x00, 0x00, 0x00, 0x00, 0x00, 0x00, 0x00, 0x00, 0x00, 0x00, 0x00, 0x00,
  0x00, 0x00, 0x00, 0x00, 0x0a, 0x00, 0x00, 0x00, 0x22, 0x20, 0x23, 0x38,
  0x49, 0x08, 0x7e, 0x38, 0xbb, 0x03, 0x30, 0x38, 0x5c, 0x57, 0x25, 0x38,
  0x00, 0xfd, 0x6d, 0x38, 0x9d, 0x25, 0x2e, 0x38, 0x30, 0xe6, 0x30, 0x38,
  0xd9, 0xd0, 0x33, 0x38, 0x16, 0x3d, 0x0c, 0x38, 0xa4, 0xc4, 0xdf, 0x37,
  0x11, 0x00, 0x00, 0x00, 0x74, 0x66, 0x6c, 0x2e, 0x70, 0x73, 0x65, 0x75,
  0x64, 0x6f, 0x5f, 0x71, 0x63, 0x6f, 0x6e, 0x73, 0x74, 0x00, 0x00, 0x00,
  0x01, 0x00, 0x00, 0x00, 0x0a, 0x00, 0x00, 0x00, 0x00, 0x00, 0x16, 0x00,
  0x1c, 0x00, 0x18, 0x00, 0x17, 0x00, 0x10, 0x00, 0x0c, 0x00, 0x08, 0x00,
  0x00, 0x00, 0x00, 0x00, 0x00, 0x00, 0x07, 0x00, 0x16, 0x00, 0x00, 0x00,
  0x00, 0x00, 0x00, 0x01, 0x18, 0x00, 0x00, 0x00, 0x18, 0x00, 0x00, 0x00,
  0x02, 0x00, 0x00, 0x00, 0x00, 0x00, 0x00, 0x02, 0x20, 0x00, 0x00, 0x00,
  0x04, 0x00, 0x04, 0x00, 0x04, 0x00, 0x00, 0x00, 0x0e, 0x00, 0x00, 0x00,
  0x61, 0x72, 0x69, 0x74, 0x68, 0x2e, 0x63, 0x6f, 0x6e, 0x73, 0x74, 0x61,
  0x6e, 0x74, 0x00, 0x00, 0x01, 0x00, 0x00, 0x00, 0x02, 0x00, 0x00, 0x00,
  0x00, 0x00, 0x16, 0x00, 0x20, 0x00, 0x1c, 0x00, 0x1b, 0x00, 0x14, 0x00,
  0x10, 0x00, 0x0c, 0x00, 0x00, 0x00, 0x00, 0x00, 0x08, 0x00, 0x07, 0x00,
  0x16, 0x00, 0x00, 0x00, 0x00, 0x00, 0x00, 0x01, 0x18, 0x00, 0x00, 0x00,
  0x34, 0x00, 0x00, 0x00, 0x50, 0x00, 0x00, 0x00, 0x01, 0x00, 0x00, 0x00,
  0x00, 0x00, 0x00, 0x09, 0x68, 0x00, 0x00, 0x00, 0x04, 0x00, 0x00, 0x00,
  0xff, 0xff, 0xff, 0xff, 0x20, 0x00, 0x00, 0x00, 0x20, 0x00, 0x00, 0x00,
  0x03, 0x00, 0x00, 0x00, 0x0c, 0x00, 0x0c, 0x00, 0x00, 0x00, 0x00, 0x00,
  0x08, 0x00, 0x04, 0x00, 0x0c, 0x00, 0x00, 0x00, 0x08, 0x00, 0x00, 0x00,
  0x10, 0x00, 0x00, 0x00, 0x01, 0x00, 0x00, 0x00, 0x80, 0xff, 0xff, 0xff,
  0xff, 0xff, 0xff, 0xff, 0x01, 0x00, 0x00, 0x00, 0x00, 0x00, 0x80, 0x3f,
  0x1e, 0x00, 0x00, 0x00, 0x73, 0x65, 0x72, 0x76, 0x69, 0x6e, 0x67, 0x5f,
  0x64, 0x65, 0x66, 0x61, 0x75, 0x6c, 0x74, 0x5f, 0x6b, 0x65, 0x72, 0x61,
  0x73, 0x5f, 0x74, 0x65, 0x6e, 0x73, 0x6f, 0x72, 0x3a, 0x30, 0x00, 0x00,
  0x04, 0x00, 0x00, 0x00, 0x01, 0x00, 0x00, 0x00, 0x20, 0x00, 0x00, 0x00,
  0x20, 0x00, 0x00, 0x00, 0x03, 0x00, 0x00, 0x00, 0x04, 0x00, 0x00, 0x00,
  0x4c, 0x00, 0x00, 0x00, 0x2c, 0x00, 0x00, 0x00, 0x18, 0x00, 0x00, 0x00,
  0x04, 0x00, 0x00, 0x00, 0xd0, 0xff, 0xff, 0xff, 0x19, 0x00, 0x00, 0x00,
  0x02, 0x00, 0x00, 0x00, 0x00, 0x00, 0x00, 0x19, 0xe0, 0xff, 0xff, 0xff,
  0x09, 0x00, 0x00, 0x00, 0x04, 0x00, 0x00, 0x00, 0x00, 0x00, 0x00, 0x09,
  0xf0, 0xff, 0xff, 0xff, 0x28, 0x00, 0x00, 0x00, 0x02, 0x00, 0x00, 0x00,
  0x00, 0x00, 0x00, 0x28, 0x0c, 0x00, 0x10, 0x00, 0x0f, 0x00, 0x00, 0x00,
  0x08, 0x00, 0x04, 0x00, 0x0c, 0x00, 0x00, 0x00, 0x03, 0x00, 0x00, 0x00,
  0x03, 0x00, 0x00, 0x00, 0x00, 0x00, 0x00, 0x03
};
unsigned int g_magic_wand_model_data_len = 8744;
