unsigned char g_magic_wand_model_data[] = {
  0x1c, 0x00, 0x00, 0x00, 0x54, 0x46, 0x4c, 0x33, 0x14, 0x00, 0x20, 0x00,
  0x1c, 0x00, 0x18, 0x00, 0x14, 0x00, 0x10, 0x00, 0x0c, 0x00, 0x00, 0x00,
  0x08, 0x00, 0x04, 0x00, 0x14, 0x00, 0x00, 0x00, 0x1c, 0x00, 0x00, 0x00,
  0x98, 0x00, 0x00, 0x00, 0x18, 0x01, 0x00, 0x00, 0x3c, 0x26, 0x00, 0x00,
  0x4c, 0x26, 0x00, 0x00, 0x7c, 0x38, 0x00, 0x00, 0x03, 0x00, 0x00, 0x00,
  0x01, 0x00, 0x00, 0x00, 0x10, 0x00, 0x00, 0x00, 0x00, 0x00, 0x0a, 0x00,
  0x10, 0x00, 0x0c, 0x00, 0x08, 0x00, 0x04, 0x00, 0x0a, 0x00, 0x00, 0x00,
  0x0c, 0x00, 0x00, 0x00, 0x1c, 0x00, 0x00, 0x00, 0x3c, 0x00, 0x00, 0x00,
  0x0f, 0x00, 0x00, 0x00, 0x73, 0x65, 0x72, 0x76, 0x69, 0x6e, 0x67, 0x5f,
  0x64, 0x65, 0x66, 0x61, 0x75, 0x6c, 0x74, 0x00, 0x01, 0x00, 0x00, 0x00,
  0x04, 0x00, 0x00, 0x00, 0x68, 0xff, 0xff, 0xff, 0x0f, 0x00, 0x00, 0x00,
  0x04, 0x00, 0x00, 0x00, 0x08, 0x00, 0x00, 0x00, 0x6f, 0x75, 0x74, 0x70,
  0x75, 0x74, 0x5f, 0x30, 0x00, 0x00, 0x00, 0x00, 0x01, 0x00, 0x00, 0x00,
  0x04, 0x00, 0x00, 0x00, 0xa2, 0xd9, 0xff, 0xff, 0x04, 0x00, 0x00, 0x00,
  0x0c, 0x00, 0x00, 0x00, 0x6b, 0x65, 0x72, 0x61, 0x73, 0x5f, 0x74, 0x65,
  0x6e, 0x73, 0x6f, 0x72, 0x00, 0x00, 0x00, 0x00, 0x03, 0x00, 0x00, 0x00,
  0x5c, 0x00, 0x00, 0x00, 0x2c, 0x00, 0x00, 0x00, 0x04, 0x00, 0x00, 0x00,
  0xb8, 0xff, 0xff, 0xff, 0x13, 0x00, 0x00, 0x00, 0x04, 0x00, 0x00, 0x00,
  0x13, 0x00, 0x00, 0x00, 0x43, 0x4f, 0x4e, 0x56, 0x45, 0x52, 0x53, 0x49,
  0x4f, 0x4e, 0x5f, 0x4d, 0x45, 0x54, 0x41, 0x44, 0x41, 0x54, 0x41, 0x00,
  0xdc, 0xff, 0xff, 0xff, 0x12, 0x00, 0x00, 0x00, 0x04, 0x00, 0x00, 0x00,
  0x13, 0x00, 0x00, 0x00, 0x6d, 0x69, 0x6e, 0x5f, 0x72, 0x75, 0x6e, 0x74,
  0x69, 0x6d, 0x65, 0x5f, 0x76, 0x65, 0x72, 0x73, 0x69, 0x6f, 0x6e, 0x00,
  0x08, 0x00, 0x0c, 0x00, 0x08, 0x00, 0x04, 0x00, 0x08, 0x00, 0x00, 0x00,
  0x11, 0x00, 0x00, 0x00, 0x04, 0x00, 0x00, 0x00, 0x13, 0x00, 0x00, 0x00,
  0x6d, 0x69, 0x6e, 0x5f, 0x72, 0x75, 0x6e, 0x74, 0x69, 0x6d, 0x65, 0x5f,
  0x76, 0x65, 0x72, 0x73, 0x69, 0x6f, 0x6e, 0x00, 0x14, 0x00, 0x00, 0x00,
  0x20, 0x25, 0x00, 0x00, 0x18, 0x25, 0x00, 0x00, 0x00, 0x25, 0x00, 0x00,
  0xc8, 0x24, 0x00, 0x00, 0xc8, 0x23, 0x00, 0x00, 0x58, 0x23, 0x00, 0x00,
  0x08, 0x0f, 0x00, 0x00, 0x98, 0x0e, 0x00, 0x00, 0xb8, 0x02, 0x00, 0x00,
  0x70, 0x02, 0x00, 0x00, 0xe4, 0x00, 0x00, 0x00, 0xdc, 0x00, 0x00, 0x00,
  0xd4, 0x00, 0x00, 0x00, 0xcc, 0x00, 0x00, 0x00, 0xc4, 0x00, 0x00, 0x00,
  0xbc, 0x00, 0x00, 0x00, 0xb4, 0x00, 0x00, 0x00, 0x94, 0x00, 0x00, 0x00,
  0x74, 0x00, 0x00, 0x00, 0x04, 0x00, 0x00, 0x00, 0x96, 0xda, 0xff, 0xff,
  0x04, 0x00, 0x00, 0x00, 0x60, 0x00, 0x00, 0x00, 0x0c, 0x00, 0x00, 0x00,
  0x08, 0x00, 0x0e, 0x00, 0x08, 0x00, 0x04, 0x00, 0x08, 0x00, 0x00, 0x00,
  0x10, 0x00, 0x00, 0x00, 0x28, 0x00, 0x00, 0x00, 0x00, 0x00, 0x06, 0x00,
  0x08, 0x00, 0x04, 0x00, 0x06, 0x00, 0x00, 0x00, 0x04, 0x00, 0x00, 0x00,
  0x01, 0x00, 0x00, 0x00, 0xeb, 0x03, 0x00, 0x00, 0x0c, 0x00, 0x18, 0x00,
  0x14, 0x00, 0x10, 0x00, 0x0c, 0x00, 0x04, 0x00, 0x0c, 0x00, 0x00, 0x00,
  0xe4, 0x56, 0x21, 0x0b, 0x4d, 0x00, 0x57, 0xe2, 0x02, 0x00, 0x00, 0x00,
  0x02, 0x00, 0x00, 0x00, 0x04, 0x00, 0x00, 0x00, 0x06, 0x00, 0x00, 0x00,
  0x32, 0x2e, 0x31, 0x39, 0x2e, 0x30, 0x00, 0x00, 0x02, 0xdb, 0xff, 0xff,
  0x04, 0x00, 0x00, 0x00, 0x10, 0x00, 0x00, 0x00, 0x00, 0x00, 0x00, 0x00,
  0x00, 0x00, 0x00, 0x00, 0x00, 0x00, 0x00, 0x00, 0x00, 0x00, 0x00, 0x00,
  0x1e, 0xdb, 0xff, 0xff, 0x04, 0x00, 0x00, 0x00, 0x10, 0x00, 0x00, 0x00,
  0x31, 0x2e, 0x31, 0x34, 0x2e, 0x30, 0x00, 0x00, 0x00, 0x00, 0x00, 0x00,
  0x00, 0x00, 0x00, 0x00, 0x5c, 0xca, 0xff, 0xff, 0x60, 0xca, 0xff, 0xff,
  0x64, 0xca, 0xff, 0xff, 0x68, 0xca, 0xff, 0xff, 0x6c, 0xca, 0xff, 0xff,
  0x70, 0xca, 0xff, 0xff, 0x52, 0xdb, 0xff, 0xff, 0x04, 0x00, 0x00, 0x00,
  0x7a, 0x01, 0x00, 0x00, 0xa4, 0x9b, 0xf1, 0xfb, 0xf1, 0x00, 0x40, 0x20,
  0xc8, 0xa7, 0x3f, 0x81, 0xe4, 0x13, 0xa6, 0x19, 0x1b, 0xdf, 0xef, 0x27,
  0xb0, 0x05, 0xec, 0xcf, 0x22, 0xbf, 0xee, 0x13, 0x26, 0xe5, 0x26, 0x22,
  0x25, 0x16, 0xf6, 0x45, 0x01, 0x48, 0x3d, 0x2f, 0x54, 0x3e, 0x56, 0x31,
  0x12, 0x30, 0x0b, 0xf6, 0x69, 0x19, 0x1b, 0x7f, 0x2e, 0x1a, 0xed, 0x0d,
  0x7f, 0x0f, 0x02, 0x64, 0x4e, 0xf5, 0x5c, 0xee, 0x0a, 0x62, 0xd7, 0x06,
  0x62, 0xeb, 0xf8, 0x6c, 0xff, 0x03, 0x4a, 0xe6, 0x09, 0x11, 0x07, 0x05,
  0x30, 0xe3, 0x05, 0x19, 0x9f, 0x2c, 0xfd, 0xe6, 0x1d, 0xf5, 0xa2, 0xdc,
  0xc1, 0xeb, 0x82, 0xe4, 0x75, 0xd2, 0xee, 0x81, 0xfa, 0x25, 0xe8, 0x14,
  0x17, 0x48, 0xf1, 0x18, 0xd6, 0x3b, 0x9d, 0xd4, 0x32, 0xa9, 0xc7, 0x26,
  0xa1, 0xe2, 0x35, 0x93, 0xd7, 0x32, 0x81, 0xd4, 0x0f, 0xba, 0x05, 0xfc,
  0x15, 0xcd, 0x42, 0xad, 0xc7, 0x37, 0xb9, 0x18, 0x45, 0x99, 0xe7, 0x5a,
  0xe1, 0xd4, 0x3d, 0x14, 0x23, 0xf7, 0x96, 0x0b, 0x2c, 0x1c, 0xfa, 0x27,
  0x1b, 0x6c, 0xc5, 0x81, 0x28, 0xfd, 0x0b, 0x10, 0x1d, 0x17, 0x0b, 0xb1,
  0x97, 0xef, 0x03, 0x2b, 0x2a, 0x06, 0x55, 0x32, 0x81, 0xb4, 0xb9, 0x47,
  0x48, 0x00, 0x0f, 0x45, 0x2b, 0xb8, 0xcf, 0xfc, 0x02, 0x2c, 0x41, 0x12,
  0x66, 0x0d, 0x0f, 0xf1, 0x27, 0xe5, 0x16, 0xff, 0xb6, 0x10, 0x00, 0x2a,
  0xd6, 0x07, 0x33, 0xd4, 0x81, 0x8b, 0x0b, 0xfd, 0x23, 0xf8, 0xef, 0x29,
  0xfd, 0x94, 0xc8, 0xfa, 0x50, 0x18, 0xf0, 0x54, 0xfc, 0x06, 0x30, 0x02,
  0xf3, 0x74, 0xfb, 0x08, 0x7f, 0xee, 0x38, 0x40, 0x03, 0xc7, 0x4e, 0x0c,
  0x14, 0x5c, 0x00, 0x2c, 0x36, 0xf0, 0xd5, 0x85, 0xec, 0xf2, 0x10, 0x18,
  0x1b, 0x50, 0xdf, 0x0d, 0xeb, 0x14, 0xfc, 0x7f, 0xa6, 0xd5, 0x54, 0xb3,
  0xdc, 0x30, 0x8b, 0xda, 0x58, 0xef, 0x3f, 0x26, 0x10, 0x3f, 0x07, 0xb3,
  0xc1, 0x19, 0x81, 0xca, 0xdd, 0xb8, 0xe5, 0xf6, 0x2c, 0x0e, 0xc5, 0x43,
  0x32, 0xcd, 0x19, 0x21, 0xfc, 0x1e, 0x22, 0xf7, 0x20, 0x0c, 0xaf, 0x20,
  0x0a, 0x94, 0xbb, 0x21, 0xa2, 0x40, 0xbb, 0xe1, 0x22, 0xd9, 0x34, 0x81,
  0x14, 0xe4, 0x21, 0xcb, 0xe8, 0x1b, 0xe2, 0x2e, 0xaa, 0x3a, 0x05, 0x0b,
  0xd6, 0xcc, 0x3a, 0x87, 0xd4, 0x0d, 0x64, 0xed, 0x02, 0x47, 0xd4, 0x00,
  0x3f, 0x2a, 0x07, 0x61, 0x20, 0x04, 0x52, 0x53, 0xfb, 0x38, 0xea, 0x04,
  0x4d, 0xee, 0x07, 0x7f, 0x23, 0x02, 0x71, 0x1b, 0x9c, 0x05, 0x0a, 0x97,
  0x30, 0xde, 0xd0, 0x1b, 0x39, 0xc8, 0x0f, 0x04, 0xf4, 0x32, 0x81, 0xfe,
  0x19, 0x30, 0x29, 0x3f, 0x21, 0x3d, 0x4a, 0x0f, 0x21, 0x28, 0x00, 0x00,
  0xda, 0xdc, 0xff, 0xff, 0x04, 0x00, 0x00, 0x00, 0x38, 0x00, 0x00, 0x00,
  0x2e, 0x01, 0x00, 0x00, 0xc5, 0xe4, 0xff, 0xff, 0x2f, 0xf1, 0xff, 0xff,
  0x42, 0xfd, 0xff, 0xff, 0x8e, 0x01, 0x00, 0x00, 0xb9, 0xec, 0xff, 0xff,
  0xb7, 0xfa, 0xff, 0xff, 0xc7, 0xfe, 0xff, 0xff, 0xea, 0xf7, 0xff, 0xff,
  0xae, 0xfd, 0xff, 0xff, 0xc7, 0xfc, 0xff, 0xff, 0x9a, 0xfe, 0xff, 0xff,
  0x6d, 0xf8, 0xff, 0xff, 0x1e, 0xfa, 0xff, 0xff, 0x1e, 0xdd, 0xff, 0xff,
  0x04, 0x00, 0x00, 0x00, 0xd0, 0x0b, 0x00, 0x00, 0x9a, 0xd6, 0xf7, 0xfd,
  0x81, 0xa9, 0xe7, 0xb3, 0xb3, 0xfd, 0x34, 0xb8, 0x04, 0x03, 0xab, 0xd8,
  0xff, 0x03, 0xab, 0xc9, 0xeb, 0xeb, 0x86, 0xeb, 0x33, 0xda, 0x06, 0x12,
  0xaf, 0xfb, 0x08, 0xf0, 0xce, 0xcc, 0x06, 0xff, 0xa7, 0x1b, 0x0b, 0xc3,
  0x11, 0x09, 0xd6, 0x04, 0x04, 0xf8, 0xa8, 0xf9, 0xed, 0xf2, 0xf9, 0xee,
  0x1b, 0x17, 0x00, 0x00, 0xd8, 0xfe, 0x0c, 0xf7, 0xbc, 0xee, 0x12, 0x30,
  0xe2, 0x09, 0x14, 0x12, 0x0b, 0xf5, 0xe4, 0x12, 0xfd, 0xfe, 0xe2, 0x00,
  0x2b, 0x30, 0xf3, 0x09, 0xee, 0xda, 0x00, 0xd8, 0xd9, 0x02, 0x0d, 0xed,
  0xf0, 0x04, 0x12, 0x04, 0x0c, 0x0c, 0x15, 0xdb, 0x18, 0x20, 0x0a, 0x19,
  0x19, 0xf8, 0xc6, 0x10, 0x38, 0x31, 0xf4, 0x1f, 0x11, 0xe2, 0x10, 0x31,
  0xf7, 0x1b, 0x06, 0x0c, 0xe9, 0xf6, 0x4d, 0x22, 0x0b, 0x30, 0xf5, 0xe5,
  0x24, 0x0d, 0xdf, 0x0d, 0x3f, 0x34, 0xe6, 0x0e, 0xf2, 0x2c, 0xfb, 0x0f,
  0x2c, 0xfb, 0x21, 0x09, 0xdb, 0x1c, 0x42, 0x4a, 0xb7, 0x04, 0x20, 0x06,
  0xf1, 0xf2, 0x1b, 0xc3, 0x39, 0x37, 0xcd, 0x32, 0x2f, 0x5e, 0xdd, 0x0c,
  0x3b, 0xf0, 0xfb, 0x17, 0x26, 0x81, 0x2e, 0x19, 0x20, 0x1c, 0x1e, 0xfa,
  0x1d, 0x0a, 0xd8, 0x19, 0x0d, 0x10, 0x4f, 0x03, 0x14, 0x0d, 0xf1, 0x2e,
  0x22, 0x0d, 0xfd, 0x05, 0xf8, 0x1b, 0xfa, 0x20, 0x3d, 0x0a, 0x0b, 0x21,
  0x05, 0x1f, 0x09, 0x0b, 0xff, 0x11, 0x11, 0x33, 0x02, 0x50, 0x36, 0xca,
  0x33, 0x23, 0x3a, 0x26, 0xe7, 0x00, 0x53, 0x18, 0xb6, 0x36, 0x20, 0x18,
  0x61, 0x1c, 0xdf, 0x2c, 0x35, 0x24, 0xd3, 0x1a, 0x51, 0x18, 0xed, 0x53,
  0xdb, 0x1c, 0x2c, 0x36, 0xfe, 0x29, 0x1c, 0x32, 0xe1, 0xd3, 0x2c, 0x14,
  0x06, 0x2d, 0x02, 0x15, 0x4a, 0x37, 0x05, 0x2f, 0xe1, 0xe2, 0x13, 0x20,
  0xbd, 0xe5, 0x09, 0xca, 0x81, 0xaf, 0xf8, 0x25, 0x0a, 0xda, 0xcd, 0x06,
  0x06, 0x0c, 0xd8, 0x03, 0xfa, 0x63, 0xe9, 0xd7, 0xd5, 0x22, 0x02, 0xe0,
  0x07, 0x05, 0x09, 0x15, 0x00, 0x21, 0xff, 0x1b, 0x00, 0xec, 0xee, 0xff,
  0x0c, 0xec, 0xeb, 0xcd, 0x09, 0x00, 0xeb, 0xd8, 0xfd, 0x10, 0xaf, 0xe2,
  0xd2, 0x28, 0xf2, 0xa8, 0x06, 0x01, 0x17, 0xe1, 0xfa, 0xff, 0x02, 0x66,
  0x00, 0xe1, 0x8b, 0x0f, 0x1c, 0xbf, 0x02, 0x0d, 0x0a, 0x00, 0x02, 0x15,
  0x0d, 0x32, 0x06, 0xcc, 0xcb, 0x1d, 0x0d, 0xde, 0xed, 0xde, 0xc9, 0xeb,
  0x0e, 0x05, 0xfe, 0x17, 0xa3, 0xf2, 0xd9, 0x28, 0xbf, 0xf4, 0x18, 0x0f,
  0xed, 0xc8, 0x20, 0xf7, 0xfd, 0x37, 0xf1, 0xe3, 0xb3, 0x26, 0xe0, 0xb9,
  0x14, 0x12, 0x06, 0xf2, 0x15, 0x1b, 0x15, 0x28, 0xff, 0xd6, 0xc3, 0x30,
  0x0a, 0xe2, 0x04, 0x21, 0x09, 0x11, 0x0d, 0x1a, 0xec, 0x1b, 0x28, 0x05,
  0x16, 0xf5, 0x06, 0xfe, 0xdb, 0x20, 0x0c, 0x0f, 0xdb, 0x35, 0x04, 0xff,
  0x0e, 0x08, 0x09, 0x9e, 0x09, 0xeb, 0xa7, 0xff, 0xf5, 0xfa, 0x81, 0xef,
  0x1e, 0x07, 0x1f, 0xff, 0xf5, 0x98, 0x09, 0xed, 0x17, 0x2c, 0x05, 0xe5,
  0x08, 0x22, 0xdd, 0xfc, 0x08, 0x0f, 0x4b, 0xea, 0x03, 0x12, 0xe3, 0x33,
  0x13, 0xb5, 0xd1, 0x36, 0xfd, 0x0a, 0x18, 0x1c, 0xea, 0x97, 0x16, 0x12,
  0xfc, 0x01, 0x04, 0x0a, 0xa7, 0xe9, 0x05, 0x1f, 0x13, 0x09, 0xd4, 0xb2,
  0x0c, 0x03, 0x20, 0x1a, 0xfd, 0xef, 0x1d, 0xed, 0xec, 0x0a, 0xf2, 0x00,
  0x49, 0xdc, 0x13, 0x20, 0xee, 0x16, 0x13, 0xea, 0xe4, 0x11, 0x0a, 0x0c,
  0x17, 0x17, 0x08, 0xd0, 0x17, 0x18, 0xe8, 0xfb, 0x05, 0xfc, 0xd6, 0x0a,
  0x26, 0x1a, 0x16, 0x3b, 0x03, 0xbe, 0x0c, 0xf6, 0xfb, 0xfb, 0x1e, 0x1b,
  0xec, 0xf0, 0x0d, 0xf4, 0xea, 0x29, 0x15, 0x0a, 0x1b, 0x0e, 0xf0, 0x19,
  0x15, 0x19, 0x06, 0xfa, 0x1b, 0xe0, 0xef, 0x3b, 0x1c, 0x26, 0x1b, 0x18,
  0xf3, 0x0e, 0x15, 0x3c, 0x01, 0x10, 0x1c, 0xed, 0xf9, 0x40, 0x31, 0xfd,
  0x20, 0xf2, 0x22, 0xb9, 0xfe, 0x03, 0xeb, 0x10, 0xc7, 0x81, 0xac, 0xef,
  0xc3, 0xff, 0xd2, 0x9b, 0xdc, 0xa2, 0xea, 0x49, 0xef, 0x0a, 0xa5, 0xa3,
  0xbe, 0x03, 0xc1, 0xe7, 0xc3, 0xc6, 0xdf, 0xad, 0xea, 0x2f, 0xde, 0xd3,
  0xe9, 0xa8, 0xd5, 0x1d, 0xef, 0xcd, 0xd6, 0xe4, 0xfc, 0xc4, 0xb6, 0x07,
  0xf9, 0xb1, 0x0c, 0xb4, 0xbe, 0x18, 0xef, 0x02, 0xea, 0x24, 0x05, 0xf1,
  0xfe, 0xef, 0x00, 0xa8, 0x10, 0xe7, 0xcc, 0x1b, 0x39, 0xf5, 0x10, 0x2a,
  0x21, 0xf8, 0x12, 0x1e, 0x17, 0xdf, 0x0b, 0xd0, 0xec, 0x2f, 0x2e, 0xf0,
  0x1d, 0x1f, 0x09, 0x20, 0xfb, 0x57, 0x23, 0x30, 0xe2, 0x10, 0xfc, 0xe0,
  0x1f, 0xe9, 0x01, 0xf6, 0x17, 0x15, 0x06, 0x5e, 0x06, 0x2d, 0xf2, 0x39,
  0xeb, 0x0a, 0x23, 0xe8, 0xf6, 0xf4, 0x0c, 0xf3, 0x01, 0x32, 0xd8, 0x21,
  0x01, 0x1f, 0x03, 0x1c, 0x0f, 0xee, 0x0e, 0xed, 0x18, 0x00, 0xe6, 0x33,
  0xf3, 0x18, 0xc3, 0xff, 0x02, 0x06, 0x26, 0xe4, 0xdd, 0xe8, 0x20, 0x13,
  0xdd, 0x57, 0xf2, 0x1f, 0xd9, 0x31, 0x00, 0x20, 0x2c, 0xd6, 0xde, 0xe0,
  0x13, 0xff, 0xf4, 0x3f, 0xf6, 0x0c, 0xee, 0x39, 0x02, 0x0e, 0xe4, 0xfb,
  0xed, 0xc5, 0x2f, 0xf4, 0xb0, 0x2d, 0xf7, 0xf5, 0xc7, 0xe2, 0xf8, 0x22,
  0x15, 0xd6, 0xae, 0x18, 0x4a, 0x05, 0x8b, 0x25, 0x04, 0xfd, 0xc1, 0x09,
  0x1e, 0x46, 0x14, 0xd6, 0x82, 0xab, 0x28, 0x18, 0x81, 0x60, 0x13, 0x01,
  0xbc, 0x0d, 0x0b, 0x20, 0xfe, 0x02, 0x9d, 0xc9, 0xe5, 0x0e, 0x02, 0xd1,
  0xfa, 0x0a, 0xf9, 0xf7, 0x16, 0x03, 0x08, 0xbc, 0x06, 0xfa, 0xd4, 0x03,
  0x02, 0xc7, 0x9c, 0x06, 0x0b, 0x01, 0x11, 0x05, 0xe4, 0x81, 0x06, 0x02,
  0xe6, 0xf5, 0x03, 0xfc, 0x91, 0xec, 0x0b, 0xe6, 0x09, 0x10, 0xde, 0x89,
  0x01, 0xfa, 0xef, 0x0b, 0x08, 0xb3, 0xf6, 0x11, 0x07, 0xf8, 0x0a, 0xef,
  0xf8, 0xc8, 0x0d, 0xfe, 0xd4, 0x06, 0x05, 0xae, 0xa6, 0x01, 0x1c, 0x0d,
  0x0d, 0xf9, 0xdb, 0x9f, 0x0a, 0xf7, 0xe1, 0xf5, 0xfe, 0xe9, 0xa2, 0xf8,
  0x29, 0x0c, 0x0d, 0x18, 0xe1, 0x9f, 0x09, 0xfb, 0xe5, 0x08, 0x03, 0xd2,
  0xfe, 0x15, 0x0d, 0xf9, 0x09, 0x12, 0xec, 0xdb, 0x0a, 0x03, 0xda, 0x0a,
  0x02, 0xcf, 0xba, 0x0a, 0x29, 0xfb, 0x09, 0x0d, 0xff, 0xb7, 0x17, 0x11,
  0xe3, 0x02, 0x02, 0x08, 0xa5, 0xf6, 0x1c, 0xfc, 0x02, 0x08, 0xf9, 0xb5,
  0x0a, 0x05, 0x21, 0x08, 0xc2, 0x2a, 0xf4, 0x19, 0x07, 0x20, 0x26, 0x08,
  0xce, 0x1f, 0xd4, 0x02, 0x1e, 0x1e, 0xec, 0x45, 0xf1, 0x24, 0x0f, 0x2c,
  0x0c, 0xf4, 0xeb, 0x25, 0xf5, 0xd8, 0x01, 0x22, 0x04, 0x32, 0xf7, 0x12,
  0xf8, 0x1f, 0xfa, 0x18, 0xf6, 0x05, 0x03, 0xcf, 0x2c, 0x14, 0x81, 0x42,
  0xea, 0x1d, 0x02, 0x02, 0x35, 0x0f, 0xe7, 0xf0, 0xb6, 0xf8, 0x2a, 0x15,
  0x89, 0x53, 0xed, 0x1b, 0xec, 0x3a, 0x1e, 0x35, 0xf5, 0x20, 0xc0, 0xb8,
  0x1a, 0x0f, 0xa6, 0x61, 0xf9, 0x11, 0x09, 0x24, 0x08, 0x0c, 0xea, 0x1e,
  0xc6, 0xd6, 0xfa, 0x18, 0x84, 0x17, 0xf2, 0xfc, 0x2b, 0x18, 0x2e, 0x2b,
  0xb7, 0xde, 0xc5, 0xd2, 0x0e, 0x06, 0x84, 0x08, 0xd4, 0xf7, 0xfb, 0x27,
  0x29, 0x1b, 0xe5, 0xfb, 0xd7, 0xab, 0x2c, 0xe1, 0x85, 0x04, 0xe0, 0xf5,
  0xce, 0x30, 0x3b, 0xe5, 0xa3, 0x16, 0xa7, 0xb1, 0xbd, 0x0a, 0x11, 0x2a,
  0xad, 0x03, 0xea, 0xef, 0xd1, 0xe0, 0x2d, 0x86, 0x04, 0x17, 0xc2, 0x06,
  0x00, 0x14, 0x81, 0xee, 0xef, 0xeb, 0xe2, 0xf2, 0x19, 0xad, 0x03, 0x15,
  0x13, 0xe6, 0xfe, 0x17, 0xdb, 0xfb, 0xea, 0x0b, 0xdc, 0xef, 0x05, 0x35,
  0x05, 0xe9, 0xe2, 0x26, 0x0a, 0xfc, 0xc2, 0x0d, 0xee, 0xde, 0x26, 0x11,
  0x34, 0xa7, 0x0f, 0x1d, 0xc0, 0x00, 0xfc, 0xf3, 0xb2, 0xf3, 0x13, 0x08,
  0x12, 0x32, 0x11, 0x9b, 0xfe, 0x08, 0xde, 0xfe, 0x0c, 0x14, 0xb7, 0xe8,
  0xfe, 0x04, 0xee, 0x24, 0x01, 0x12, 0xef, 0xfc, 0xd6, 0x15, 0x0a, 0x11,
  0xd2, 0x11, 0xf9, 0x00, 0x1c, 0x19, 0x1c, 0xc9, 0x21, 0x24, 0xdc, 0x0d,
  0x03, 0x0a, 0xa0, 0xef, 0x10, 0x16, 0x07, 0x32, 0x02, 0xbb, 0xff, 0x12,
  0xe0, 0xf0, 0x01, 0x17, 0x9a, 0xe5, 0xf4, 0xf3, 0xff, 0x11, 0x14, 0x0c,
  0xf6, 0x0b, 0x61, 0x3a, 0x0f, 0xd7, 0x63, 0x67, 0xf6, 0x75, 0x2b, 0xe3,
  0x15, 0x0b, 0xd8, 0xdc, 0x3f, 0x37, 0x27, 0xee, 0x31, 0x69, 0x1c, 0x25,
  0x16, 0xea, 0xcb, 0x57, 0x1c, 0xb0, 0x50, 0x5a, 0x01, 0x25, 0x11, 0x76,
  0x47, 0x1c, 0x03, 0xf7, 0xc8, 0x41, 0x24, 0x8c, 0x42, 0x30, 0x01, 0x0a,
  0x25, 0x49, 0x04, 0x1a, 0x26, 0xc7, 0xf7, 0xda, 0x37, 0x1d, 0x2f, 0x46,
  0x1f, 0x98, 0x0a, 0x4e, 0x22, 0xdd, 0x3a, 0xe0, 0xcd, 0xf1, 0x31, 0xe8,
  0xe9, 0x43, 0x0b, 0xcf, 0xec, 0x7b, 0x5d, 0xf9, 0x48, 0x39, 0xb8, 0xec,
  0xff, 0xce, 0x2b, 0x46, 0xfa, 0x20, 0x0c, 0x1f, 0xf6, 0xcf, 0x48, 0x29,
  0x18, 0xe0, 0x32, 0x55, 0xf7, 0x44, 0x0e, 0x00, 0xff, 0x44, 0x1e, 0x04,
  0x4a, 0xff, 0x31, 0xd1, 0x25, 0x5c, 0xd5, 0x64, 0x0f, 0xff, 0xbb, 0x3b,
  0x67, 0xd8, 0x4a, 0x7f, 0xe5, 0xc8, 0x2a, 0x4f, 0xae, 0xd7, 0x04, 0xfe,
  0xa0, 0xc1, 0xed, 0xe8, 0x81, 0xc2, 0x11, 0xf3, 0x08, 0xf6, 0xea, 0x12,
  0x07, 0xef, 0xff, 0xf7, 0x10, 0x33, 0xd6, 0xc9, 0xe7, 0xfa, 0x08, 0xe7,
  0xf1, 0x0c, 0x00, 0xf7, 0xf3, 0x08, 0x0f, 0x12, 0x05, 0xf4, 0xe7, 0xff,
  0x0b, 0xfb, 0xc8, 0xdc, 0x13, 0xfe, 0xd4, 0xe0, 0x06, 0xc5, 0xa8, 0xdf,
  0xe7, 0x0f, 0xfd, 0xe1, 0xfb, 0x13, 0x0e, 0xdf, 0xf8, 0x1c, 0x0c, 0x41,
  0xf0, 0xb8, 0xd0, 0x1c, 0x00, 0xdf, 0xf0, 0x11, 0x05, 0xe0, 0xfd, 0x0d,
  0x2f, 0x25, 0x0d, 0xcc, 0xca, 0x10, 0x10, 0xdb, 0xed, 0xdd, 0xde, 0xce,
  0x11, 0xf1, 0xed, 0x01, 0xb6, 0xd3, 0xfb, 0x05, 0xd0, 0xf1, 0xff, 0x0c,
  0x0d, 0xc5, 0x0c, 0x1c, 0x1c, 0x48, 0xec, 0xcd, 0xbf, 0x11, 0x1d, 0xea,
  0x20, 0x0e, 0x0b, 0xdb, 0x03, 0x07, 0x1a, 0x37, 0x00, 0xca, 0xd2, 0x29,
  0x0d, 0xe7, 0xa7, 0xa7, 0x03, 0x07, 0xa5, 0x81, 0xea, 0xd9, 0xff, 0xd8,
  0xdc, 0x98, 0xfd, 0x05, 0x91, 0xbc, 0xe2, 0xd8, 0x9c, 0x92, 0x00, 0x9d,
  0xcd, 0x2a, 0x23, 0xd9, 0xda, 0x2a, 0x03, 0xeb, 0xfb, 0x0f, 0xad, 0xca,
  0x1e, 0xef, 0xc8, 0x1d, 0xf5, 0xdd, 0x1b, 0x11, 0xef, 0xf1, 0x08, 0x0f,
  0xd9, 0xd0, 0x18, 0xec, 0x01, 0xe9, 0xf6, 0xc5, 0x0d, 0x09, 0x01, 0xff,
  0xfa, 0x1d, 0x0d, 0xc5, 0x0f, 0xec, 0x01, 0x21, 0x00, 0xab, 0x0c, 0xfb,
  0x04, 0x04, 0x01, 0x13, 0xe1, 0xfb, 0x35, 0xf5, 0xfc, 0x16, 0xfa, 0xc7,
  0x1c, 0x01, 0x11, 0x23, 0x02, 0xe6, 0xf3, 0x10, 0xfd, 0x07, 0x0e, 0x2c,
  0xf3, 0xce, 0x0a, 0x2e, 0x0a, 0x18, 0x0b, 0xdd, 0x11, 0x33, 0x16, 0xeb,
  0x28, 0x39, 0x1d, 0x8c, 0x24, 0x2a, 0x00, 0x1e, 0x08, 0x17, 0x03, 0x0b,
  0x12, 0x04, 0x15, 0x2c, 0x12, 0xc7, 0x03, 0x1c, 0x16, 0x0d, 0xfb, 0x0a,
  0x1a, 0x1a, 0xf0, 0x14, 0x08, 0x0e, 0x08, 0x05, 0xf2, 0x01, 0x09, 0xfe,
  0xfd, 0x0d, 0x10, 0x14, 0xfc, 0x29, 0xf6, 0xea, 0xff, 0x32, 0xf8, 0xf9,
  0x0e, 0x02, 0x02, 0x08, 0x0f, 0x05, 0x03, 0x1c, 0xe3, 0xdb, 0xf6, 0x21,
  0x01, 0xf0, 0x19, 0xf8, 0xe0, 0x27, 0x0c, 0x0b, 0xd1, 0xea, 0x04, 0x16,
  0x1f, 0xee, 0xcd, 0x11, 0x15, 0xf1, 0xf7, 0x1b, 0x10, 0xfe, 0xce, 0x09,
  0xf7, 0x32, 0x1b, 0xfc, 0xeb, 0x0a, 0x0c, 0xf2, 0x03, 0x0e, 0x08, 0xf9,
  0xe3, 0xfa, 0xcb, 0xde, 0x18, 0x13, 0xdc, 0xf5, 0x01, 0xc4, 0xd1, 0xf2,
  0xeb, 0xfb, 0xe2, 0xb0, 0x09, 0xff, 0xf4, 0xc6, 0xcf, 0xf5, 0xf0, 0xcd,
  0xc9, 0x22, 0xdd, 0xdd, 0xb3, 0xaa, 0xe3, 0xde, 0xdd, 0xe0, 0xc4, 0xef,
  0x07, 0xbb, 0xb3, 0x27, 0xec, 0xea, 0x81, 0xb0, 0xf6, 0xa6, 0xea, 0xef,
  0xbb, 0xb3, 0x06, 0x0d, 0x0f, 0xd9, 0x22, 0x27, 0x12, 0x0b, 0x08, 0xf1,
  0xf9, 0xed, 0x18, 0x09, 0xe5, 0x10, 0xfb, 0xbe, 0xf3, 0xf0, 0xd5, 0x05,
  0x0f, 0xf7, 0xb1, 0xee, 0x03, 0xcb, 0xdf, 0xe9, 0x84, 0x8a, 0xe9, 0xe0,
  0xcd, 0x05, 0x03, 0xe7, 0xe1, 0x05, 0xc8, 0xe2, 0xd5, 0x1e, 0x13, 0xd9,
  0xf9, 0x12, 0x11, 0xfc, 0xff, 0xf3, 0xb7, 0xc9, 0x09, 0x04, 0xfa, 0xf6,
  0xe1, 0xb7, 0xef, 0xfe, 0x01, 0x01, 0xfd, 0x0b, 0x97, 0xd7, 0xdf, 0xda,
  0xcf, 0xd9, 0xb7, 0xc4, 0xf5, 0xff, 0xb4, 0xc8, 0xfd, 0xff, 0xe1, 0x3d,
  0xe4, 0xd2, 0xd4, 0xf1, 0x28, 0xef, 0x91, 0xe6, 0x0f, 0xd6, 0x0f, 0x18,
  0xa2, 0x9f, 0x00, 0xe2, 0xe5, 0xe0, 0xd5, 0xb4, 0xd9, 0xdd, 0xd0, 0xc6,
  0xfe, 0x38, 0xc4, 0xe7, 0xec, 0xc8, 0xf7, 0xe3, 0xca, 0x81, 0x2c, 0xff,
  0xce, 0x25, 0xf2, 0xe5, 0xf2, 0x25, 0xc1, 0xdb, 0xfc, 0x0f, 0xe0, 0xf1,
  0x11, 0xe0, 0x13, 0x04, 0x3c, 0x3a, 0xb7, 0x47, 0xd4, 0xd5, 0xd0, 0xe1,
  0xf4, 0xf5, 0x0c, 0xea, 0x1f, 0xf3, 0x28, 0x2b, 0xd6, 0xfc, 0xb4, 0xf0,
  0xd4, 0xa8, 0xa7, 0xf7, 0x81, 0xd1, 0x05, 0xd5, 0x05, 0xf3, 0x8e, 0xdf,
  0xc2, 0xd9, 0xf9, 0x01, 0xf1, 0xf1, 0x03, 0x00, 0x18, 0x14, 0x21, 0x11,
  0xd6, 0x4d, 0x0d, 0xfd, 0xfb, 0xee, 0x02, 0xe3, 0xd3, 0xd1, 0xd2, 0xf1,
  0x29, 0x1a, 0xe6, 0x38, 0x0a, 0xee, 0xf8, 0x93, 0xb8, 0xbd, 0xa0, 0xe2,
  0x9e, 0xd4, 0xc4, 0xe9, 0xba, 0xe0, 0xc8, 0xdc, 0x15, 0xff, 0xfe, 0xed,
  0x22, 0x18, 0x0a, 0x35, 0x08, 0x1d, 0xfe, 0x5a, 0x00, 0x03, 0xe0, 0xe8,
  0x0e, 0xea, 0xe0, 0xfa, 0xf8, 0x0e, 0x21, 0x3d, 0xf9, 0x2b, 0xf9, 0xf3,
  0xbc, 0xd8, 0xc2, 0xce, 0xa9, 0xca, 0xb1, 0xbb, 0x02, 0x10, 0xc7, 0xb7,
  0xb6, 0xc4, 0x25, 0xf8, 0xa6, 0x00, 0x0f, 0x0d, 0xe0, 0x09, 0xfe, 0x06,
  0x12, 0xf6, 0xcc, 0x01, 0x20, 0xf1, 0xa4, 0xd4, 0x11, 0x09, 0xe7, 0x12,
  0xfd, 0xd9, 0x26, 0x0b, 0xc7, 0x05, 0x09, 0xde, 0x81, 0xd2, 0x13, 0xf8,
  0xa5, 0x0c, 0xdc, 0xb8, 0x2c, 0x0b, 0x9e, 0x00, 0x22, 0x03, 0xd9, 0xe1,
  0x1c, 0x17, 0x0e, 0x12, 0xfe, 0xf4, 0x05, 0x00, 0xdf, 0xf2, 0x23, 0xfc,
  0xe5, 0xe5, 0x18, 0x07, 0x15, 0x27, 0xf6, 0xce, 0x08, 0x14, 0xe1, 0xdd,
  0x27, 0xf1, 0xc8, 0xcd, 0x0b, 0x05, 0xe5, 0x23, 0xef, 0xd4, 0xee, 0x18,
  0xc6, 0xd1, 0x08, 0x13, 0xec, 0x0c, 0x0c, 0x0a, 0x08, 0x2d, 0x05, 0x1c,
  0x0f, 0x0a, 0xf9, 0x01, 0x25, 0x14, 0xf3, 0xfb, 0x0c, 0x11, 0x34, 0x31,
  0xfe, 0x05, 0x05, 0x1d, 0xf5, 0x07, 0xfc, 0x0c, 0xea, 0xcb, 0x17, 0x08,
  0x11, 0x30, 0xfc, 0x08, 0xf3, 0x34, 0xf5, 0xf3, 0xd4, 0x06, 0x16, 0x23,
  0xee, 0xf5, 0x18, 0x0f, 0xc9, 0xd3, 0xf4, 0x10, 0x17, 0xff, 0xfd, 0x1b,
  0x14, 0x21, 0xe2, 0xfc, 0x3e, 0x13, 0xdc, 0x2e, 0xe7, 0xe3, 0x13, 0xfe,
  0xc8, 0x00, 0x0f, 0x08, 0xd7, 0xed, 0x33, 0xfa, 0x0e, 0x2e, 0xe4, 0xd3,
  0x15, 0x0c, 0xd8, 0xea, 0x0c, 0x3a, 0xde, 0xcd, 0x05, 0xc6, 0xbf, 0x1a,
  0xf6, 0xef, 0x0f, 0x0f, 0x24, 0xfb, 0x0f, 0x09, 0xda, 0xed, 0x2a, 0xbb,
  0xe3, 0xff, 0x2a, 0xe4, 0x12, 0xe9, 0xfb, 0x09, 0x09, 0xdb, 0xd6, 0xed,
  0x12, 0xbe, 0x28, 0x21, 0x24, 0xcf, 0xfd, 0x05, 0xd4, 0xa6, 0xba, 0x48,
  0xcd, 0xbb, 0xca, 0x90, 0x81, 0xf2, 0xf6, 0xe3, 0xe3, 0xc5, 0xfa, 0x9a,
  0xed, 0x0a, 0xd8, 0xb1, 0xac, 0x91, 0x95, 0xd6, 0xfc, 0xe4, 0xd5, 0xc2,
  0xd3, 0xa0, 0xf1, 0xda, 0xbe, 0xae, 0xc8, 0xab, 0xb9, 0xd4, 0xf1, 0xca,
  0xcc, 0xae, 0x1e, 0xfb, 0xec, 0x16, 0x13, 0x26, 0x27, 0x3d, 0xe6, 0x14,
  0x00, 0x02, 0xe8, 0xd3, 0x44, 0x01, 0xee, 0x3e, 0x0a, 0x0c, 0x10, 0x29,
  0x06, 0x13, 0xf3, 0x19, 0xec, 0xe3, 0x17, 0xc9, 0x9d, 0x23, 0xed, 0xef,
  0xd3, 0x11, 0xfa, 0x07, 0xf0, 0x00, 0xb4, 0xef, 0x22, 0xf9, 0xda, 0x2a,
  0x07, 0x05, 0x43, 0x30, 0xf0, 0xfb, 0xc1, 0x0a, 0xe9, 0xc4, 0x21, 0x03,
  0xf5, 0x46, 0x02, 0x0c, 0x46, 0x18, 0x11, 0x26, 0xd2, 0x50, 0xe5, 0xb7,
  0xa3, 0xa5, 0x97, 0xf9, 0xeb, 0xb5, 0xb4, 0x15, 0xf6, 0xaf, 0xed, 0x1f,
  0xc2, 0xe5, 0x1a, 0x10, 0xd5, 0xe5, 0xea, 0xf6, 0x66, 0xfd, 0x08, 0x1b,
  0xb8, 0x35, 0xe1, 0xc0, 0x04, 0x20, 0xe2, 0xf8, 0x23, 0x08, 0x2a, 0x2c,
  0x06, 0x12, 0xed, 0x38, 0xef, 0xc8, 0xdc, 0xd6, 0xcf, 0x8d, 0xfd, 0xb5,
  0x81, 0x2e, 0xf5, 0xc2, 0xa9, 0xfd, 0x83, 0xc9, 0xd9, 0x04, 0x0e, 0x13,
  0xf3, 0x03, 0x09, 0xfd, 0xf4, 0xed, 0xf7, 0x12, 0x10, 0x09, 0xe5, 0x12,
  0x18, 0x11, 0xdc, 0x10, 0x22, 0x10, 0xf7, 0x01, 0x14, 0xe3, 0x0d, 0xf3,
  0xc1, 0x0c, 0x11, 0x19, 0xd7, 0x05, 0x1d, 0x0d, 0xed, 0xfe, 0xe4, 0xce,
  0x00, 0x08, 0xec, 0x0a, 0x07, 0xfe, 0xda, 0x04, 0x12, 0xec, 0xfd, 0x02,
  0x00, 0xec, 0x07, 0x16, 0xfa, 0x09, 0x02, 0xfa, 0xc7, 0x00, 0x1b, 0xe1,
  0xfc, 0x1a, 0x0a, 0xb9, 0x0c, 0x0c, 0xee, 0x01, 0xff, 0xe6, 0xcd, 0xd9,
  0x1d, 0xdc, 0xfe, 0x29, 0xf2, 0xb6, 0x07, 0x0c, 0xd5, 0x07, 0x07, 0xdd,
  0xd0, 0x04, 0x03, 0xee, 0x02, 0x06, 0xfa, 0xc7, 0x08, 0x0a, 0xd9, 0xf5,
  0x08, 0xe8, 0xbc, 0xee, 0x0d, 0xce, 0xf5, 0x19, 0xfe, 0x81, 0x15, 0x16,
  0xf0, 0x08, 0x04, 0x09, 0xb8, 0xf2, 0x14, 0xb9, 0x02, 0x17, 0xf0, 0x85,
  0x0c, 0x15, 0x32, 0x10, 0x4d, 0x02, 0xed, 0xfb, 0x59, 0x4c, 0xd6, 0xec,
  0xfa, 0x17, 0x5f, 0xf7, 0x19, 0x49, 0x37, 0x07, 0x1f, 0x0f, 0x7f, 0x01,
  0xf2, 0x11, 0xd3, 0x13, 0x21, 0xed, 0x37, 0x02, 0x47, 0x25, 0xd6, 0x24,
  0x67, 0x0f, 0xea, 0x15, 0xea, 0xff, 0x54, 0x26, 0x60, 0x50, 0x12, 0xe6,
  0x5b, 0x30, 0xd4, 0x59, 0x06, 0x09, 0x37, 0xf9, 0x05, 0x0b, 0x73, 0x52,
  0x39, 0x88, 0x47, 0x16, 0x25, 0x39, 0xfd, 0x05, 0xef, 0x4e, 0x51, 0xfa,
  0x4c, 0x4f, 0xfa, 0x9b, 0xf0, 0x03, 0x55, 0xf5, 0x2e, 0x3f, 0xe4, 0x28,
  0x27, 0x0d, 0x28, 0x1b, 0xe9, 0x06, 0x55, 0x3e, 0xc5, 0x6e, 0x02, 0x30,
  0x37, 0x08, 0xce, 0xf2, 0x6d, 0x42, 0x03, 0x07, 0x18, 0x48, 0x1f, 0x1a,
  0x3a, 0x34, 0xe5, 0x2c, 0x22, 0x1b, 0x67, 0x4a, 0xf8, 0x28, 0xf9, 0x16,
  0x5b, 0x25, 0x1c, 0x5a, 0xc9, 0x49, 0x23, 0x20, 0xe5, 0xce, 0xb9, 0x35,
  0xd9, 0x82, 0xc7, 0xad, 0xa1, 0x2c, 0xcd, 0x02, 0xe5, 0x0e, 0x06, 0xe2,
  0xe0, 0x5b, 0xdd, 0x98, 0x01, 0x9d, 0xcd, 0x51, 0x56, 0xe3, 0xfe, 0x3d,
  0x16, 0x22, 0xf4, 0x17, 0x02, 0xd6, 0x00, 0xbb, 0x19, 0x52, 0x2d, 0xef,
  0x08, 0x20, 0xf9, 0x13, 0x27, 0x12, 0xf7, 0xef, 0x46, 0xd9, 0xdd, 0x08,
  0x0f, 0xfc, 0x17, 0x18, 0x2b, 0x20, 0x12, 0x35, 0x22, 0x15, 0x12, 0xc6,
  0x11, 0x45, 0x24, 0xe8, 0x13, 0x24, 0x2c, 0x14, 0x02, 0x2d, 0x00, 0x31,
  0xe5, 0xde, 0xfe, 0x1b, 0x67, 0xeb, 0xf9, 0x20, 0x29, 0xb5, 0xd1, 0x2b,
  0xbe, 0xe8, 0x18, 0x0b, 0xfa, 0x1e, 0x0a, 0xd3, 0xd7, 0x02, 0x07, 0xb6,
  0xea, 0x13, 0xb4, 0xe8, 0xb7, 0xa2, 0x10, 0x07, 0x00, 0xe2, 0xa9, 0x81,
  0xbf, 0xb1, 0xc1, 0x33, 0xca, 0x08, 0xae, 0xdf, 0xf1, 0xf3, 0x3e, 0xf1,
  0xca, 0xa9, 0x1f, 0xe6, 0xbd, 0xe4, 0x39, 0x0b, 0xbe, 0x02, 0xc1, 0x10,
  0x2b, 0xe5, 0x96, 0xf4, 0xcc, 0xe8, 0x82, 0x56, 0x1f, 0xee, 0x81, 0xec,
  0xea, 0x36, 0x20, 0xd6, 0x9d, 0xc0, 0x13, 0xfd, 0xa8, 0x1f, 0xee, 0xea,
  0xf4, 0xe2, 0x2e, 0x49, 0x26, 0xe0, 0xdb, 0x01, 0x06, 0xf5, 0x0b, 0x1d,
  0xed, 0xd0, 0xda, 0xe3, 0xf4, 0x15, 0x3c, 0xd5, 0x0a, 0x1c, 0x29, 0x1a,
  0x17, 0x30, 0x08, 0xd9, 0xe0, 0xca, 0xf9, 0x2d, 0x43, 0xb5, 0x29, 0x0b,
  0x25, 0x10, 0x26, 0x20, 0x0b, 0xee, 0x03, 0xdf, 0x1f, 0x5a, 0x45, 0xe5,
  0x1d, 0x15, 0xe3, 0x33, 0x19, 0x2c, 0xda, 0x17, 0xfd, 0xe8, 0xf9, 0x05,
  0x14, 0xc2, 0xf3, 0x8d, 0x0c, 0x0c, 0x19, 0x24, 0xde, 0x26, 0xca, 0xd1,
  0x24, 0x2d, 0x1b, 0x97, 0xfa, 0xba, 0xde, 0xe7, 0x08, 0x2e, 0xef, 0xf2,
  0xc2, 0xc3, 0x0e, 0x1b, 0x40, 0xde, 0xf1, 0xe5, 0x3e, 0x20, 0xa3, 0xca,
  0x1d, 0x00, 0xfc, 0x12, 0x07, 0x15, 0xef, 0xfa, 0xae, 0xef, 0x17, 0xc3,
  0x97, 0xdf, 0x23, 0xe7, 0xa6, 0xda, 0xe9, 0xe1, 0x08, 0xe9, 0x81, 0x02,
  0x16, 0xe5, 0x86, 0xbd, 0x1f, 0xd7, 0xa9, 0xf0, 0xaf, 0x16, 0xf7, 0xf5,
  0x9e, 0xde, 0x38, 0x02, 0xc4, 0x0c, 0x25, 0x0d, 0xec, 0x10, 0x02, 0xeb,
  0xf0, 0xf3, 0xde, 0x00, 0x49, 0xee, 0xe3, 0x16, 0x17, 0xef, 0xf0, 0xed,
  0xc9, 0x06, 0xfd, 0xf4, 0xe5, 0x14, 0x1e, 0xf3, 0xe8, 0x33, 0x18, 0xe5,
  0xdc, 0xdb, 0xdb, 0x27, 0xf3, 0xef, 0x0b, 0x0d, 0x1e, 0x0f, 0x0e, 0x28,
  0x1f, 0x05, 0xfe, 0x1d, 0xf3, 0xf4, 0x23, 0xf9, 0x0e, 0x18, 0x1a, 0x18,
  0x17, 0x4f, 0x07, 0x05, 0xfb, 0xe8, 0xe5, 0x06, 0x1f, 0xd1, 0x24, 0x0a,
  0xfa, 0xff, 0x13, 0xfa, 0x06, 0xf9, 0xd4, 0xbf, 0xf1, 0xf3, 0x19, 0xd9,
  0x0f, 0x1d, 0xd6, 0x02, 0x9b, 0xc8, 0xd7, 0xe1, 0xdf, 0xa7, 0x13, 0xf8,
  0x16, 0xa8, 0xbd, 0x2c, 0xfe, 0xe8, 0xa0, 0xc9, 0xee, 0xcf, 0xbb, 0xd7,
  0xea, 0x07, 0x0a, 0xa9, 0xed, 0x2b, 0xa3, 0xbe, 0x86, 0xdf, 0xc9, 0x81,
  0xc5, 0xfc, 0xea, 0xe2, 0xd9, 0xbc, 0xcb, 0x2e, 0x0d, 0xff, 0xc1, 0xe9,
  0x0b, 0x10, 0xaa, 0xde, 0x08, 0xf4, 0x11, 0xb4, 0xcf, 0x10, 0xfa, 0x19,
  0xcf, 0x2f, 0x1a, 0x0f, 0xc0, 0xfe, 0x12, 0xf2, 0x2a, 0xaa, 0xe9, 0x1e,
  0xf8, 0x22, 0xda, 0x21, 0x25, 0x10, 0xde, 0x02, 0x10, 0xf5, 0x1a, 0x97,
  0x04, 0x02, 0x10, 0x1b, 0xd9, 0xf0, 0x33, 0x23, 0xe9, 0xea, 0x0b, 0xf2,
  0x01, 0xea, 0xfa, 0x08, 0x06, 0x0a, 0xe1, 0xe4, 0x25, 0x19, 0x0d, 0x12,
  0xfb, 0xf2, 0x29, 0xdd, 0xfb, 0x0d, 0x1c, 0x1c, 0xfa, 0x20, 0x13, 0x14,
  0x20, 0x1b, 0xfc, 0x18, 0x25, 0xe4, 0x10, 0xfc, 0xfa, 0xe8, 0xff, 0xff,
  0x04, 0x00, 0x00, 0x00, 0x60, 0x00, 0x00, 0x00, 0x5d, 0x00, 0x00, 0x00,
  0xe6, 0xc8, 0xff, 0xff, 0x75, 0xfe, 0xff, 0xff, 0x01, 0xeb, 0xff, 0xff,
  0x5d, 0xff, 0xff, 0xff, 0x09, 0xfc, 0xff, 0xff, 0x75, 0xff, 0xff, 0xff,
  0xa3, 0xfe, 0xff, 0xff, 0x22, 0x01, 0x00, 0x00, 0x4a, 0x8f, 0xff, 0xff,
  0x32, 0xff, 0xff, 0xff, 0x2a, 0x01, 0x00, 0x00, 0x7a, 0xff, 0xff, 0xff,
  0x0b, 0x11, 0x00, 0x00, 0x69, 0x06, 0x00, 0x00, 0x49, 0xfa, 0xff, 0xff,
  0x11, 0x07, 0x00, 0x00, 0x6c, 0xfe, 0xff, 0xff, 0x37, 0x01, 0x00, 0x00,
  0xd4, 0x9e, 0xff, 0xff, 0x21, 0x00, 0x00, 0x00, 0xc7, 0xff, 0xff, 0xff,
  0xcb, 0xff, 0xff, 0xff, 0x22, 0x00, 0x00, 0x00, 0x66, 0xe9, 0xff, 0xff,
  0x04, 0x00, 0x00, 0x00, 0x40, 0x14, 0x00, 0x00, 0x5b, 0x0e, 0xf9, 0x0d,
  0x03, 0xc0, 0x1e, 0xb7, 0x33, 0x9e, 0xeb, 0x2a, 0x00, 0xf1, 0xc0, 0x94,
  0x1b, 0x8c, 0x32, 0xd1, 0xfc, 0xbe, 0xb0, 0xcc, 0x60, 0x18, 0xe2, 0xed,
  0x56, 0xda, 0x01, 0x8f, 0x63, 0xc4, 0x13, 0x36, 0xed, 0xfe, 0xd1, 0xb0,
  0x0f, 0xc7, 0x3d, 0xf7, 0x34, 0xe0, 0xf3, 0xfc, 0x26, 0x25, 0xf1, 0xf4,
  0x2a, 0xd1, 0xd2, 0xbd, 0x23, 0xe5, 0x01, 0x20, 0x0c, 0x02, 0xfe, 0xbe,
  0x0f, 0xe0, 0x32, 0xe6, 0x07, 0x11, 0xed, 0x11, 0x48, 0xfb, 0xd8, 0xe0,
  0xc0, 0xe3, 0x5e, 0xe8, 0x0f, 0xc5, 0xfa, 0x22, 0xdf, 0xf5, 0xcf, 0xda,
  0xdf, 0xef, 0x58, 0xe1, 0x1d, 0x15, 0xee, 0x0c, 0x7f, 0x19, 0xdf, 0x03,
  0xc1, 0xe7, 0x4c, 0xcd, 0x4f, 0xae, 0x15, 0x2e, 0xed, 0xfb, 0xcc, 0xf1,
  0xf1, 0x33, 0x37, 0xe6, 0x4b, 0x12, 0x05, 0x03, 0x60, 0x23, 0xf4, 0xec,
  0xe8, 0xda, 0x63, 0xba, 0x0a, 0xde, 0xfd, 0x4c, 0xe6, 0xfa, 0xed, 0xea,
  0x10, 0xf7, 0x47, 0x0c, 0x18, 0x10, 0x00, 0x16, 0x49, 0xfb, 0xb9, 0x16,
  0x47, 0xb7, 0x42, 0xbc, 0x39, 0x05, 0xd6, 0x60, 0xc6, 0xde, 0xf7, 0x03,
  0x18, 0xf7, 0x6a, 0xdb, 0x12, 0xf5, 0x1a, 0x14, 0x73, 0x0d, 0xe1, 0x09,
  0x50, 0xe2, 0x0a, 0xbc, 0x53, 0x0c, 0x05, 0x4b, 0xf9, 0x01, 0xe1, 0xf8,
  0x21, 0x03, 0x4e, 0x02, 0x10, 0x05, 0x45, 0x32, 0x66, 0x11, 0xd6, 0x07,
  0x4c, 0xbc, 0x33, 0x92, 0x0e, 0x00, 0x05, 0x5f, 0xe2, 0xdd, 0xec, 0xf6,
  0x17, 0xe1, 0x5f, 0xf2, 0x0a, 0x0a, 0x10, 0xe7, 0xb6, 0xec, 0x13, 0x36,
  0x0c, 0xfe, 0x3c, 0x01, 0x21, 0x19, 0xfd, 0xa5, 0x09, 0x06, 0x01, 0x36,
  0xcf, 0x02, 0x0e, 0x10, 0xd6, 0xd6, 0xc2, 0xf7, 0x90, 0x03, 0x01, 0x34,
  0x25, 0xf3, 0x43, 0x10, 0xee, 0x49, 0xe4, 0xa4, 0xdc, 0xf5, 0x13, 0x1f,
  0xd3, 0xf8, 0x33, 0x15, 0xe4, 0xb9, 0xbc, 0x0f, 0xeb, 0xf7, 0x18, 0x1d,
  0x01, 0xfe, 0x2b, 0x0f, 0x03, 0x2d, 0x09, 0xfc, 0xe5, 0x09, 0x03, 0x23,
  0xec, 0xfa, 0xfa, 0x21, 0xff, 0xd5, 0xbb, 0x05, 0xc7, 0xf7, 0xff, 0x3b,
  0x0e, 0xdd, 0x0f, 0xf8, 0x5a, 0x57, 0xf2, 0xd7, 0xbd, 0x0a, 0xfb, 0x2e,
  0x22, 0xdf, 0x27, 0x19, 0x10, 0xfd, 0xc0, 0x08, 0xac, 0x0b, 0x13, 0x47,
  0xf7, 0xdb, 0x1e, 0x0e, 0xf6, 0x7f, 0xff, 0xc7, 0xb0, 0xf6, 0xf5, 0x0d,
  0x16, 0xd4, 0x2b, 0x49, 0x22, 0xf1, 0xe1, 0x03, 0xbc, 0xf2, 0x12, 0x0c,
  0x11, 0xf5, 0x03, 0xf9, 0x18, 0x5c, 0x12, 0xee, 0xb5, 0xf7, 0xf9, 0x27,
  0x2b, 0xc0, 0x23, 0x16, 0x18, 0xd8, 0xb9, 0x15, 0xe7, 0xc3, 0xf9, 0x08,
  0x1f, 0xf0, 0x2a, 0xeb, 0x2a, 0x2d, 0x00, 0xed, 0xdc, 0x26, 0xe3, 0x1e,
  0x13, 0xe5, 0x27, 0xee, 0x00, 0xf2, 0xbc, 0xf1, 0xd8, 0xdf, 0x02, 0x35,
  0x0c, 0xda, 0x2f, 0xfb, 0x0f, 0x45, 0xce, 0xdf, 0xc7, 0x02, 0xf1, 0x07,
  0x1a, 0xf2, 0x2e, 0x18, 0xe5, 0xe9, 0xc5, 0xd1, 0xf4, 0xe4, 0x1b, 0x1b,
  0x1f, 0xeb, 0x11, 0x03, 0x0e, 0x51, 0xfa, 0x02, 0xd7, 0x2e, 0xf9, 0x1d,
  0x03, 0x04, 0x1f, 0x1a, 0x09, 0xf3, 0xc0, 0x05, 0xb1, 0x13, 0xff, 0x30,
  0x2e, 0x2b, 0xd6, 0x2a, 0xee, 0x6b, 0x0c, 0xa9, 0xf0, 0xf1, 0xcb, 0x0c,
  0xe5, 0x0e, 0xec, 0x2b, 0x09, 0xdf, 0xca, 0xed, 0xa4, 0x24, 0xdd, 0x2e,
  0x1e, 0xfc, 0xd8, 0x12, 0xb8, 0x66, 0xc6, 0xa7, 0xcb, 0xeb, 0xde, 0xf4,
  0xf1, 0xeb, 0xea, 0x01, 0x13, 0xfd, 0xb7, 0xcc, 0xca, 0x03, 0x0f, 0x07,
  0x25, 0x0b, 0xb4, 0x27, 0xd8, 0x38, 0x13, 0xb9, 0xca, 0xf9, 0xff, 0x04,
  0xe2, 0xee, 0xd2, 0x2e, 0x1a, 0xdc, 0xe3, 0xe8, 0xbe, 0x33, 0xdb, 0x34,
  0x03, 0x23, 0xf0, 0x2c, 0x31, 0x62, 0xf5, 0xce, 0x04, 0xef, 0xbf, 0x1f,
  0x08, 0xe5, 0xfc, 0x69, 0x54, 0x15, 0xd4, 0x07, 0xa1, 0x47, 0xd9, 0x46,
  0x0d, 0x10, 0xdb, 0x37, 0xce, 0x6b, 0xd2, 0xd7, 0xdf, 0xe3, 0xdf, 0xfc,
  0x0c, 0xbd, 0xef, 0x5e, 0x5b, 0x31, 0x0d, 0xfe, 0xb9, 0x3e, 0xdb, 0x2b,
  0x0b, 0x13, 0xc2, 0x48, 0x07, 0x58, 0xe3, 0xcd, 0xed, 0xea, 0x05, 0x2b,
  0xf0, 0xcc, 0xe2, 0x7f, 0x64, 0x15, 0xd6, 0xf8, 0xd7, 0x1a, 0x23, 0x23,
  0xfb, 0xef, 0x11, 0xc9, 0x0f, 0x37, 0x1f, 0xec, 0xab, 0x1d, 0xc6, 0x04,
  0x0f, 0xcc, 0xea, 0x4b, 0x07, 0x0e, 0xe3, 0xe4, 0xf1, 0x29, 0xf5, 0x28,
  0x1f, 0xd2, 0xf1, 0x01, 0xeb, 0x4f, 0xd1, 0xef, 0xdb, 0x08, 0xd9, 0xe3,
  0x16, 0xb6, 0x02, 0x25, 0x0c, 0x0f, 0x01, 0xcb, 0x04, 0x41, 0x03, 0x15,
  0x16, 0x1b, 0xec, 0xbd, 0xe2, 0x40, 0x04, 0x02, 0xb3, 0x14, 0xec, 0xc9,
  0x0e, 0xe6, 0xe6, 0x3f, 0xf1, 0x25, 0x03, 0xef, 0xdd, 0x05, 0x06, 0x0c,
  0x43, 0xfd, 0xd2, 0x20, 0x23, 0x16, 0xec, 0xef, 0xeb, 0xe5, 0xe7, 0x07,
  0x24, 0xf0, 0x22, 0xf1, 0x2f, 0x2a, 0x04, 0x2a, 0xde, 0x06, 0xe7, 0xfe,
  0x52, 0xf4, 0xd0, 0x18, 0x13, 0x0c, 0xf6, 0xf5, 0xd8, 0xef, 0x04, 0xff,
  0x3a, 0xdd, 0x1b, 0xf4, 0x13, 0x26, 0x16, 0x20, 0xe8, 0x07, 0xfe, 0x13,
  0x49, 0x02, 0xf5, 0x37, 0x10, 0x17, 0xf3, 0xf0, 0xdb, 0xe1, 0x13, 0xf1,
  0x56, 0xf6, 0x24, 0xea, 0x4e, 0x41, 0x0f, 0x2d, 0xfe, 0xfd, 0xf9, 0xef,
  0x58, 0xed, 0xed, 0xd8, 0x26, 0x0f, 0xe8, 0x04, 0xe6, 0xf4, 0xd7, 0x1c,
  0x49, 0xea, 0x2a, 0xe1, 0x52, 0x30, 0xe9, 0x18, 0xe1, 0xfc, 0x07, 0xef,
  0x35, 0xe6, 0xd7, 0xca, 0x0c, 0x07, 0xf1, 0x25, 0xd2, 0xf3, 0xe0, 0x30,
  0x23, 0xe6, 0x1a, 0x00, 0x4b, 0x4b, 0x0c, 0x1f, 0xfb, 0xfa, 0x12, 0xec,
  0x3f, 0xf5, 0xe8, 0xf1, 0x09, 0x07, 0xfc, 0x1e, 0xdb, 0xeb, 0xed, 0x1c,
  0x4b, 0xea, 0x2a, 0xf3, 0x50, 0x4b, 0x0b, 0x1e, 0xcf, 0xde, 0xdb, 0xe9,
  0x5a, 0xdd, 0xd9, 0xe9, 0x04, 0x2b, 0xd8, 0xdd, 0xed, 0x0c, 0xcf, 0xe7,
  0x48, 0xd0, 0x13, 0xc4, 0x2a, 0x3a, 0x33, 0x08, 0xc7, 0xef, 0xc3, 0xea,
  0x66, 0xe0, 0xd4, 0xe4, 0x0d, 0x28, 0xcd, 0xd1, 0xbf, 0xff, 0xe7, 0x04,
  0x3b, 0xc2, 0x22, 0xd4, 0x12, 0x2a, 0x42, 0xf9, 0xf5, 0xf3, 0xe4, 0x0a,
  0x48, 0xe7, 0xe2, 0xfd, 0x13, 0x1a, 0xe0, 0xcb, 0xe5, 0x03, 0x05, 0xfc,
  0x7f, 0xd7, 0x12, 0xea, 0x36, 0x29, 0x24, 0x32, 0xfa, 0x06, 0xe9, 0x17,
  0xe6, 0x01, 0x21, 0xa0, 0x0f, 0xef, 0xe9, 0xfd, 0xf7, 0x08, 0xf8, 0x06,
  0xdd, 0x07, 0x17, 0x2e, 0xd1, 0xed, 0xd3, 0xa3, 0xf7, 0x1a, 0xed, 0x2b,
  0xaa, 0x1b, 0x2b, 0xb7, 0xe5, 0x48, 0xe2, 0xe7, 0x06, 0xf9, 0xb0, 0xe2,
  0xec, 0xe4, 0x09, 0x5a, 0xea, 0xcc, 0xf5, 0xac, 0x1a, 0x1f, 0x02, 0x07,
  0xe9, 0x38, 0x0f, 0x99, 0xe7, 0x2d, 0xf6, 0x06, 0x11, 0x20, 0xd2, 0x17,
  0xdb, 0x05, 0x20, 0x37, 0xf2, 0xf6, 0xc2, 0x99, 0xd8, 0x25, 0xe1, 0x38,
  0xb4, 0x4f, 0x7f, 0xe3, 0x1c, 0x32, 0xc7, 0xda, 0xb7, 0x09, 0xe6, 0xf0,
  0xc1, 0x18, 0xfd, 0x21, 0xbc, 0xc6, 0xc6, 0x88, 0xdc, 0x2c, 0xfa, 0x52,
  0xb7, 0x29, 0x65, 0x29, 0xff, 0x77, 0xe0, 0xd2, 0xc9, 0x0f, 0xe1, 0xd8,
  0xd2, 0x0e, 0x0b, 0x43, 0xb7, 0xb8, 0xb1, 0xaf, 0xfe, 0x4b, 0xf4, 0x29,
  0xd2, 0x61, 0x29, 0x04, 0x16, 0x52, 0xe4, 0xdc, 0x0e, 0x05, 0xdd, 0x03,
  0xba, 0x1a, 0x0e, 0x55, 0xe5, 0xe9, 0xde, 0xc1, 0xf7, 0x22, 0xef, 0x10,
  0x9a, 0x2a, 0x50, 0xde, 0x3f, 0x24, 0xdc, 0x04, 0x19, 0x1c, 0xef, 0x28,
  0xb4, 0x16, 0x17, 0x41, 0xd0, 0xe9, 0xdf, 0xb9, 0xd9, 0x24, 0xd9, 0x32,
  0x82, 0x19, 0x37, 0xfd, 0xfa, 0x55, 0xc7, 0x14, 0x1f, 0xfa, 0xc3, 0x07,
  0xda, 0xeb, 0x07, 0x7a, 0xcb, 0xdc, 0xea, 0xa9, 0xe8, 0x31, 0xee, 0xfc,
  0xc5, 0x2c, 0x28, 0xfc, 0x04, 0x2f, 0xb5, 0x07, 0x26, 0xfc, 0xe2, 0x35,
  0xd2, 0x0d, 0x0f, 0x71, 0xf9, 0xe8, 0xe3, 0xc3, 0x18, 0xf4, 0x0d, 0xe3,
  0x1b, 0xe0, 0xe8, 0xd6, 0xdd, 0xeb, 0x17, 0x04, 0xca, 0xf7, 0xdb, 0x1d,
  0x1e, 0xf2, 0x14, 0xf1, 0xfd, 0xef, 0xe2, 0x12, 0x01, 0x03, 0xfb, 0xef,
  0x1f, 0x02, 0xf6, 0xe6, 0x00, 0xe8, 0x11, 0x12, 0xe5, 0x01, 0xf5, 0x05,
  0x24, 0xf4, 0x10, 0xf0, 0x0c, 0xf3, 0xe8, 0x1d, 0x13, 0xf8, 0xf8, 0xff,
  0x15, 0xe8, 0x0e, 0xd4, 0xf3, 0xe0, 0x0d, 0x06, 0xda, 0x3d, 0x32, 0x03,
  0x62, 0xfa, 0x1b, 0xf7, 0xff, 0xf3, 0xf0, 0x02, 0x03, 0xfd, 0xf7, 0xdf,
  0x22, 0xd8, 0xf6, 0xe0, 0xe4, 0xfc, 0x07, 0x0a, 0xcb, 0x06, 0xe0, 0x2d,
  0x32, 0xef, 0x13, 0xe7, 0x09, 0x04, 0x00, 0x28, 0x04, 0x04, 0xf4, 0xec,
  0x29, 0xe9, 0xf2, 0xd7, 0x02, 0xf6, 0xef, 0x0d, 0x02, 0xff, 0xfa, 0x32,
  0x20, 0xff, 0x2d, 0xef, 0x15, 0x0e, 0x0c, 0x30, 0x03, 0xfc, 0xe3, 0xf9,
  0x14, 0xed, 0xfc, 0xd8, 0xe8, 0xe8, 0x01, 0xf8, 0xee, 0x3f, 0x29, 0x27,
  0x74, 0x1a, 0x1e, 0xee, 0x0d, 0xec, 0x06, 0x2b, 0xe0, 0xe7, 0x03, 0xd7,
  0x0b, 0xdf, 0xe6, 0xf0, 0xd1, 0x0c, 0x05, 0xe1, 0xb9, 0xcd, 0xcb, 0x15,
  0x08, 0x06, 0xfd, 0xf3, 0x07, 0xf4, 0xea, 0x26, 0xe8, 0xf5, 0xf3, 0xe4,
  0x27, 0xe7, 0xdf, 0xf1, 0xe6, 0x0c, 0xea, 0x10, 0xd7, 0xfe, 0xe7, 0x1f,
  0x33, 0xf1, 0x06, 0xe5, 0xfb, 0x06, 0xf0, 0x31, 0xe3, 0xf1, 0xf9, 0xe8,
  0xf1, 0xe6, 0xf3, 0xe6, 0xed, 0x01, 0x01, 0xdc, 0xd7, 0x0b, 0x13, 0x2b,
  0x7f, 0x25, 0xe6, 0xf8, 0x01, 0xf9, 0xfa, 0x12, 0x11, 0x1a, 0x0a, 0x06,
  0xfa, 0x2c, 0xec, 0x11, 0xf8, 0x03, 0x0b, 0x00, 0x33, 0xef, 0xdb, 0xf5,
  0xe2, 0x18, 0xfb, 0x0c, 0x0c, 0x16, 0x20, 0x09, 0x30, 0x13, 0x06, 0xf5,
  0xfb, 0x2c, 0xe2, 0x19, 0xe5, 0xfc, 0xfc, 0x01, 0x50, 0x02, 0xe4, 0xe3,
  0xe9, 0x0b, 0xeb, 0x16, 0x0e, 0x2a, 0x2d, 0x17, 0x0c, 0x1a, 0xf9, 0xf8,
  0x02, 0x20, 0xf7, 0x12, 0xe8, 0xec, 0xf5, 0x02, 0x3d, 0x05, 0xe9, 0xdf,
  0xf2, 0x11, 0xfb, 0x0c, 0x0e, 0x28, 0x29, 0x08, 0x21, 0x13, 0x08, 0xfc,
  0x0c, 0x36, 0xe9, 0x23, 0xe9, 0xfd, 0xff, 0xfb, 0x5c, 0xf4, 0xd8, 0xf1,
  0xf2, 0x01, 0xf1, 0x13, 0xfc, 0x10, 0x0b, 0x05, 0x19, 0x07, 0xf3, 0xec,
  0x07, 0x44, 0xda, 0x25, 0xe3, 0xde, 0xe1, 0x10, 0x7f, 0x03, 0xe2, 0xda,
  0xeb, 0xfe, 0xec, 0xf9, 0xe9, 0xf5, 0x18, 0x12, 0x15, 0xff, 0xfd, 0xfa,
  0x02, 0x21, 0xe7, 0x20, 0xec, 0xda, 0xfa, 0x17, 0x65, 0xfd, 0xdf, 0xf5,
  0xec, 0x12, 0xf8, 0x0d, 0x0b, 0x01, 0x00, 0x0a, 0x08, 0x2a, 0x00, 0xed,
  0xe7, 0x28, 0xde, 0x20, 0xe7, 0xf3, 0xf6, 0x11, 0x12, 0xfd, 0xe0, 0xe2,
  0xf1, 0x0c, 0xe5, 0x09, 0x00, 0x17, 0x2d, 0x2c, 0x3f, 0x25, 0xec, 0xe8,
  0xd4, 0x34, 0xcf, 0x1e, 0xda, 0xe8, 0xe8, 0x21, 0x2f, 0x01, 0xea, 0xe3,
  0xdc, 0xf6, 0xce, 0x05, 0x07, 0x2c, 0x33, 0x26, 0x22, 0x10, 0xfe, 0xee,
  0xdf, 0x26, 0xcf, 0x19, 0xc4, 0xf0, 0xf9, 0x0e, 0x28, 0xf6, 0xec, 0xff,
  0xc7, 0x11, 0xc0, 0x05, 0x11, 0x11, 0x34, 0x2a, 0xd9, 0x03, 0xe2, 0x04,
  0x26, 0x16, 0xd2, 0x2d, 0x04, 0x03, 0xd1, 0xf3, 0xf9, 0xe9, 0xf2, 0x0b,
  0x06, 0x0a, 0xdd, 0xe3, 0x3e, 0x48, 0x20, 0x1b, 0xf1, 0xee, 0xe3, 0xda,
  0x4e, 0x38, 0xd3, 0x2b, 0x0c, 0xfd, 0xca, 0x11, 0xf3, 0x04, 0x0e, 0x19,
  0x05, 0x0c, 0xed, 0xe9, 0x5f, 0x52, 0x5b, 0x1c, 0xe0, 0x03, 0xec, 0xfd,
  0x2b, 0x17, 0xcf, 0x3b, 0xfc, 0xe6, 0xe2, 0x0e, 0xf8, 0xc8, 0x12, 0x03,
  0x13, 0x0f, 0xeb, 0xdd, 0x60, 0x52, 0x1b, 0x14, 0xf1, 0x0b, 0xeb, 0x01,
  0x5c, 0x2e, 0xd8, 0x1d, 0x03, 0xfe, 0xcb, 0x13, 0x03, 0xec, 0xdb, 0x1c,
  0x26, 0xca, 0x1a, 0xed, 0x54, 0x52, 0x1f, 0x48, 0x1c, 0x05, 0xe6, 0xe1,
  0x5f, 0x1a, 0xd9, 0x14, 0xff, 0xe7, 0xe4, 0x47, 0xf5, 0xf1, 0xe4, 0x1f,
  0x36, 0xe1, 0x1d, 0xf5, 0x7e, 0x7f, 0x59, 0x27, 0x16, 0x07, 0x06, 0xdf,
  0x4d, 0x1f, 0xce, 0x15, 0xfb, 0xe9, 0xe8, 0x21, 0x11, 0xd5, 0xf9, 0xfd,
  0x2a, 0xf8, 0x18, 0xe5, 0x70, 0x51, 0x38, 0x33, 0x00, 0xf6, 0xd8, 0x03,
  0x23, 0x1a, 0xea, 0x45, 0x1d, 0xfd, 0xae, 0xf1, 0xe8, 0xef, 0xe2, 0x03,
  0x1c, 0xee, 0x11, 0xce, 0x30, 0x57, 0x29, 0x19, 0x0e, 0xe7, 0xc0, 0xeb,
  0x6d, 0x25, 0xe9, 0x1a, 0x27, 0x0f, 0xba, 0xea, 0xe5, 0xfb, 0x19, 0x19,
  0x28, 0xd7, 0x21, 0xe5, 0x44, 0x45, 0x5a, 0x25, 0xf9, 0xf7, 0x09, 0x10,
  0x39, 0x0d, 0xed, 0x2d, 0x22, 0x00, 0xf2, 0x1c, 0xdd, 0xcc, 0xee, 0x13,
  0xf8, 0xf6, 0x11, 0xeb, 0x61, 0x5f, 0x33, 0x3f, 0xd3, 0xff, 0xe3, 0x26,
  0x01, 0x0a, 0x00, 0x0d, 0x3e, 0x4f, 0xc3, 0xf8, 0xe2, 0x02, 0xfa, 0x28,
  0xca, 0xda, 0xeb, 0x07, 0xfc, 0xd7, 0xdc, 0xeb, 0x81, 0x00, 0xf2, 0x37,
  0x30, 0xe9, 0x5b, 0xdf, 0xe4, 0x76, 0xf0, 0xa0, 0xbf, 0xe8, 0xf9, 0x08,
  0xfb, 0xe1, 0x2c, 0x22, 0x0b, 0xcb, 0x01, 0xef, 0xc3, 0x13, 0xf2, 0x1e,
  0x12, 0xea, 0x02, 0xd1, 0x03, 0x4a, 0xdf, 0x0e, 0xd7, 0x26, 0xf6, 0x14,
  0xf3, 0xc6, 0x15, 0x0b, 0xfb, 0x03, 0xbb, 0xe0, 0xa3, 0x1e, 0xdc, 0x23,
  0xc9, 0x07, 0x1c, 0xc7, 0x38, 0x7f, 0xca, 0xe0, 0xb9, 0x0e, 0xf5, 0x32,
  0xf2, 0xed, 0x2e, 0x30, 0xe8, 0xeb, 0xc3, 0x03, 0xa2, 0x2e, 0xf3, 0x22,
  0x0c, 0xe0, 0x4f, 0xdf, 0xe9, 0x68, 0x03, 0xa3, 0x95, 0x02, 0xf3, 0x17,
  0x13, 0xed, 0x18, 0x5f, 0x12, 0x00, 0xce, 0xed, 0xd7, 0x0f, 0x08, 0x0c,
  0x07, 0x16, 0x17, 0xc4, 0x1a, 0x76, 0xf5, 0xf6, 0xbb, 0x53, 0x0c, 0x33,
  0x1a, 0xf8, 0x2f, 0x0e, 0x24, 0xe9, 0xb1, 0xf8, 0xa5, 0xff, 0xe2, 0x10,
  0xed, 0x03, 0x23, 0xd5, 0x20, 0x4a, 0xbd, 0xe3, 0xda, 0x21, 0xd1, 0x1f,
  0x07, 0xd3, 0x1b, 0x23, 0xfe, 0xcb, 0xc8, 0xdb, 0x9f, 0xfe, 0xed, 0x35,
  0xdb, 0xf3, 0x2a, 0xaf, 0xf1, 0x74, 0xc6, 0xba, 0x9f, 0x06, 0xeb, 0xff,
  0x2a, 0xbc, 0x29, 0x2c, 0x09, 0xdd, 0xed, 0xde, 0xc0, 0x06, 0xfe, 0x07,
  0xe1, 0xfa, 0x13, 0xee, 0x12, 0x47, 0xd9, 0xee, 0x0b, 0x77, 0x07, 0x43,
  0x4a, 0xf4, 0xff, 0xfe, 0x1e, 0x08, 0xdd, 0xfe, 0x2f, 0xf8, 0x03, 0xf2,
  0x41, 0xe8, 0x0e, 0x07, 0x1f, 0xde, 0xfd, 0xfc, 0xc3, 0xaf, 0xd0, 0xf1,
  0xf9, 0xba, 0x36, 0xe3, 0x23, 0xff, 0xc5, 0x4c, 0x25, 0x20, 0xf4, 0xe4,
  0x45, 0xef, 0xc8, 0xf1, 0xf5, 0xe8, 0x05, 0x10, 0xe4, 0xec, 0xd7, 0xfa,
  0x05, 0xdf, 0x15, 0xed, 0x19, 0xf5, 0xdd, 0x4a, 0x48, 0x12, 0xf7, 0x04,
  0x4f, 0xdf, 0xf3, 0xe0, 0xe4, 0xd9, 0x0d, 0x3e, 0xe7, 0x06, 0x0f, 0xf4,
  0x39, 0xe0, 0x24, 0xc9, 0x15, 0x0f, 0xd5, 0x3e, 0x30, 0xf5, 0xd2, 0xec,
  0xe8, 0xd1, 0x01, 0xd1, 0x06, 0xdb, 0xf9, 0xfd, 0x9d, 0xd2, 0x8f, 0xef,
  0xf9, 0xed, 0x17, 0xcc, 0x01, 0x00, 0xe4, 0x2e, 0x10, 0x05, 0xdc, 0xf7,
  0xfa, 0xe4, 0xfc, 0xce, 0x0c, 0xeb, 0xe6, 0x34, 0xf9, 0xf5, 0xcb, 0x0c,
  0xf3, 0x04, 0x26, 0x06, 0x37, 0xff, 0x12, 0x20, 0x31, 0x07, 0xe4, 0xef,
  0x0b, 0xc6, 0x31, 0xaa, 0xf7, 0xcf, 0x25, 0x3e, 0xc7, 0x2e, 0x03, 0x10,
  0x46, 0x0f, 0x04, 0xe6, 0x14, 0x47, 0xfb, 0x29, 0x2a, 0xf2, 0xe0, 0xfd,
  0x44, 0xc3, 0xff, 0xbd, 0xf9, 0xf1, 0xb7, 0xd4, 0xec, 0xda, 0xbf, 0x03,
  0x37, 0xda, 0x3b, 0xcd, 0x10, 0x08, 0xe5, 0x38, 0xf3, 0x03, 0xb5, 0x01,
  0x48, 0xec, 0xdf, 0xc7, 0x0d, 0x0c, 0xb4, 0x18, 0xf2, 0x2e, 0xdd, 0xfe,
  0x44, 0xe6, 0x12, 0xf5, 0x15, 0xf1, 0xf6, 0x12, 0x3a, 0x09, 0xca, 0xe6,
  0x7f, 0xd4, 0x15, 0xc7, 0x07, 0xfa, 0xcd, 0x01, 0x04, 0x52, 0x1e, 0x06,
  0x67, 0xd6, 0x3c, 0xfb, 0xf9, 0xf8, 0x12, 0x20, 0xed, 0xd9, 0x1d, 0xff,
  0xe6, 0xe8, 0x30, 0x00, 0x0f, 0x09, 0x19, 0xef, 0xea, 0x11, 0x2e, 0x21,
  0xfd, 0x16, 0x0a, 0x04, 0xe5, 0xf2, 0x22, 0xd7, 0xdc, 0xcb, 0x4e, 0x13,
  0xe3, 0xe7, 0x70, 0xea, 0x14, 0x15, 0x55, 0xcb, 0xe4, 0x01, 0x48, 0x3d,
  0xef, 0x54, 0x08, 0x20, 0xdd, 0xcd, 0xf7, 0xe1, 0xdd, 0xcc, 0x0b, 0x00,
  0xfd, 0xf3, 0x45, 0x04, 0x12, 0xfb, 0xfd, 0x06, 0xf9, 0x05, 0x1c, 0x26,
  0xf2, 0x2b, 0x0c, 0xf5, 0xf5, 0xf5, 0x2c, 0xf6, 0xde, 0xdd, 0x26, 0xe5,
  0x08, 0xf7, 0xff, 0x0b, 0xea, 0xf2, 0x0b, 0xde, 0xdc, 0x0a, 0x2a, 0x31,
  0x11, 0x34, 0x14, 0xed, 0xd9, 0xc9, 0x04, 0xe7, 0xc8, 0xf4, 0x77, 0x09,
  0x01, 0xf4, 0x20, 0x0c, 0x0d, 0x03, 0x61, 0xcd, 0xb5, 0x03, 0x3f, 0x32,
  0xfb, 0x64, 0x21, 0x03, 0xce, 0xca, 0xe0, 0xf3, 0xf1, 0xd3, 0x20, 0xfb,
  0x04, 0xeb, 0x1b, 0x15, 0x0c, 0x13, 0x01, 0xf8, 0xe1, 0xfc, 0x2c, 0x46,
  0xed, 0x30, 0x1a, 0x13, 0xf1, 0xd7, 0xeb, 0xf5, 0xe7, 0xdb, 0x1b, 0xf3,
  0xe8, 0xf6, 0x2f, 0xff, 0xe9, 0x05, 0x05, 0xdb, 0xea, 0x07, 0x14, 0x1e,
  0x0e, 0x31, 0x20, 0xff, 0x09, 0x07, 0x29, 0xe4, 0xd7, 0xd2, 0x65, 0x07,
  0xd7, 0xe3, 0x7f, 0xf2, 0x1d, 0x11, 0x36, 0xe2, 0xcb, 0xfc, 0x27, 0x4a,
  0xf9, 0x4e, 0x1f, 0x27, 0xf6, 0xdb, 0x0d, 0xef, 0xca, 0xdd, 0x08, 0xf6,
  0xf2, 0xfd, 0x38, 0x08, 0x0c, 0x27, 0x04, 0xf7, 0xd1, 0x08, 0x09, 0x3c,
  0xf4, 0x31, 0x11, 0xea, 0x13, 0xf7, 0x27, 0x01, 0x0f, 0x13, 0x50, 0x15,
  0xee, 0xe5, 0xf0, 0x46, 0x16, 0xe4, 0x4e, 0xe9, 0x20, 0x03, 0x37, 0xc1,
  0xda, 0x33, 0xea, 0x12, 0xce, 0xf0, 0xfd, 0xa8, 0x00, 0x05, 0x7d, 0x02,
  0xff, 0xca, 0xf0, 0x4d, 0x24, 0xe8, 0x4c, 0xf4, 0x25, 0xed, 0x14, 0xeb,
  0xd4, 0x6b, 0xe1, 0xfe, 0xfb, 0x0c, 0xde, 0xa9, 0x0b, 0xff, 0x49, 0x0f,
  0xf9, 0x02, 0xfc, 0x22, 0x19, 0xd2, 0x3c, 0xff, 0x42, 0x04, 0x36, 0xbc,
  0xdb, 0x18, 0xda, 0x0b, 0xe7, 0x11, 0x0e, 0xe8, 0x00, 0x01, 0x60, 0x04,
  0xdb, 0xff, 0xed, 0x59, 0x16, 0xc9, 0x2a, 0xdc, 0x6d, 0xfa, 0x2d, 0xe2,
  0xf1, 0x2e, 0xe5, 0x0e, 0xec, 0xe5, 0x3b, 0xbf, 0xff, 0xf8, 0x64, 0xfc,
  0xff, 0x12, 0xe6, 0x4f, 0xfd, 0xc5, 0x26, 0x05, 0x5b, 0xf6, 0x18, 0x25,
  0xe8, 0x58, 0xe1, 0x10, 0xfd, 0xf7, 0x35, 0xd7, 0xfe, 0xf9, 0x3d, 0xf9,
  0xe3, 0xff, 0xd2, 0x38, 0x2a, 0xb5, 0x1d, 0x01, 0x7f, 0xef, 0x3d, 0xe9,
  0xef, 0x04, 0xd2, 0xf0, 0x02, 0xf4, 0x33, 0xfb, 0x10, 0x39, 0x70, 0xe9,
  0xd2, 0x13, 0xf4, 0x18, 0xfc, 0xb7, 0x43, 0xe0, 0x2c, 0xfc, 0x3b, 0xd5,
  0xda, 0x26, 0xcf, 0x15, 0xf6, 0xf9, 0x0d, 0xce, 0xf9, 0x2a, 0x7c, 0xdb,
  0xeb, 0x15, 0xb9, 0x28, 0x0d, 0xab, 0x48, 0xeb, 0xfa, 0xf8, 0x0e, 0xf6,
  0xc9, 0x68, 0xb5, 0xfa, 0xfb, 0x1c, 0xdc, 0xdc, 0x0b, 0x20, 0x35, 0xe2,
  0xec, 0x20, 0xb0, 0x05, 0xe8, 0xab, 0x5a, 0xe8, 0x10, 0x01, 0x21, 0xf4,
  0xe8, 0x0d, 0x90, 0xf1, 0xf4, 0x1a, 0x09, 0xeb, 0x11, 0xeb, 0x03, 0xd3,
  0xf0, 0xdc, 0xde, 0xe5, 0xbc, 0xff, 0x03, 0x24, 0xcc, 0xd5, 0xe4, 0xfa,
  0xca, 0xf2, 0xe4, 0xe6, 0x0c, 0x13, 0x07, 0x31, 0x0a, 0xfa, 0xfe, 0xed,
  0x02, 0xec, 0xcc, 0xec, 0xe1, 0xfc, 0x0e, 0x32, 0xe5, 0xf1, 0xf3, 0x0b,
  0xf6, 0xf9, 0xe1, 0xf7, 0x0f, 0xfb, 0xf7, 0x2d, 0xfb, 0xf1, 0xf8, 0xeb,
  0xd4, 0xf9, 0xeb, 0xed, 0xca, 0xf5, 0x01, 0x18, 0xdc, 0x48, 0x2a, 0x0f,
  0x43, 0xff, 0xe2, 0xe9, 0xec, 0xfd, 0x08, 0x38, 0x0f, 0xee, 0x18, 0xd8,
  0xfd, 0xd1, 0xed, 0xd7, 0xc1, 0xfe, 0x1d, 0x0c, 0xbf, 0xe8, 0xee, 0xed,
  0xf0, 0x00, 0xf8, 0xeb, 0x0b, 0x05, 0xde, 0x22, 0x04, 0xf6, 0xfd, 0xf8,
  0x05, 0xf1, 0xeb, 0xc9, 0xf8, 0xf7, 0x13, 0x11, 0xf7, 0xf8, 0xf3, 0xfd,
  0xf8, 0x05, 0x08, 0xf7, 0xf7, 0x04, 0xff, 0x2d, 0xfc, 0xf0, 0xf4, 0xea,
  0xe0, 0xeb, 0xf2, 0xc8, 0xcc, 0x09, 0x03, 0x0b, 0xdf, 0x4b, 0x32, 0xfb,
  0x35, 0x0a, 0xe3, 0x02, 0xe9, 0x00, 0xf6, 0x16, 0xfe, 0xf3, 0x09, 0xdf,
  0x10, 0xdc, 0xcb, 0xd7, 0xbc, 0xf8, 0x07, 0xf1, 0xe2, 0xf3, 0xee, 0xeb,
  0x2b, 0xf0, 0xf7, 0xe6, 0xf9, 0xf4, 0xf7, 0x28, 0x02, 0xf6, 0xed, 0xf2,
  0x0d, 0xfd, 0xcf, 0xd1, 0xd2, 0xf2, 0x12, 0x0d, 0xf4, 0x25, 0xfa, 0xff,
  0x2c, 0xea, 0xfc, 0xf8, 0x13, 0x12, 0x06, 0x2f, 0xef, 0xf4, 0xda, 0xf5,
  0xe0, 0xf0, 0xde, 0xe4, 0xd3, 0xf7, 0xec, 0xf1, 0xf4, 0x7b, 0x2a, 0xf2,
  0x7f, 0x03, 0xf3, 0xec, 0xf2, 0xf1, 0x05, 0xf9, 0xec, 0xe2, 0x1f, 0x05,
  0xf1, 0xdb, 0x02, 0x06, 0xf8, 0xf5, 0xf3, 0xd6, 0xdc, 0xe9, 0x06, 0xf5,
  0xe4, 0xe3, 0xc4, 0xe5, 0xce, 0xe1, 0xf1, 0xf7, 0xc5, 0xfa, 0x0d, 0xf7,
  0x13, 0xe0, 0xe9, 0x05, 0xec, 0x19, 0xf7, 0xf3, 0xdd, 0x07, 0xea, 0xfc,
  0x09, 0xec, 0xe5, 0x1a, 0xe4, 0xf0, 0xdf, 0xf4, 0xcd, 0xee, 0x26, 0x06,
  0xfb, 0xdf, 0xef, 0xea, 0x1e, 0x1e, 0x29, 0xf0, 0xdc, 0x7c, 0x49, 0xf3,
  0x4b, 0xcb, 0xd3, 0x01, 0xd9, 0xdd, 0xe8, 0x07, 0xed, 0xe0, 0xfd, 0xfe,
  0x03, 0xd2, 0xfd, 0xee, 0x02, 0x0c, 0xfe, 0xe9, 0xf1, 0xf4, 0x18, 0xf8,
  0xf9, 0xeb, 0xe5, 0xf4, 0xfa, 0x0e, 0xf5, 0xf3, 0xcd, 0xf8, 0x10, 0x15,
  0x0d, 0xdf, 0xf9, 0xec, 0xfd, 0x2d, 0xf4, 0xf6, 0xe0, 0x08, 0xde, 0x0f,
  0x10, 0xe5, 0xea, 0x29, 0x06, 0x08, 0xf7, 0xed, 0xd9, 0xe5, 0x2e, 0x19,
  0xe2, 0xdc, 0x04, 0xfa, 0x33, 0x21, 0x2c, 0x00, 0x17, 0x65, 0x4b, 0x11,
  0x6a, 0xde, 0xdf, 0xf5, 0x00, 0xf8, 0xef, 0x05, 0xca, 0xfa, 0x38, 0xfd,
  0xfd, 0xdd, 0xea, 0xfa, 0xd9, 0x0e, 0x15, 0xb3, 0xea, 0xfd, 0x08, 0xe2,
  0x0b, 0xd2, 0xd7, 0xed, 0xe4, 0xdf, 0xdf, 0xe8, 0xc1, 0x08, 0x1a, 0x1d,
  0x0c, 0xd9, 0x08, 0x03, 0xf7, 0x3e, 0x15, 0xd6, 0xd4, 0x1f, 0xed, 0xec,
  0x15, 0xe4, 0xe4, 0x29, 0xed, 0xf1, 0xc3, 0xe6, 0xbb, 0xfe, 0x33, 0x24,
  0xf7, 0xee, 0xf8, 0xf7, 0x21, 0x2a, 0x3d, 0xbc, 0xea, 0x7f, 0x3c, 0xf0,
  0x40, 0xec, 0xe7, 0xfb, 0xfe, 0xe8, 0xdb, 0xdf, 0x15, 0xf6, 0x12, 0x2d,
  0xe8, 0xd4, 0x33, 0xd5, 0x58, 0xe1, 0x0f, 0x1c, 0x6e, 0x12, 0xfb, 0xc2,
  0xd4, 0xd1, 0x0b, 0x2a, 0xd1, 0xe4, 0xdb, 0xf3, 0x1c, 0x30, 0x2f, 0x5b,
  0xda, 0xd5, 0x6f, 0xd4, 0x14, 0xe7, 0x15, 0xe5, 0x62, 0x01, 0xea, 0xa2,
  0xd2, 0xc7, 0xf2, 0x4f, 0xef, 0xe4, 0xcd, 0xfe, 0x30, 0x1c, 0xfb, 0x12,
  0xed, 0xfb, 0x10, 0xf7, 0x1a, 0x01, 0x1c, 0x14, 0x6f, 0x10, 0xd2, 0xb0,
  0xcb, 0xc2, 0xfb, 0x04, 0x09, 0x05, 0xdb, 0xeb, 0xff, 0xfa, 0x13, 0x30,
  0xb4, 0xf0, 0x72, 0xb0, 0x53, 0x08, 0x15, 0x19, 0x32, 0x0a, 0xef, 0xef,
  0xaa, 0xe9, 0xf4, 0x2e, 0xbb, 0xf3, 0xe9, 0xdd, 0xf8, 0x0d, 0x25, 0x45,
  0xbb, 0xeb, 0x79, 0xe2, 0x1e, 0x11, 0x1d, 0xe9, 0x4d, 0xf4, 0xf8, 0xc7,
  0xae, 0xcf, 0xe6, 0x4b, 0xc2, 0xda, 0xed, 0xb1, 0x38, 0x12, 0x0a, 0x33,
  0xdc, 0x03, 0x54, 0xfe, 0x1e, 0xff, 0x2b, 0x0c, 0x5d, 0x03, 0xf7, 0xd4,
  0xbc, 0xf3, 0xeb, 0x3f, 0xdc, 0x0b, 0xe6, 0xd0, 0xfe, 0xfb, 0x1a, 0x25,
  0xd4, 0x02, 0x53, 0x09, 0x75, 0x01, 0x1a, 0x25, 0x40, 0x17, 0x06, 0xf7,
  0x81, 0xf7, 0xf4, 0x54, 0xe8, 0xbd, 0xe7, 0xed, 0xed, 0x2f, 0x35, 0x24,
  0xcb, 0x06, 0x69, 0xfe, 0x1e, 0x1b, 0x0a, 0xfe, 0x56, 0xf6, 0xe9, 0xdb,
  0x9d, 0xeb, 0xdf, 0x69, 0xdd, 0xdf, 0xcd, 0xdd, 0x07, 0x2b, 0x16, 0x10,
  0xd1, 0x01, 0x25, 0xfc, 0x0f, 0x16, 0x15, 0x26, 0x57, 0x20, 0xe9, 0xdd,
  0xa7, 0xf1, 0xe8, 0x49, 0xec, 0xf5, 0xe4, 0xdf, 0x08, 0xe3, 0x10, 0xd6,
  0x04, 0xe4, 0xe5, 0xec, 0xba, 0xf8, 0x13, 0x36, 0xc5, 0xe8, 0xf4, 0xf4,
  0xf0, 0xef, 0xe8, 0xf0, 0x1c, 0x1d, 0x33, 0x56, 0x21, 0xea, 0x16, 0xe4,
  0xf9, 0xf4, 0xdf, 0xf7, 0xe4, 0xe0, 0x39, 0x22, 0xd3, 0xe3, 0x0f, 0x05,
  0xe2, 0x20, 0xf9, 0xf6, 0x16, 0x15, 0x16, 0x33, 0x0b, 0xe9, 0xf8, 0xeb,
  0xea, 0xfe, 0xde, 0x06, 0xba, 0xfb, 0xfb, 0x17, 0xd9, 0x28, 0x2b, 0x11,
  0x28, 0x14, 0xdf, 0xf4, 0x12, 0x1f, 0x3a, 0x47, 0x14, 0xe2, 0x10, 0xc9,
  0xff, 0xe1, 0xe9, 0xda, 0xbc, 0xef, 0x29, 0x0e, 0xcd, 0xef, 0xf4, 0xe7,
  0x04, 0x06, 0xfb, 0xe0, 0x12, 0xfe, 0xef, 0x13, 0x17, 0xee, 0x1e, 0xeb,
  0xfe, 0x02, 0x02, 0xe9, 0xfa, 0xda, 0x47, 0x00, 0xf0, 0xf5, 0xfc, 0xf9,
  0xef, 0x2b, 0x12, 0xf1, 0xf6, 0x04, 0xef, 0x21, 0xf9, 0xe8, 0xed, 0xe3,
  0xec, 0xf0, 0xf2, 0xdc, 0xcd, 0xed, 0x14, 0x03, 0xeb, 0x3c, 0x48, 0x12,
  0x2a, 0x2c, 0xfb, 0xf2, 0xf2, 0xea, 0xfa, 0x07, 0xfa, 0xfc, 0x0e, 0xdc,
  0x21, 0xf3, 0xd1, 0xd8, 0xc3, 0xe7, 0x15, 0x06, 0xdb, 0xff, 0xc0, 0xf7,
  0x24, 0xee, 0x04, 0xea, 0x0f, 0x11, 0x2a, 0x3c, 0x0b, 0xf2, 0x09, 0xee,
  0x0f, 0xfc, 0xd2, 0xd4, 0xe0, 0xe8, 0x34, 0x09, 0xea, 0x0e, 0x13, 0x08,
  0x22, 0x1a, 0xff, 0x0f, 0x0c, 0x03, 0x2b, 0x48, 0xd1, 0xe8, 0xe9, 0xe8,
  0xf6, 0xf6, 0xf4, 0xe3, 0xd5, 0xe6, 0xe9, 0xf5, 0xf9, 0x77, 0x38, 0x07,
  0x7f, 0x02, 0x04, 0xe2, 0xf7, 0xfb, 0x28, 0x0f, 0xf6, 0xff, 0x31, 0x05,
  0xf5, 0x20, 0xf6, 0x1b, 0xf8, 0xf9, 0x1b, 0xf1, 0x3b, 0xf8, 0x26, 0x17,
  0xec, 0x43, 0x01, 0x05, 0x11, 0x00, 0x3a, 0xcb, 0x05, 0xf4, 0x37, 0xe2,
  0xf3, 0x12, 0xf8, 0x28, 0x02, 0xf1, 0x46, 0xf2, 0x32, 0xf7, 0x21, 0x1e,
  0xdd, 0x6d, 0xf0, 0x15, 0x10, 0xff, 0x22, 0xd3, 0x07, 0x0c, 0x04, 0x04,
  0xf6, 0x26, 0x07, 0x14, 0xfc, 0xf1, 0xf7, 0x04, 0x23, 0xf4, 0x22, 0x05,
  0xea, 0x34, 0x01, 0x08, 0x09, 0x12, 0x49, 0xed, 0xfe, 0x03, 0x2f, 0xf6,
  0xfc, 0x34, 0xfa, 0x21, 0xf0, 0xd5, 0x13, 0xdb, 0x5c, 0xfc, 0x34, 0x12,
  0xfb, 0x53, 0x07, 0xe4, 0xfb, 0xee, 0x3b, 0xd5, 0xfd, 0xf0, 0x35, 0xd6,
  0x03, 0x23, 0xf6, 0x54, 0xf2, 0xcb, 0x20, 0xf3, 0x3d, 0xfd, 0x22, 0x1c,
  0xf7, 0x7f, 0x09, 0xdb, 0xf0, 0xf3, 0x06, 0xfd, 0xfc, 0xfb, 0xfe, 0xf2,
  0xff, 0x25, 0xfb, 0x1a, 0xfe, 0xcc, 0x01, 0xf4, 0x4a, 0xf8, 0x27, 0x03,
  0xf8, 0x2c, 0x00, 0xd9, 0x07, 0xec, 0x16, 0xf0, 0xf3, 0x0d, 0x1c, 0xdd,
  0x04, 0x12, 0xea, 0x0b, 0xe3, 0xe9, 0x01, 0xea, 0x21, 0xdf, 0x2c, 0x0b,
  0xf1, 0x27, 0xe8, 0xf1, 0x01, 0x00, 0x33, 0xf1, 0xf4, 0xfa, 0x30, 0xcc,
  0xe5, 0x1e, 0xed, 0x26, 0xfd, 0xbd, 0x26, 0xf9, 0x14, 0xf7, 0x0c, 0x2d,
  0xee, 0x43, 0xea, 0xe6, 0x05, 0x08, 0x24, 0x00, 0xe4, 0xfd, 0x07, 0xce,
  0xf4, 0x18, 0xe1, 0x00, 0xdd, 0xde, 0x03, 0xf1, 0x19, 0xd5, 0x3e, 0x18,
  0xee, 0x28, 0xcc, 0xdc, 0xfb, 0xf6, 0x2f, 0x05, 0x32, 0x1d, 0x32, 0xfe,
  0xec, 0x03, 0xe7, 0xfd, 0xee, 0xe9, 0x34, 0xef, 0x53, 0xdd, 0xf2, 0xa3,
  0xaf, 0xff, 0xc7, 0x1f, 0xdc, 0x07, 0xe7, 0xf3, 0x13, 0x19, 0x47, 0x06,
  0xfc, 0xf3, 0xc4, 0x12, 0xf4, 0xe5, 0x25, 0x05, 0x59, 0xea, 0xe3, 0xb6,
  0xc1, 0x10, 0xbd, 0x17, 0xe3, 0x03, 0xcd, 0xc2, 0x1f, 0x13, 0x2a, 0x12,
  0xd5, 0x0e, 0xd2, 0xfa, 0x1f, 0xe2, 0x31, 0xf4, 0x4d, 0x3f, 0x34, 0xbf,
  0xdf, 0x09, 0xac, 0x2b, 0xba, 0xea, 0xe1, 0xcf, 0x1e, 0x12, 0x22, 0xf5,
  0xd6, 0x01, 0xdf, 0xdf, 0xf6, 0xdc, 0x21, 0x24, 0x7f, 0xf6, 0x07, 0xc1,
  0xc3, 0xf5, 0xb6, 0x17, 0xec, 0x07, 0xdd, 0xd1, 0xf5, 0x0b, 0x21, 0x0d,
  0xd9, 0x02, 0xed, 0xe3, 0xfa, 0xea, 0x08, 0x0d, 0x4a, 0xfb, 0xfe, 0xde,
  0xdd, 0x04, 0xc4, 0x0e, 0xef, 0xf5, 0x0c, 0xce, 0x1f, 0x17, 0x27, 0x02,
  0xb3, 0xf3, 0xc4, 0xe5, 0x0d, 0xd8, 0x31, 0x05, 0x6d, 0x2d, 0x41, 0xcb,
  0xf4, 0x0d, 0xa7, 0x31, 0xde, 0xf9, 0xfc, 0xcd, 0x38, 0x31, 0x36, 0xfd,
  0xe8, 0x0f, 0xd2, 0x1d, 0xd8, 0xd9, 0x2f, 0xe4, 0x4f, 0x09, 0x24, 0xa9,
  0xec, 0xe4, 0xc5, 0x03, 0xe7, 0xee, 0xb8, 0xfd, 0x02, 0x3d, 0x36, 0xed,
  0xf9, 0xee, 0xcf, 0x1b, 0xe1, 0xe1, 0x36, 0x15, 0x17, 0x1d, 0xf6, 0xb7,
  0x0a, 0xfe, 0xb0, 0x0c, 0xfe, 0xfb, 0xbc, 0xce, 0x0b, 0x32, 0x51, 0x0e,
  0xca, 0x05, 0xd0, 0xe9, 0xfb, 0xd3, 0x3f, 0xe6, 0x2f, 0x74, 0x7b, 0xb7,
  0x37, 0x00, 0x9a, 0x0a, 0xe6, 0xde, 0xfd, 0xe6, 0xe2, 0xe3, 0x0a, 0xf4,
  0x08, 0xd9, 0xfd, 0xd4, 0xdb, 0x1b, 0xfd, 0xd3, 0xc0, 0xfa, 0x0d, 0x31,
  0x12, 0x18, 0xf7, 0xf5, 0xe1, 0xfc, 0x10, 0xfd, 0xd8, 0xf3, 0x07, 0xed,
  0x12, 0xe2, 0xfe, 0xdb, 0xed, 0x20, 0xfe, 0xf0, 0xc3, 0xf8, 0x03, 0x29,
  0x28, 0x07, 0x1b, 0xf7, 0x01, 0x03, 0xe9, 0xed, 0xf3, 0xf2, 0x01, 0x0c,
  0x06, 0xef, 0x14, 0xd7, 0xf1, 0x16, 0x09, 0xf5, 0xd5, 0x45, 0x41, 0x2a,
  0x65, 0xfe, 0x10, 0xf3, 0xf4, 0xf4, 0xff, 0x03, 0xdb, 0xf9, 0x05, 0xfc,
  0x29, 0xe1, 0xd9, 0xe2, 0xe7, 0x1b, 0xfe, 0xce, 0xc2, 0xf6, 0x13, 0x3b,
  0x31, 0x07, 0x1d, 0xf6, 0x01, 0xe0, 0xff, 0x25, 0xcc, 0x01, 0x0e, 0xfb,
  0x38, 0xdd, 0xe6, 0xd0, 0xeb, 0x28, 0x05, 0x00, 0xb5, 0x08, 0xff, 0x39,
  0x2f, 0x0c, 0x23, 0xfc, 0x15, 0x0a, 0x05, 0x24, 0xe3, 0xfb, 0x09, 0x01,
  0x2b, 0xf8, 0xf8, 0xe2, 0xf3, 0x16, 0x02, 0xec, 0xe1, 0x5a, 0x30, 0x37,
  0x7f, 0xf1, 0x24, 0xef, 0x0b, 0xef, 0xfa, 0x18, 0xd2, 0xdc, 0x09, 0xf7,
  0xe9, 0xdb, 0xef, 0xe6, 0xe1, 0x28, 0x01, 0xbc, 0xb2, 0xf6, 0xf1, 0x20,
  0x16, 0x20, 0x02, 0xfc, 0xe4, 0xe8, 0xee, 0xd3, 0xe0, 0xe0, 0xf0, 0x00,
  0xf4, 0xd8, 0xf9, 0xed, 0xf0, 0x3e, 0x00, 0xdf, 0xa9, 0x00, 0xe3, 0x1e,
  0x27, 0xfc, 0x07, 0x0e, 0xed, 0xeb, 0xe2, 0xe0, 0xd1, 0xec, 0x0e, 0x0c,
  0xda, 0xf6, 0xf9, 0xf0, 0x02, 0x2b, 0x05, 0xd3, 0xc6, 0x53, 0x1f, 0x2d,
  0x62, 0x1e, 0xf3, 0x08, 0xe4, 0xe7, 0xe3, 0xd1, 0x13, 0xeb, 0x29, 0xec,
  0xec, 0xd5, 0x08, 0xcd, 0xe9, 0xe9, 0x3b, 0x30, 0xd6, 0xe9, 0xf9, 0xff,
  0xe2, 0xfe, 0x06, 0xff, 0xf7, 0xf3, 0x04, 0x2c, 0x2c, 0xe3, 0x47, 0xe9,
  0xfa, 0xfa, 0x1e, 0x0d, 0xf3, 0xbc, 0x7f, 0x0f, 0xef, 0xef, 0x20, 0x13,
  0xd2, 0x47, 0x13, 0xec, 0xf9, 0xeb, 0xfb, 0x27, 0x39, 0xce, 0xec, 0xf2,
  0xe7, 0xec, 0x2d, 0xf5, 0xfc, 0xda, 0x13, 0x24, 0xe3, 0x17, 0x41, 0x18,
  0x05, 0x22, 0x09, 0xd1, 0xea, 0xe9, 0x21, 0x07, 0x19, 0xf5, 0x23, 0xd6,
  0xf2, 0xd9, 0xee, 0xe5, 0xb3, 0xdc, 0x5e, 0x02, 0xd9, 0xfa, 0xf5, 0xce,
  0xef, 0xed, 0xf5, 0xee, 0xe8, 0xe0, 0xec, 0x06, 0x23, 0xeb, 0x40, 0xed,
  0xf8, 0xf5, 0x05, 0x10, 0xf8, 0xc4, 0x60, 0x09, 0xf6, 0xed, 0x23, 0x04,
  0xd2, 0x44, 0x1f, 0xf7, 0xeb, 0xfa, 0xfc, 0x10, 0x09, 0xe3, 0xf9, 0xcc,
  0xdb, 0xe4, 0xfb, 0xfa, 0xe0, 0xd3, 0x0c, 0xf2, 0xfe, 0x3d, 0x2d, 0x15,
  0x1c, 0x2f, 0xf7, 0xe7, 0xec, 0xdf, 0x15, 0x0e, 0xfe, 0xf5, 0x18, 0xde,
  0x17, 0xf8, 0xee, 0xc5, 0xd6, 0xce, 0x42, 0x0f, 0x1e, 0x0e, 0xd5, 0xe9,
  0x0b, 0xf8, 0xf3, 0xf8, 0x15, 0xfc, 0xf5, 0x49, 0x31, 0xfd, 0x3b, 0xd2,
  0x0d, 0xfb, 0xe7, 0xf8, 0xd1, 0xbf, 0x70, 0x17, 0x0a, 0x0d, 0x1d, 0x0a,
  0x03, 0x39, 0xfb, 0xeb, 0x08, 0xfa, 0x0c, 0x48, 0xed, 0xf1, 0xf2, 0xd2,
  0xf0, 0xfb, 0xeb, 0xe2, 0xd0, 0xba, 0xf1, 0xf3, 0x0b, 0x69, 0x4a, 0x20,
  0x72, 0x16, 0xf5, 0xf6, 0xfd, 0xf3, 0x14, 0x18, 0x0e, 0xf1, 0xf3, 0x16,
  0xe1, 0xe5, 0x4d, 0xd4, 0x2d, 0xf0, 0xf6, 0x18, 0xf9, 0x12, 0xf2, 0xcf,
  0xf8, 0xd1, 0x22, 0x03, 0xd3, 0xdc, 0xb9, 0xd9, 0x08, 0x19, 0xf7, 0x34,
  0xd9, 0xf5, 0x7f, 0xd7, 0x17, 0x09, 0x0c, 0x05, 0xf9, 0x03, 0xed, 0xd6,
  0xe4, 0xe5, 0x28, 0x2b, 0xe2, 0xd8, 0xd3, 0xe8, 0x18, 0x12, 0xf4, 0x18,
  0xe9, 0xef, 0x31, 0xd8, 0x03, 0xfe, 0xfb, 0x1c, 0x0b, 0x07, 0xe5, 0xd1,
  0xf5, 0xeb, 0x33, 0x19, 0xff, 0x06, 0xd5, 0xec, 0xff, 0x05, 0xdb, 0x1f,
  0xe7, 0xf3, 0x5d, 0xf2, 0x2c, 0x09, 0xe0, 0x07, 0xb5, 0x15, 0xf0, 0xfb,
  0xdb, 0x00, 0x25, 0xfd, 0xe4, 0xe9, 0xe4, 0xe4, 0x15, 0x16, 0x08, 0x25,
  0xc8, 0xf4, 0x6d, 0xe6, 0x31, 0x33, 0x11, 0x00, 0xcc, 0x01, 0xe8, 0xe4,
  0xe2, 0x11, 0x29, 0x23, 0xe9, 0xfd, 0xd6, 0xd1, 0x17, 0x0e, 0xf8, 0x1f,
  0xf8, 0xfe, 0x4c, 0x05, 0x0c, 0x15, 0xfc, 0x0c, 0xd1, 0x03, 0x0b, 0xda,
  0xea, 0xf4, 0x2e, 0x17, 0x00, 0xeb, 0xf7, 0xeb, 0x0b, 0xee, 0xee, 0x0d,
  0xef, 0xf7, 0x48, 0xe7, 0x58, 0x02, 0xf1, 0x10, 0xf4, 0x0d, 0xf4, 0x33,
  0xda, 0x06, 0x43, 0x12, 0xf9, 0xf5, 0xf1, 0xf6, 0x26, 0xf5, 0x01, 0x25,
  0xd3, 0xfc, 0x6c, 0xdf, 0x4a, 0x31, 0xff, 0x12, 0xd6, 0xf5, 0xe9, 0x15,
  0xd0, 0xfa, 0x34, 0x2f, 0xf2, 0xf4, 0x01, 0xe0, 0x32, 0xee, 0xf4, 0x0e,
  0xf1, 0xfa, 0x3d, 0xdb, 0x1c, 0x0d, 0x00, 0x10, 0xd2, 0x0a, 0xf5, 0x09,
  0xf0, 0xfc, 0x39, 0x23, 0x04, 0x02, 0x0b, 0xe7, 0xfd, 0x3a, 0xe2, 0x02,
  0xeb, 0x30, 0x02, 0x0f, 0xe6, 0x11, 0xfb, 0x0e, 0x3c, 0xe5, 0xc6, 0xfc,
  0xd6, 0x04, 0x07, 0x21, 0x0b, 0x27, 0x23, 0x13, 0x23, 0x25, 0xc8, 0xf4,
  0xcc, 0x54, 0xc7, 0xe0, 0xd4, 0x12, 0xb2, 0x42, 0x5e, 0x00, 0xd1, 0x07,
  0xdf, 0x08, 0xe9, 0x28, 0x24, 0x32, 0x47, 0xf6, 0x13, 0x35, 0xe9, 0xf0,
  0xdb, 0x2e, 0xf2, 0xd4, 0xe8, 0xfa, 0xd6, 0x1c, 0x45, 0x02, 0xe4, 0x17,
  0xf6, 0x26, 0x0d, 0x1b, 0xf4, 0x0c, 0x36, 0x1e, 0x2f, 0x2c, 0xe4, 0x07,
  0x08, 0x76, 0x03, 0xf4, 0xce, 0xf5, 0xe4, 0x20, 0x41, 0xed, 0xd1, 0xe6,
  0xd8, 0xea, 0xe2, 0x07, 0xe5, 0x20, 0xc8, 0x20, 0x15, 0x16, 0xd6, 0xd8,
  0xf6, 0x7f, 0xfa, 0xf0, 0xdb, 0x1b, 0xcd, 0x22, 0x77, 0x08, 0xc7, 0xe5,
  0xcd, 0x1a, 0xf7, 0xe8, 0xda, 0xea, 0xe9, 0x0b, 0x49, 0x28, 0xfa, 0xf3,
  0x1a, 0x53, 0xfb, 0x01, 0xea, 0xef, 0xcf, 0x23, 0x2a, 0xf7, 0xd0, 0xf2,
  0xe2, 0x2c, 0xfa, 0x0d, 0xf9, 0x08, 0x10, 0x26, 0xfe, 0x41, 0xcb, 0xec,
  0xe9, 0x36, 0xb1, 0x1a, 0xcd, 0x0e, 0xd3, 0x24, 0xfe, 0xf6, 0xe0, 0x12,
  0xdc, 0x1a, 0xe5, 0x17, 0x12, 0x1d, 0x1b, 0x59, 0x52, 0x31, 0xb4, 0xf2,
  0xac, 0x33, 0x87, 0x0b, 0x9b, 0xf8, 0xb3, 0x4b, 0x22, 0x0a, 0xe0, 0xf6,
  0xb9, 0xef, 0x9e, 0x21, 0x15, 0x45, 0x58, 0x24, 0x26, 0x40, 0xeb, 0xc7,
  0xc8, 0x4b, 0xcd, 0xe8, 0xbc, 0xf9, 0xe3, 0x2d, 0x0f, 0x06, 0xf6, 0x16,
  0xac, 0x15, 0xe4, 0x16, 0xde, 0x37, 0x4c, 0x37, 0x1f, 0x27, 0xf1, 0x3d,
  0xe3, 0xfe, 0x22, 0x19, 0x69, 0xdd, 0x0a, 0xf7, 0x4d, 0xf6, 0x24, 0xb9,
  0xd4, 0xc6, 0x02, 0xfc, 0x01, 0xf9, 0xd8, 0xef, 0x1d, 0x3e, 0x09, 0x15,
  0xfe, 0x06, 0x13, 0x18, 0x67, 0xe0, 0xee, 0x15, 0x26, 0xfe, 0x17, 0xb9,
  0xda, 0xe9, 0xe6, 0xef, 0xed, 0x0f, 0xf2, 0xe3, 0x2c, 0x13, 0xfe, 0x25,
  0xfd, 0xea, 0x2b, 0x3a, 0x3a, 0xd9, 0xfc, 0x16, 0x39, 0xec, 0xf5, 0x8a,
  0xf6, 0xb4, 0xe8, 0xf4, 0x03, 0x05, 0xe7, 0xe2, 0x2c, 0x1a, 0x16, 0x2f,
  0xc9, 0xee, 0x35, 0xe8, 0x55, 0xda, 0x12, 0x04, 0x4c, 0xd9, 0x0e, 0xd3,
  0xaf, 0xf5, 0xe6, 0x0d, 0xfb, 0x2b, 0x10, 0xcb, 0x28, 0x20, 0x06, 0x0f,
  0xd8, 0x05, 0x1d, 0x07, 0x6a, 0xea, 0xe8, 0xfc, 0x61, 0xfc, 0x0e, 0xc6,
  0xc4, 0x0e, 0xd9, 0x28, 0xdf, 0x1a, 0x19, 0xbe, 0x37, 0x11, 0x18, 0x19,
  0xdb, 0x2b, 0x33, 0x13, 0x37, 0xe0, 0x19, 0x0b, 0x57, 0xeb, 0x0d, 0xb7,
  0xd9, 0xf8, 0xe0, 0x1e, 0xf3, 0x22, 0x22, 0xc4, 0x33, 0x21, 0x1d, 0x25,
  0x18, 0xff, 0x20, 0x0a, 0x52, 0xf4, 0x15, 0x0d, 0x6d, 0xd5, 0x1e, 0xe8,
  0x81, 0xfe, 0xe2, 0x16, 0xe5, 0xf1, 0xcd, 0xe0, 0x14, 0x40, 0x28, 0x1d,
  0x05, 0x25, 0xf3, 0x31, 0x68, 0xfb, 0x02, 0x20, 0x6f, 0xf2, 0x16, 0xdc,
  0x99, 0xfc, 0xea, 0x04, 0xe7, 0xef, 0xe9, 0xef, 0x35, 0x20, 0x14, 0x4f,
  0xec, 0x0f, 0xf4, 0x1d, 0x46, 0xd9, 0xfc, 0xf3, 0x79, 0xdf, 0x08, 0xc0,
  0x97, 0xd9, 0xdc, 0xfc, 0x0b, 0xf2, 0xd5, 0xd2, 0x03, 0xd7, 0xeb, 0xdb,
  0xe4, 0x19, 0xdd, 0x3a, 0xde, 0x0a, 0xf5, 0x06, 0xd4, 0xf1, 0x0b, 0x7c,
  0x0a, 0x54, 0x0a, 0xeb, 0x2b, 0x33, 0x35, 0x00, 0x20, 0xc1, 0xed, 0xa8,
  0x1f, 0x17, 0xdd, 0x50, 0xd0, 0x19, 0xd2, 0x06, 0xe2, 0xf2, 0x21, 0x73,
  0x22, 0x4d, 0x08, 0xdb, 0x52, 0x1d, 0x6e, 0x1d, 0xea, 0xe6, 0xec, 0xd1,
  0x07, 0x1e, 0xdc, 0x46, 0xb7, 0x0b, 0xf0, 0xf7, 0xbc, 0xdf, 0x17, 0x41,
  0x18, 0x56, 0xe5, 0xf4, 0x32, 0x37, 0x3f, 0xe7, 0xf0, 0xf6, 0xdb, 0xf0,
  0x4c, 0x43, 0xc2, 0x61, 0xcf, 0x16, 0xb3, 0xf3, 0xc6, 0xe5, 0xe3, 0x5e,
  0x31, 0x0d, 0x24, 0x04, 0x29, 0x11, 0x35, 0x5b, 0xeb, 0xf9, 0xca, 0xd6,
  0x7f, 0x5c, 0xc6, 0x74, 0xa3, 0x15, 0xa7, 0x01, 0xb5, 0xe8, 0x04, 0x4b,
  0x4d, 0x23, 0x22, 0xdd, 0x2a, 0x17, 0x34, 0x4e, 0xf1, 0x09, 0xec, 0xf2,
  0x37, 0x2a, 0x99, 0x55, 0xbb, 0x0b, 0xcb, 0xe4, 0xd3, 0xbd, 0x01, 0x1f,
  0x28, 0x15, 0x10, 0xfb, 0x15, 0xf2, 0x3e, 0x42, 0xff, 0xf3, 0xdc, 0xd8,
  0xfd, 0x2d, 0x09, 0x21, 0xeb, 0x15, 0xca, 0xf8, 0xce, 0xd6, 0xfa, 0x66,
  0x33, 0x47, 0x28, 0xeb, 0x15, 0x1f, 0x47, 0x0e, 0x03, 0xdf, 0xd4, 0xdf,
  0xed, 0x20, 0xc7, 0x1d, 0xc2, 0x0a, 0xbb, 0x01, 0xdf, 0xf3, 0x0d, 0x5e,
  0x3d, 0x3e, 0x52, 0xf0, 0x2d, 0x2b, 0x55, 0x23, 0xd5, 0x07, 0xf3, 0xf1,
  0xf8, 0x16, 0xeb, 0x1d, 0xdd, 0x01, 0xed, 0x18, 0xe1, 0xca, 0xe9, 0x50,
  0x21, 0x43, 0x05, 0xfe, 0x38, 0x36, 0x48, 0x0d, 0xb2, 0xfd, 0xff, 0xff,
  0x04, 0x00, 0x00, 0x00, 0x60, 0x00, 0x00, 0x00, 0x17, 0xff, 0xff, 0xff,
  0xee, 0xf7, 0xff, 0xff, 0x8b, 0x09, 0x00, 0x00, 0x60, 0xf6, 0xff, 0xff,
  0x0a, 0x05, 0x00, 0x00, 0x5a, 0x03, 0x00, 0x00, 0x57, 0x08, 0x00, 0x00,
  0x4e, 0xf6, 0xff, 0xff, 0xe2, 0xfd, 0xff, 0xff, 0x0d, 0x17, 0x00, 0x00,
  0xe2, 0xea, 0xff, 0xff, 0x23, 0xfe, 0xff, 0xff, 0xb7, 0x14, 0x00, 0x00,
  0xfa, 0x05, 0x00, 0x00, 0x56, 0x08, 0x00, 0x00, 0x84, 0x06, 0x00, 0x00,
  0x7c, 0xf9, 0xff, 0xff, 0xeb, 0x11, 0x00, 0x00, 0x89, 0xf8, 0xff, 0xff,
  0xbc, 0x01, 0x00, 0x00, 0x00, 0xfa, 0xff, 0xff, 0x8a, 0x0f, 0x00, 0x00,
  0xb0, 0x08, 0x00, 0x00, 0xbd, 0xee, 0xff, 0xff, 0x1e, 0xfe, 0xff, 0xff,
  0x04, 0x00, 0x00, 0x00, 0xf0, 0x00, 0x00, 0x00, 0x18, 0xbb, 0xb8, 0xa9,
  0xdf, 0xab, 0x18, 0x08, 0x9f, 0xb1, 0x1f, 0x1d, 0xa5, 0x8b, 0x01, 0xe4,
  0x2e, 0xe0, 0x81, 0x28, 0x12, 0xff, 0x0d, 0x23, 0xbb, 0xc6, 0x92, 0xab,
  0xae, 0x02, 0x9d, 0x81, 0xdd, 0xca, 0x28, 0x1c, 0x17, 0x13, 0x93, 0x25,
  0x22, 0x0b, 0x14, 0x35, 0x97, 0x89, 0xa9, 0xc6, 0x92, 0xbb, 0xff, 0x1a,
  0xc6, 0xe9, 0x1c, 0x26, 0xcc, 0xc3, 0xf1, 0xe3, 0xe1, 0xcd, 0xa0, 0xf9,
  0x00, 0xbc, 0xf0, 0xbc, 0x81, 0x18, 0xbc, 0x39, 0x08, 0x04, 0x23, 0x34,
  0xb9, 0xfa, 0xca, 0x26, 0x14, 0xef, 0x81, 0x83, 0xde, 0xe2, 0xaa, 0xd1,
  0x94, 0xb7, 0xef, 0xbb, 0xaa, 0xd2, 0xc8, 0x0d, 0xdc, 0x33, 0x08, 0xe2,
  0x27, 0xd4, 0x9c, 0x8e, 0x24, 0xd1, 0x21, 0xcd, 0xe5, 0x0d, 0x21, 0xf5,
  0xaa, 0xd8, 0xfe, 0xf0, 0x25, 0x9e, 0xdc, 0x81, 0x4e, 0x1d, 0xda, 0x42,
  0xb8, 0x01, 0x99, 0xff, 0xce, 0x23, 0xc0, 0xca, 0xa5, 0xf6, 0xfb, 0xa5,
  0x81, 0xaf, 0xe0, 0xa1, 0x1b, 0x89, 0x25, 0x8d, 0x81, 0xdf, 0x14, 0x81,
  0xf9, 0xd0, 0x17, 0xcf, 0xba, 0xa9, 0xb6, 0x35, 0xd9, 0x15, 0x07, 0xb7,
  0xf9, 0x3e, 0xcb, 0xdd, 0xb4, 0xfb, 0x0f, 0xb3, 0x28, 0x9c, 0xa5, 0xfb,
  0xa1, 0x22, 0xfb, 0xe9, 0xc1, 0x19, 0x9e, 0x81, 0x2c, 0xeb, 0xb4, 0x2f,
  0xb7, 0xe1, 0xe6, 0x1c, 0xc9, 0x0e, 0xa0, 0xdf, 0x35, 0xf3, 0xfd, 0xc2,
  0x41, 0x8d, 0x0b, 0xea, 0xfa, 0xea, 0xcd, 0xe4, 0xb0, 0xc0, 0x19, 0x8c,
  0xfb, 0xe5, 0xa8, 0x81, 0x2f, 0x28, 0x1f, 0xd5, 0xa4, 0x34, 0x23, 0xd2,
  0x05, 0x25, 0xb6, 0xe1, 0xf8, 0xc7, 0xf4, 0xcb, 0xc5, 0xf1, 0x9f, 0xb7,
  0xc6, 0x9a, 0x26, 0xd3, 0xe7, 0xc8, 0x81, 0x38, 0x1a, 0xff, 0xff, 0xff,
  0x04, 0x00, 0x00, 0x00, 0x28, 0x00, 0x00, 0x00, 0x06, 0xef, 0xff, 0xff,
  0x0e, 0xf5, 0xff, 0xff, 0x34, 0xf5, 0xff, 0xff, 0x8b, 0xf3, 0xff, 0xff,
  0x25, 0xf4, 0xff, 0xff, 0x39, 0xf1, 0xff, 0xff, 0x0a, 0xfb, 0xff, 0xff,
  0x92, 0xf8, 0xff, 0xff, 0xca, 0xf1, 0xff, 0xff, 0x1b, 0xee, 0xff, 0xff,
  0x4e, 0xff, 0xff, 0xff, 0x04, 0x00, 0x00, 0x00, 0x08, 0x00, 0x00, 0x00,
  0x01, 0x00, 0x00, 0x00, 0x02, 0x00, 0x00, 0x00, 0x84, 0xee, 0xff, 0xff,
  0x88, 0xee, 0xff, 0xff, 0x0f, 0x00, 0x00, 0x00, 0x4d, 0x4c, 0x49, 0x52,
  0x20, 0x43, 0x6f, 0x6e, 0x76, 0x65, 0x72, 0x74, 0x65, 0x64, 0x2e, 0x00,
  0x01, 0x00, 0x00, 0x00, 0x14, 0x00, 0x00, 0x00, 0x00, 0x00, 0x0e, 0x00,
  0x18, 0x00, 0x14, 0x00, 0x10, 0x00, 0x0c, 0x00, 0x08, 0x00, 0x04, 0x00,
  0x0e, 0x00, 0x00, 0x00, 0x14, 0x00, 0x00, 0x00, 0x1c, 0x00, 0x00, 0x00,
  0xc0, 0x01, 0x00, 0x00, 0xc4, 0x01, 0x00, 0x00, 0xc8, 0x01, 0x00, 0x00,
  0x04, 0x00, 0x00, 0x00, 0x6d, 0x61, 0x69, 0x6e, 0x00, 0x00, 0x00, 0x00,
  0x06, 0x00, 0x00, 0x00, 0x5c, 0x01, 0x00, 0x00, 0x0c, 0x01, 0x00, 0x00,
  0xcc, 0x00, 0x00, 0x00, 0x98, 0x00, 0x00, 0x00, 0x50, 0x00, 0x00, 0x00,
  0x14, 0x00, 0x00, 0x00, 0x00, 0x00, 0x0e, 0x00, 0x1a, 0x00, 0x14, 0x00,
  0x10, 0x00, 0x0c, 0x00, 0x0b, 0x00, 0x04, 0x00, 0x0e, 0x00, 0x00, 0x00,
  0x1c, 0x00, 0x00, 0x00, 0x00, 0x00, 0x00, 0x09, 0x1c, 0x00, 0x00, 0x00,
  0x20, 0x00, 0x00, 0x00, 0x03, 0x00, 0x00, 0x00, 0x00, 0x00, 0x06, 0x00,
  0x08, 0x00, 0x04, 0x00, 0x06, 0x00, 0x00, 0x00, 0x00, 0x00, 0x80, 0x3f,
  0x01, 0x00, 0x00, 0x00, 0x0f, 0x00, 0x00, 0x00, 0x01, 0x00, 0x00, 0x00,
  0x0e, 0x00, 0x00, 0x00, 0xca, 0xff, 0xff, 0xff, 0x14, 0x00, 0x00, 0x00,
  0x00, 0x00, 0x00, 0x08, 0x10, 0x00, 0x00, 0x00, 0x14, 0x00, 0x00, 0x00,
  0x02, 0x00, 0x00, 0x00, 0x58, 0xef, 0xff, 0xff, 0x01, 0x00, 0x00, 0x00,
  0x0e, 0x00, 0x00, 0x00, 0x03, 0x00, 0x00, 0x00, 0x0d, 0x00, 0x00, 0x00,
  0x03, 0x00, 0x00, 0x00, 0x02, 0x00, 0x00, 0x00, 0x00, 0x00, 0x0e, 0x00,
  0x18, 0x00, 0x14, 0x00, 0x10, 0x00, 0x0c, 0x00, 0x0b, 0x00, 0x04, 0x00,
  0x0e, 0x00, 0x00, 0x00, 0x14, 0x00, 0x00, 0x00, 0x00, 0x00, 0x00, 0x1b,
  0x10, 0x00, 0x00, 0x00, 0x14, 0x00, 0x00, 0x00, 0x01, 0x00, 0x00, 0x00,
  0x9c, 0xef, 0xff, 0xff, 0x01, 0x00, 0x00, 0x00, 0x0d, 0x00, 0x00, 0x00,
  0x02, 0x00, 0x00, 0x00, 0x0c, 0x00, 0x00, 0x00, 0x01, 0x00, 0x00, 0x00,
  0x86, 0xff, 0xff, 0xff, 0x10, 0x00, 0x00, 0x00, 0x00, 0x00, 0x00, 0x01,
  0x18, 0x00, 0x00, 0x00, 0x1c, 0x00, 0x00, 0x00, 0x78, 0xff, 0xff, 0xff,
  0x00, 0x00, 0x00, 0x01, 0x02, 0x00, 0x00, 0x00, 0x02, 0x00, 0x00, 0x00,
  0x01, 0x00, 0x00, 0x00, 0x0c, 0x00, 0x00, 0x00, 0x03, 0x00, 0x00, 0x00,
  0x0b, 0x00, 0x00, 0x00, 0x05, 0x00, 0x00, 0x00, 0x04, 0x00, 0x00, 0x00,
  0xc2, 0xff, 0xff, 0xff, 0x10, 0x00, 0x00, 0x00, 0x00, 0x00, 0x00, 0x01,
  0x18, 0x00, 0x00, 0x00, 0x1c, 0x00, 0x00, 0x00, 0xb4, 0xff, 0xff, 0xff,
  0x00, 0x00, 0x00, 0x01, 0x02, 0x00, 0x00, 0x00, 0x02, 0x00, 0x00, 0x00,
  0x01, 0x00, 0x00, 0x00, 0x0b, 0x00, 0x00, 0x00, 0x03, 0x00, 0x00, 0x00,
  0x0a, 0x00, 0x00, 0x00, 0x07, 0x00, 0x00, 0x00, 0x06, 0x00, 0x00, 0x00,
  0x00, 0x00, 0x0e, 0x00, 0x14, 0x00, 0x00, 0x00, 0x10, 0x00, 0x0c, 0x00,
  0x0b, 0x00, 0x04, 0x00, 0x0e, 0x00, 0x00, 0x00, 0x1c, 0x00, 0x00, 0x00,
  0x00, 0x00, 0x00, 0x01, 0x24, 0x00, 0x00, 0x00, 0x28, 0x00, 0x00, 0x00,
  0x0c, 0x00, 0x10, 0x00, 0x00, 0x00, 0x0c, 0x00, 0x08, 0x00, 0x07, 0x00,
  0x0c, 0x00, 0x00, 0x00, 0x00, 0x00, 0x00, 0x01, 0x02, 0x00, 0x00, 0x00,
  0x02, 0x00, 0x00, 0x00, 0x01, 0x00, 0x00, 0x00, 0x0a, 0x00, 0x00, 0x00,
  0x03, 0x00, 0x00, 0x00, 0x00, 0x00, 0x00, 0x00, 0x09, 0x00, 0x00, 0x00,
  0x08, 0x00, 0x00, 0x00, 0x01, 0x00, 0x00, 0x00, 0x0f, 0x00, 0x00, 0x00,
  0x01, 0x00, 0x00, 0x00, 0x00, 0x00, 0x00, 0x00, 0x10, 0x00, 0x00, 0x00,
  0xa4, 0x0f, 0x00, 0x00, 0x48, 0x0f, 0x00, 0x00, 0x60, 0x0e, 0x00, 0x00,
  0x8c, 0x0d, 0x00, 0x00, 0x18, 0x0c, 0x00, 0x00, 0x94, 0x0a, 0x00, 0x00,
  0x20, 0x09, 0x00, 0x00, 0x9c, 0x07, 0x00, 0x00, 0xa0, 0x06, 0x00, 0x00,
  0x94, 0x05, 0x00, 0x00, 0x50, 0x04, 0x00, 0x00, 0x04, 0x03, 0x00, 0x00,
  0xb8, 0x01, 0x00, 0x00, 0x24, 0x01, 0x00, 0x00, 0x80, 0x00, 0x00, 0x00,
  0x04, 0x00, 0x00, 0x00, 0xb2, 0xf0, 0xff, 0xff, 0x00, 0x00, 0x00, 0x01,
  0x18, 0x00, 0x00, 0x00, 0x20, 0x00, 0x00, 0x00, 0x3c, 0x00, 0x00, 0x00,
  0x10, 0x00, 0x00, 0x00, 0x00, 0x00, 0x00, 0x09, 0x50, 0x00, 0x00, 0x00,
  0x02, 0x00, 0x00, 0x00, 0xff, 0xff, 0xff, 0xff, 0x0a, 0x00, 0x00, 0x00,
  0x94, 0xf0, 0xff, 0xff, 0x08, 0x00, 0x00, 0x00, 0x10, 0x00, 0x00, 0x00,
  0x01, 0x00, 0x00, 0x00, 0x80, 0xff, 0xff, 0xff, 0xff, 0xff, 0xff, 0xff,
  0x01, 0x00, 0x00, 0x00, 0x00, 0x00, 0x80, 0x3b, 0x1b, 0x00, 0x00, 0x00,
  0x53, 0x74, 0x61, 0x74, 0x65, 0x66, 0x75, 0x6c, 0x50, 0x61, 0x72, 0x74,
  0x69, 0x74, 0x69, 0x6f, 0x6e, 0x65, 0x64, 0x43, 0x61, 0x6c, 0x6c, 0x5f,
  0x31, 0x3a, 0x30, 0x00, 0x02, 0x00, 0x00, 0x00, 0x01, 0x00, 0x00, 0x00,
  0x0a, 0x00, 0x00, 0x00, 0x2a, 0xf1, 0xff, 0xff, 0x00, 0x00, 0x00, 0x01,
  0x18, 0x00, 0x00, 0x00, 0x20, 0x00, 0x00, 0x00, 0x40, 0x00, 0x00, 0x00,
  0x0f, 0x00, 0x00, 0x00, 0x00, 0x00, 0x00, 0x09, 0x78, 0x00, 0x00, 0x00,
  0x02, 0x00, 0x00, 0x00, 0xff, 0xff, 0xff, 0xff, 0x0a, 0x00, 0x00, 0x00,
  0x0c, 0xf1, 0xff, 0xff, 0x08, 0x00, 0x00, 0x00, 0x14, 0x00, 0x00, 0x00,
  0x01, 0x00, 0x00, 0x00, 0x59, 0x00, 0x00, 0x00, 0x00, 0x00, 0x00, 0x00,
  0x00, 0x00, 0x00, 0x00, 0x01, 0x00, 0x00, 0x00, 0x27, 0x91, 0xa7, 0x3d,
  0x3c, 0x00, 0x00, 0x00, 0x6d, 0x69, 0x64, 0x5f, 0x31, 0x34, 0x5f, 0x32,
  0x34, 0x5f, 0x32, 0x34, 0x5f, 0x31, 0x2f, 0x64, 0x65, 0x6e, 0x73, 0x65,
  0x5f, 0x31, 0x2f, 0x4d, 0x61, 0x74, 0x4d, 0x75, 0x6c, 0x3b, 0x6d, 0x69,
  0x64, 0x5f, 0x31, 0x34, 0x5f, 0x32, 0x34, 0x5f, 0x32, 0x34, 0x5f, 0x31,
  0x2f, 0x64, 0x65, 0x6e, 0x73, 0x65, 0x5f, 0x31, 0x2f, 0x42, 0x69, 0x61,
  0x73, 0x41, 0x64, 0x64, 0x00, 0x00, 0x00, 0x00, 0x02, 0x00, 0x00, 0x00,
  0x01, 0x00, 0x00, 0x00, 0x0a, 0x00, 0x00, 0x00, 0xca, 0xf1, 0xff, 0xff,
  0x00, 0x00, 0x00, 0x01, 0x18, 0x00, 0x00, 0x00, 0x20, 0x00, 0x00, 0x00,
  0x40, 0x00, 0x00, 0x00, 0x0e, 0x00, 0x00, 0x00, 0x00, 0x00, 0x00, 0x09,
  0x68, 0x00, 0x00, 0x00, 0x02, 0x00, 0x00, 0x00, 0xff, 0xff, 0xff, 0xff,
  0x18, 0x00, 0x00, 0x00, 0xac, 0xf1, 0xff, 0xff, 0x08, 0x00, 0x00, 0x00,
  0x14, 0x00, 0x00, 0x00, 0x01, 0x00, 0x00, 0x00, 0x80, 0xff, 0xff, 0xff,
  0xff, 0xff, 0xff, 0xff, 0x00, 0x00, 0x00, 0x00, 0x01, 0x00, 0x00, 0x00,
  0xd4, 0xaa, 0x6e, 0x3c, 0x2e, 0x00, 0x00, 0x00, 0x6d, 0x69, 0x64, 0x5f,
  0x31, 0x34, 0x5f, 0x32, 0x34, 0x5f, 0x32, 0x34, 0x5f, 0x31, 0x2f, 0x67,
  0x6c, 0x6f, 0x62, 0x61, 0x6c, 0x5f, 0x61, 0x76, 0x65, 0x72, 0x61, 0x67,
  0x65, 0x5f, 0x70, 0x6f, 0x6f, 0x6c, 0x69, 0x6e, 0x67, 0x32, 0x64, 0x5f,
  0x31, 0x2f, 0x4d, 0x65, 0x61, 0x6e, 0x00, 0x00, 0x02, 0x00, 0x00, 0x00,
  0x01, 0x00, 0x00, 0x00, 0x18, 0x00, 0x00, 0x00, 0x5a, 0xf2, 0xff, 0xff,
  0x00, 0x00, 0x00, 0x01, 0x18, 0x00, 0x00, 0x00, 0x28, 0x00, 0x00, 0x00,
  0x44, 0x00, 0x00, 0x00, 0x0d, 0x00, 0x00, 0x00, 0x00, 0x00, 0x00, 0x09,
  0x18, 0x01, 0x00, 0x00, 0x04, 0x00, 0x00, 0x00, 0xff, 0xff, 0xff, 0xff,
  0x04, 0x00, 0x00, 0x00, 0x04, 0x00, 0x00, 0x00, 0x18, 0x00, 0x00, 0x00,
  0x44, 0xf2, 0xff, 0xff, 0x08, 0x00, 0x00, 0x00, 0x10, 0x00, 0x00, 0x00,
  0x01, 0x00, 0x00, 0x00, 0x80, 0xff, 0xff, 0xff, 0xff, 0xff, 0xff, 0xff,
  0x01, 0x00, 0x00, 0x00, 0xa8, 0xf7, 0x86, 0x3d, 0xd9, 0x00, 0x00, 0x00,
  0x6d, 0x69, 0x64, 0x5f, 0x31, 0x34, 0x5f, 0x32, 0x34, 0x5f, 0x32, 0x34,
  0x5f, 0x31, 0x2f, 0x61, 0x63, 0x74, 0x69, 0x76, 0x61, 0x74, 0x69, 0x6f,
  0x6e, 0x5f, 0x32, 0x5f, 0x31, 0x2f, 0x52, 0x65, 0x6c, 0x75, 0x3b, 0x6d,
  0x69, 0x64, 0x5f, 0x31, 0x34, 0x5f, 0x32, 0x34, 0x5f, 0x32, 0x34, 0x5f,
  0x31, 0x2f, 0x62, 0x61, 0x74, 0x63, 0x68, 0x5f, 0x6e, 0x6f, 0x72, 0x6d,
  0x61, 0x6c, 0x69, 0x7a, 0x61, 0x74, 0x69, 0x6f, 0x6e, 0x5f, 0x32, 0x5f,
  0x31, 0x2f, 0x62, 0x61, 0x74, 0x63, 0x68, 0x6e, 0x6f, 0x72, 0x6d, 0x2f,
  0x61, 0x64, 0x64, 0x5f, 0x31, 0x3b, 0x6d, 0x69, 0x64, 0x5f, 0x31, 0x34,
  0x5f, 0x32, 0x34, 0x5f, 0x32, 0x34, 0x5f, 0x31, 0x2f, 0x62, 0x61, 0x74,
  0x63, 0x68, 0x5f, 0x6e, 0x6f, 0x72, 0x6d, 0x61, 0x6c, 0x69, 0x7a, 0x61,
  0x74, 0x69, 0x6f, 0x6e, 0x5f, 0x32, 0x5f, 0x31, 0x2f, 0x62, 0x61, 0x74,
  0x63, 0x68, 0x6e, 0x6f, 0x72, 0x6d, 0x2f, 0x6d, 0x75, 0x6c, 0x5f, 0x31,
  0x3b, 0x3b, 0x6d, 0x69, 0x64, 0x5f, 0x31, 0x34, 0x5f, 0x32, 0x34, 0x5f,
  0x32, 0x34, 0x5f, 0x31, 0x2f, 0x63, 0x6f, 0x6e, 0x76, 0x32, 0x64, 0x5f,
  0x32, 0x5f, 0x31, 0x2f, 0x42, 0x69, 0x61, 0x73, 0x41, 0x64, 0x64, 0x3b,
  0x6d, 0x69, 0x64, 0x5f, 0x31, 0x34, 0x5f, 0x32, 0x34, 0x5f, 0x32, 0x34,
  0x5f, 0x31, 0x2f, 0x63, 0x6f, 0x6e, 0x76, 0x32, 0x64, 0x5f, 0x32, 0x5f,
  0x31, 0x2f, 0x63, 0x6f, 0x6e, 0x76, 0x6f, 0x6c, 0x75, 0x74, 0x69, 0x6f,
  0x6e, 0x00, 0x00, 0x00, 0x04, 0x00, 0x00, 0x00, 0x01, 0x00, 0x00, 0x00,
  0x04, 0x00, 0x00, 0x00, 0x04, 0x00, 0x00, 0x00, 0x18, 0x00, 0x00, 0x00,
  0xa2, 0xf3, 0xff, 0xff, 0x00, 0x00, 0x00, 0x01, 0x18, 0x00, 0x00, 0x00,
  0x28, 0x00, 0x00, 0x00, 0x44, 0x00, 0x00, 0x00, 0x0c, 0x00, 0x00, 0x00,
  0x00, 0x00, 0x00, 0x09, 0x18, 0x01, 0x00, 0x00, 0x04, 0x00, 0x00, 0x00,
  0xff, 0xff, 0xff, 0xff, 0x08, 0x00, 0x00, 0x00, 0x08, 0x00, 0x00, 0x00,
  0x18, 0x00, 0x00, 0x00, 0x8c, 0xf3, 0xff, 0xff, 0x08, 0x00, 0x00, 0x00,
  0x10, 0x00, 0x00, 0x00, 0x01, 0x00, 0x00, 0x00, 0x80, 0xff, 0xff, 0xff,
  0xff, 0xff, 0xff, 0xff, 0x01, 0x00, 0x00, 0x00, 0x9c, 0x4d, 0x82, 0x3c,
  0xd9, 0x00, 0x00, 0x00, 0x6d, 0x69, 0x64, 0x5f, 0x31, 0x34, 0x5f, 0x32,
  0x34, 0x5f, 0x32, 0x34, 0x5f, 0x31, 0x2f, 0x61, 0x63, 0x74, 0x69, 0x76,
  0x61, 0x74, 0x69, 0x6f, 0x6e, 0x5f, 0x31, 0x5f, 0x32, 0x2f, 0x52, 0x65,
  0x6c, 0x75, 0x3b, 0x6d, 0x69, 0x64, 0x5f, 0x31, 0x34, 0x5f, 0x32, 0x34,
  0x5f, 0x32, 0x34, 0x5f, 0x31, 0x2f, 0x62, 0x61, 0x74, 0x63, 0x68, 0x5f,
  0x6e, 0x6f, 0x72, 0x6d, 0x61, 0x6c, 0x69, 0x7a, 0x61, 0x74, 0x69, 0x6f,
  0x6e, 0x5f, 0x31, 0x5f, 0x32, 0x2f, 0x62, 0x61, 0x74, 0x63, 0x68, 0x6e,
  0x6f, 0x72, 0x6d, 0x2f, 0x61, 0x64, 0x64, 0x5f, 0x31, 0x3b, 0x6d, 0x69,
  0x64, 0x5f, 0x31, 0x34, 0x5f, 0x32, 0x34, 0x5f, 0x32, 0x34, 0x5f, 0x31,
  0x2f, 0x62, 0x61, 0x74, 0x63, 0x68, 0x5f, 0x6e, 0x6f, 0x72, 0x6d, 0x61,
  0x6c, 0x69, 0x7a, 0x61, 0x74, 0x69, 0x6f, 0x6e, 0x5f, 0x31, 0x5f, 0x32,
  0x2f, 0x62, 0x61, 0x74, 0x63, 0x68, 0x6e, 0x6f, 0x72, 0x6d, 0x2f, 0x6d,
  0x75, 0x6c, 0x5f, 0x31, 0x3b, 0x3b, 0x6d, 0x69, 0x64, 0x5f, 0x31, 0x34,
  0x5f, 0x32, 0x34, 0x5f, 0x32, 0x34, 0x5f, 0x31, 0x2f, 0x63, 0x6f, 0x6e,
  0x76, 0x32, 0x64, 0x5f, 0x31, 0x5f, 0x32, 0x2f, 0x42, 0x69, 0x61, 0x73,
  0x41, 0x64, 0x64, 0x3b, 0x6d, 0x69, 0x64, 0x5f, 0x31, 0x34, 0x5f, 0x32,
  0x34, 0x5f, 0x32, 0x34, 0x5f, 0x31, 0x2f, 0x63, 0x6f, 0x6e, 0x76, 0x32,
  0x64, 0x5f, 0x31, 0x5f, 0x32, 0x2f, 0x63, 0x6f, 0x6e, 0x76, 0x6f, 0x6c,
  0x75, 0x74, 0x69, 0x6f, 0x6e, 0x00, 0x00, 0x00, 0x04, 0x00, 0x00, 0x00,
  0x01, 0x00, 0x00, 0x00, 0x08, 0x00, 0x00, 0x00, 0x08, 0x00, 0x00, 0x00,
  0x18, 0x00, 0x00, 0x00, 0xea, 0xf4, 0xff, 0xff, 0x00, 0x00, 0x00, 0x01,
  0x18, 0x00, 0x00, 0x00, 0x28, 0x00, 0x00, 0x00, 0x44, 0x00, 0x00, 0x00,
  0x0b, 0x00, 0x00, 0x00, 0x00, 0x00, 0x00, 0x09, 0x10, 0x01, 0x00, 0x00,
  0x04, 0x00, 0x00, 0x00, 0xff, 0xff, 0xff, 0xff, 0x10, 0x00, 0x00, 0x00,
  0x10, 0x00, 0x00, 0x00, 0x0e, 0x00, 0x00, 0x00, 0xd4, 0xf4, 0xff, 0xff,
  0x08, 0x00, 0x00, 0x00, 0x10, 0x00, 0x00, 0x00, 0x01, 0x00, 0x00, 0x00,
  0x80, 0xff, 0xff, 0xff, 0xff, 0xff, 0xff, 0xff, 0x01, 0x00, 0x00, 0x00,
  0x15, 0xc0, 0x81, 0x3d, 0xd0, 0x00, 0x00, 0x00, 0x6d, 0x69, 0x64, 0x5f,
  0x31, 0x34, 0x5f, 0x32, 0x34, 0x5f, 0x32, 0x34, 0x5f, 0x31, 0x2f, 0x61,
  0x63, 0x74, 0x69, 0x76, 0x61, 0x74, 0x69, 0x6f, 0x6e, 0x5f, 0x31, 0x2f,
  0x52, 0x65, 0x6c, 0x75, 0x3b, 0x6d, 0x69, 0x64, 0x5f, 0x31, 0x34, 0x5f,
  0x32, 0x34, 0x5f, 0x32, 0x34, 0x5f, 0x31, 0x2f, 0x62, 0x61, 0x74, 0x63,
  0x68, 0x5f, 0x6e, 0x6f, 0x72, 0x6d, 0x61, 0x6c, 0x69, 0x7a, 0x61, 0x74,
  0x69, 0x6f, 0x6e, 0x5f, 0x31, 0x2f, 0x62, 0x61, 0x74, 0x63, 0x68, 0x6e,
  0x6f, 0x72, 0x6d, 0x2f, 0x61, 0x64, 0x64, 0x5f, 0x31, 0x3b, 0x6d, 0x69,
  0x64, 0x5f, 0x31, 0x34, 0x5f, 0x32, 0x34, 0x5f, 0x32, 0x34, 0x5f, 0x31,
  0x2f, 0x62, 0x61, 0x74, 0x63, 0x68, 0x5f, 0x6e, 0x6f, 0x72, 0x6d, 0x61,
  0x6c, 0x69, 0x7a, 0x61, 0x74, 0x69, 0x6f, 0x6e, 0x5f, 0x31, 0x2f, 0x62,
  0x61, 0x74, 0x63, 0x68, 0x6e, 0x6f, 0x72, 0x6d, 0x2f, 0x6d, 0x75, 0x6c,
  0x5f, 0x31, 0x3b, 0x3b, 0x6d, 0x69, 0x64, 0x5f, 0x31, 0x34, 0x5f, 0x32,
  0x34, 0x5f, 0x32, 0x34, 0x5f, 0x31, 0x2f, 0x63, 0x6f, 0x6e, 0x76, 0x32,
  0x64, 0x5f, 0x31, 0x2f, 0x42, 0x69, 0x61, 0x73, 0x41, 0x64, 0x64, 0x3b,
  0x6d, 0x69, 0x64, 0x5f, 0x31, 0x34, 0x5f, 0x32, 0x34, 0x5f, 0x32, 0x34,
  0x5f, 0x31, 0x2f, 0x63, 0x6f, 0x6e, 0x76, 0x32, 0x64, 0x5f, 0x31, 0x2f,
  0x63, 0x6f, 0x6e, 0x76, 0x6f, 0x6c, 0x75, 0x74, 0x69, 0x6f, 0x6e, 0x31,
  0x00, 0x00, 0x00, 0x00, 0x04, 0x00, 0x00, 0x00, 0x01, 0x00, 0x00, 0x00,
  0x10, 0x00, 0x00, 0x00, 0x10, 0x00, 0x00, 0x00, 0x0e, 0x00, 0x00, 0x00,
  0x82, 0xf6, 0xff, 0xff, 0x00, 0x00, 0x00, 0x01, 0x14, 0x00, 0x00, 0x00,
  0xd0, 0x00, 0x00, 0x00, 0x0a, 0x00, 0x00, 0x00, 0x00, 0x00, 0x00, 0x09,
  0xdc, 0x00, 0x00, 0x00, 0xfc, 0xf5, 0xff, 0xff, 0x08, 0x00, 0x00, 0x00,
  0x7c, 0x00, 0x00, 0x00, 0x0e, 0x00, 0x00, 0x00, 0x00, 0x00, 0x00, 0x00,
  0x00, 0x00, 0x00, 0x00, 0x00, 0x00, 0x00, 0x00, 0x00, 0x00, 0x00, 0x00,
  0x00, 0x00, 0x00, 0x00, 0x00, 0x00, 0x00, 0x00, 0x00, 0x00, 0x00, 0x00,
  0x00, 0x00, 0x00, 0x00, 0x00, 0x00, 0x00, 0x00, 0x00, 0x00, 0x00, 0x00,
  0x00, 0x00, 0x00, 0x00, 0x00, 0x00, 0x00, 0x00, 0x00, 0x00, 0x00, 0x00,
  0x00, 0x00, 0x00, 0x00, 0x00, 0x00, 0x00, 0x00, 0x00, 0x00, 0x00, 0x00,
  0x00, 0x00, 0x00, 0x00, 0x00, 0x00, 0x00, 0x00, 0x00, 0x00, 0x00, 0x00,
  0x00, 0x00, 0x00, 0x00, 0x00, 0x00, 0x00, 0x00, 0x00, 0x00, 0x00, 0x00,
  0x00, 0x00, 0x00, 0x00, 0x00, 0x00, 0x00, 0x00, 0x00, 0x00, 0x00, 0x00,
  0x00, 0x00, 0x00, 0x00, 0x00, 0x00, 0x00, 0x00, 0x00, 0x00, 0x00, 0x00,
  0x00, 0x00, 0x00, 0x00, 0x0e, 0x00, 0x00, 0x00, 0x31, 0x3d, 0x1c, 0x39,
  0xb8, 0x1f, 0x84, 0x38, 0xee, 0xab, 0x07, 0x39, 0xf0, 0xfc, 0x1f, 0x39,
  0x04, 0x9e, 0x1a, 0x39, 0x65, 0xcb, 0xc1, 0x38, 0x81, 0xde, 0xda, 0x38,
  0x7b, 0x0f, 0x1a, 0x39, 0x84, 0xa0, 0x04, 0x39, 0xc4, 0xd9, 0x00, 0x39,
  0xaa, 0x8f, 0x00, 0x39, 0xb9, 0x2b, 0x2a, 0x39, 0xd0, 0x6c, 0xc5, 0x38,
  0x42, 0xc1, 0xce, 0x38, 0x12, 0x00, 0x00, 0x00, 0x74, 0x66, 0x6c, 0x2e,
  0x70, 0x73, 0x65, 0x75, 0x64, 0x6f, 0x5f, 0x71, 0x63, 0x6f, 0x6e, 0x73,
  0x74, 0x37, 0x00, 0x00, 0x04, 0x00, 0x00, 0x00, 0x0e, 0x00, 0x00, 0x00,
  0x03, 0x00, 0x00, 0x00, 0x03, 0x00, 0x00, 0x00, 0x03, 0x00, 0x00, 0x00,
  0x8a, 0xf7, 0xff, 0xff, 0x00, 0x00, 0x00, 0x01, 0x14, 0x00, 0x00, 0x00,
  0xcc, 0x00, 0x00, 0x00, 0x09, 0x00, 0x00, 0x00, 0x00, 0x00, 0x00, 0x02,
  0xd8, 0x00, 0x00, 0x00, 0x04, 0xf7, 0xff, 0xff, 0x08, 0x00, 0x00, 0x00,
  0x78, 0x00, 0x00, 0x00, 0x0e, 0x00, 0x00, 0x00, 0x00, 0x00, 0x00, 0x00,
  0x00, 0x00, 0x00, 0x00, 0x00, 0x00, 0x00, 0x00, 0x00, 0x00, 0x00, 0x00,
  0x00, 0x00, 0x00, 0x00, 0x00, 0x00, 0x00, 0x00, 0x00, 0x00, 0x00, 0x00,
  0x00, 0x00, 0x00, 0x00, 0x00, 0x00, 0x00, 0x00, 0x00, 0x00, 0x00, 0x00,
  0x00, 0x00, 0x00, 0x00, 0x00, 0x00, 0x00, 0x00, 0x00, 0x00, 0x00, 0x00,
  0x00, 0x00, 0x00, 0x00, 0x00, 0x00, 0x00, 0x00, 0x00, 0x00, 0x00, 0x00,
  0x00, 0x00, 0x00, 0x00, 0x00, 0x00, 0x00, 0x00, 0x00, 0x00, 0x00, 0x00,
  0x00, 0x00, 0x00, 0x00, 0x00, 0x00, 0x00, 0x00, 0x00, 0x00, 0x00, 0x00,
  0x00, 0x00, 0x00, 0x00, 0x00, 0x00, 0x00, 0x00, 0x00, 0x00, 0x00, 0x00,
  0x00, 0x00, 0x00, 0x00, 0x00, 0x00, 0x00, 0x00, 0x00, 0x00, 0x00, 0x00,
  0x0e, 0x00, 0x00, 0x00, 0x31, 0x3d, 0x1c, 0x39, 0xb8, 0x1f, 0x84, 0x38,
  0xee, 0xab, 0x07, 0x39, 0xf0, 0xfc, 0x1f, 0x39, 0x04, 0x9e, 0x1a, 0x39,
  0x65, 0xcb, 0xc1, 0x38, 0x81, 0xde, 0xda, 0x38, 0x7b, 0x0f, 0x1a, 0x39,
  0x84, 0xa0, 0x04, 0x39, 0xc4, 0xd9, 0x00, 0x39, 0xaa, 0x8f, 0x00, 0x39,
  0xb9, 0x2b, 0x2a, 0x39, 0xd0, 0x6c, 0xc5, 0x38, 0x42, 0xc1, 0xce, 0x38,
  0x12, 0x00, 0x00, 0x00, 0x74, 0x66, 0x6c, 0x2e, 0x70, 0x73, 0x65, 0x75,
  0x64, 0x6f, 0x5f, 0x71, 0x63, 0x6f, 0x6e, 0x73, 0x74, 0x36, 0x00, 0x00,
  0x01, 0x00, 0x00, 0x00, 0x0e, 0x00, 0x00, 0x00, 0x82, 0xf8, 0xff, 0xff,
  0x00, 0x00, 0x00, 0x01, 0x14, 0x00, 0x00, 0x00, 0x48, 0x01, 0x00, 0x00,
  0x08, 0x00, 0x00, 0x00, 0x00, 0x00, 0x00, 0x09, 0x54, 0x01, 0x00, 0x00,
  0xfc, 0xf7, 0xff, 0xff, 0x08, 0x00, 0x00, 0x00, 0xcc, 0x00, 0x00, 0x00,
  0x18, 0x00, 0x00, 0x00, 0x00, 0x00, 0x00, 0x00, 0x00, 0x00, 0x00, 0x00,
  0x00, 0x00, 0x00, 0x00, 0x00, 0x00, 0x00, 0x00, 0x00, 0x00, 0x00, 0x00,
  0x00, 0x00, 0x00, 0x00, 0x00, 0x00, 0x00, 0x00, 0x00, 0x00, 0x00, 0x00,
  0x00, 0x00, 0x00, 0x00, 0x00, 0x00, 0x00, 0x00, 0x00, 0x00, 0x00, 0x00,
  0x00, 0x00, 0x00, 0x00, 0x00, 0x00, 0x00, 0x00, 0x00, 0x00, 0x00, 0x00,
  0x00, 0x00, 0x00, 0x00, 0x00, 0x00, 0x00, 0x00, 0x00, 0x00, 0x00, 0x00,
  0x00, 0x00, 0x00, 0x00, 0x00, 0x00, 0x00, 0x00, 0x00, 0x00, 0x00, 0x00,
  0x00, 0x00, 0x00, 0x00, 0x00, 0x00, 0x00, 0x00, 0x00, 0x00, 0x00, 0x00,
  0x00, 0x00, 0x00, 0x00, 0x00, 0x00, 0x00, 0x00, 0x00, 0x00, 0x00, 0x00,
  0x00, 0x00, 0x00, 0x00, 0x00, 0x00, 0x00, 0x00, 0x00, 0x00, 0x00, 0x00,
  0x00, 0x00, 0x00, 0x00, 0x00, 0x00, 0x00, 0x00, 0x00, 0x00, 0x00, 0x00,
  0x00, 0x00, 0x00, 0x00, 0x00, 0x00, 0x00, 0x00, 0x00, 0x00, 0x00, 0x00,
  0x00, 0x00, 0x00, 0x00, 0x00, 0x00, 0x00, 0x00, 0x00, 0x00, 0x00, 0x00,
  0x00, 0x00, 0x00, 0x00, 0x00, 0x00, 0x00, 0x00, 0x00, 0x00, 0x00, 0x00,
  0x00, 0x00, 0x00, 0x00, 0x00, 0x00, 0x00, 0x00, 0x00, 0x00, 0x00, 0x00,
  0x00, 0x00, 0x00, 0x00, 0x00, 0x00, 0x00, 0x00, 0x00, 0x00, 0x00, 0x00,
  0x00, 0x00, 0x00, 0x00, 0x00, 0x00, 0x00, 0x00, 0x18, 0x00, 0x00, 0x00,
  0x9b, 0x31, 0xed, 0x3a, 0x6e, 0x6a, 0x80, 0x3a, 0xc6, 0x39, 0x0d, 0x3b,
  0x7a, 0x4e, 0xda, 0x3a, 0x75, 0xc2, 0xee, 0x3a, 0x28, 0xa5, 0xf6, 0x3a,
  0xa6, 0x7f, 0x1e, 0x3b, 0x2f, 0x8b, 0xba, 0x3a, 0xf9, 0x32, 0xf3, 0x3a,
  0x46, 0x3f, 0x46, 0x3a, 0xdf, 0xd5, 0x28, 0x3b, 0x0b, 0xc2, 0xb5, 0x3a,
  0x82, 0x0d, 0x34, 0x3b, 0x81, 0x78, 0xba, 0x3a, 0xb8, 0x76, 0x95, 0x3a,
  0x55, 0x54, 0xfe, 0x3a, 0x07, 0xbb, 0xcf, 0x3a, 0x4c, 0x65, 0xdd, 0x3a,
  0xed, 0x3e, 0x0e, 0x3b, 0x8b, 0xde, 0x1a, 0x3a, 0x20, 0xfb, 0xc8, 0x3a,
  0x21, 0xdb, 0xd5, 0x3a, 0x2e, 0xbe, 0xef, 0x3a, 0x9d, 0xf5, 0xe4, 0x3a,
  0x12, 0x00, 0x00, 0x00, 0x74, 0x66, 0x6c, 0x2e, 0x70, 0x73, 0x65, 0x75,
  0x64, 0x6f, 0x5f, 0x71, 0x63, 0x6f, 0x6e, 0x73, 0x74, 0x35, 0x00, 0x00,
  0x04, 0x00, 0x00, 0x00, 0x18, 0x00, 0x00, 0x00, 0x03, 0x00, 0x00, 0x00,
  0x03, 0x00, 0x00, 0x00, 0x0e, 0x00, 0x00, 0x00, 0x02, 0xfa, 0xff, 0xff,
  0x00, 0x00, 0x00, 0x01, 0x14, 0x00, 0x00, 0x00, 0x44, 0x01, 0x00, 0x00,
  0x07, 0x00, 0x00, 0x00, 0x00, 0x00, 0x00, 0x02, 0x50, 0x01, 0x00, 0x00,
  0x7c, 0xf9, 0xff, 0xff, 0x08, 0x00, 0x00, 0x00, 0xc8, 0x00, 0x00, 0x00,
  0x18, 0x00, 0x00, 0x00, 0x00, 0x00, 0x00, 0x00, 0x00, 0x00, 0x00, 0x00,
  0x00, 0x00, 0x00, 0x00, 0x00, 0x00, 0x00, 0x00, 0x00, 0x00, 0x00, 0x00,
  0x00, 0x00, 0x00, 0x00, 0x00, 0x00, 0x00, 0x00, 0x00, 0x00, 0x00, 0x00,
  0x00, 0x00, 0x00, 0x00, 0x00, 0x00, 0x00, 0x00, 0x00, 0x00, 0x00, 0x00,
  0x00, 0x00, 0x00, 0x00, 0x00, 0x00, 0x00, 0x00, 0x00, 0x00, 0x00, 0x00,
  0x00, 0x00, 0x00, 0x00, 0x00, 0x00, 0x00, 0x00, 0x00, 0x00, 0x00, 0x00,
  0x00, 0x00, 0x00, 0x00, 0x00, 0x00, 0x00, 0x00, 0x00, 0x00, 0x00, 0x00,
  0x00, 0x00, 0x00, 0x00, 0x00, 0x00, 0x00, 0x00, 0x00, 0x00, 0x00, 0x00,
  0x00, 0x00, 0x00, 0x00, 0x00, 0x00, 0x00, 0x00, 0x00, 0x00, 0x00, 0x00,
  0x00, 0x00, 0x00, 0x00, 0x00, 0x00, 0x00, 0x00, 0x00, 0x00, 0x00, 0x00,
  0x00, 0x00, 0x00, 0x00, 0x00, 0x00, 0x00, 0x00, 0x00, 0x00, 0x00, 0x00,
  0x00, 0x00, 0x00, 0x00, 0x00, 0x00, 0x00, 0x00, 0x00, 0x00, 0x00, 0x00,
  0x00, 0x00, 0x00, 0x00, 0x00, 0x00, 0x00, 0x00, 0x00, 0x00, 0x00, 0x00,
  0x00, 0x00, 0x00, 0x00, 0x00, 0x00, 0x00, 0x00, 0x00, 0x00, 0x00, 0x00,
  0x00, 0x00, 0x00, 0x00, 0x00, 0x00, 0x00, 0x00, 0x00, 0x00, 0x00, 0x00,
  0x00, 0x00, 0x00, 0x00, 0x00, 0x00, 0x00, 0x00, 0x00, 0x00, 0x00, 0x00,
  0x00, 0x00, 0x00, 0x00, 0x18, 0x00, 0x00, 0x00, 0xf0, 0x6f, 0xf0, 0x38,
  0xf8, 0x2b, 0x82, 0x38, 0x27, 0x28, 0x0f, 0x39, 0xb0, 0x4a, 0xdd, 0x38,
  0x45, 0x06, 0xf2, 0x38, 0x93, 0x04, 0xfa, 0x38, 0x7f, 0xaa, 0x20, 0x39,
  0x35, 0x18, 0xbd, 0x38, 0x53, 0x86, 0xf6, 0x38, 0x44, 0xf5, 0x48, 0x38,
  0xe7, 0x24, 0x2b, 0x39, 0x50, 0x3e, 0xb8, 0x38, 0xcf, 0x83, 0x36, 0x39,
  0x45, 0x05, 0xbd, 0x38, 0xf0, 0x81, 0x97, 0x38, 0x53, 0xe7, 0x00, 0x39,
  0x38, 0x92, 0xd2, 0x38, 0x53, 0x6c, 0xe0, 0x38, 0xe1, 0x30, 0x10, 0x39,
  0xaf, 0xfc, 0x1c, 0x38, 0xb0, 0xba, 0xcb, 0x38, 0xc3, 0xc7, 0xd8, 0x38,
  0x6f, 0x05, 0xf3, 0x38, 0x1e, 0x17, 0xe8, 0x38, 0x12, 0x00, 0x00, 0x00,
  0x74, 0x66, 0x6c, 0x2e, 0x70, 0x73, 0x65, 0x75, 0x64, 0x6f, 0x5f, 0x71,
  0x63, 0x6f, 0x6e, 0x73, 0x74, 0x34, 0x00, 0x00, 0x01, 0x00, 0x00, 0x00,
  0x18, 0x00, 0x00, 0x00, 0x72, 0xfb, 0xff, 0xff, 0x00, 0x00, 0x00, 0x01,
  0x14, 0x00, 0x00, 0x00, 0x48, 0x01, 0x00, 0x00, 0x06, 0x00, 0x00, 0x00,
  0x00, 0x00, 0x00, 0x09, 0x54, 0x01, 0x00, 0x00, 0xec, 0xfa, 0xff, 0xff,
  0x08, 0x00, 0x00, 0x00, 0xcc, 0x00, 0x00, 0x00, 0x18, 0x00, 0x00, 0x00,
  0x00, 0x00, 0x00, 0x00, 0x00, 0x00, 0x00, 0x00, 0x00, 0x00, 0x00, 0x00,
  0x00, 0x00, 0x00, 0x00, 0x00, 0x00, 0x00, 0x00, 0x00, 0x00, 0x00, 0x00,
  0x00, 0x00, 0x00, 0x00, 0x00, 0x00, 0x00, 0x00, 0x00, 0x00, 0x00, 0x00,
  0x00, 0x00, 0x00, 0x00, 0x00, 0x00, 0x00, 0x00, 0x00, 0x00, 0x00, 0x00,
  0x00, 0x00, 0x00, 0x00, 0x00, 0x00, 0x00, 0x00, 0x00, 0x00, 0x00, 0x00,
  0x00, 0x00, 0x00, 0x00, 0x00, 0x00, 0x00, 0x00, 0x00, 0x00, 0x00, 0x00,
  0x00, 0x00, 0x00, 0x00, 0x00, 0x00, 0x00, 0x00, 0x00, 0x00, 0x00, 0x00,
  0x00, 0x00, 0x00, 0x00, 0x00, 0x00, 0x00, 0x00, 0x00, 0x00, 0x00, 0x00,
  0x00, 0x00, 0x00, 0x00, 0x00, 0x00, 0x00, 0x00, 0x00, 0x00, 0x00, 0x00,
  0x00, 0x00, 0x00, 0x00, 0x00, 0x00, 0x00, 0x00, 0x00, 0x00, 0x00, 0x00,
  0x00, 0x00, 0x00, 0x00, 0x00, 0x00, 0x00, 0x00, 0x00, 0x00, 0x00, 0x00,
  0x00, 0x00, 0x00, 0x00, 0x00, 0x00, 0x00, 0x00, 0x00, 0x00, 0x00, 0x00,
  0x00, 0x00, 0x00, 0x00, 0x00, 0x00, 0x00, 0x00, 0x00, 0x00, 0x00, 0x00,
  0x00, 0x00, 0x00, 0x00, 0x00, 0x00, 0x00, 0x00, 0x00, 0x00, 0x00, 0x00,
  0x00, 0x00, 0x00, 0x00, 0x00, 0x00, 0x00, 0x00, 0x00, 0x00, 0x00, 0x00,
  0x00, 0x00, 0x00, 0x00, 0x00, 0x00, 0x00, 0x00, 0x00, 0x00, 0x00, 0x00,
  0x00, 0x00, 0x00, 0x00, 0x18, 0x00, 0x00, 0x00, 0x2f, 0x72, 0xa3, 0x3b,
  0x45, 0xd2, 0xe7, 0x3b, 0x69, 0x03, 0xeb, 0x3b, 0x5c, 0x53, 0x17, 0x3c,
  0xa9, 0x4d, 0xdc, 0x3b, 0x30, 0xb3, 0x22, 0x3c, 0x6e, 0x85, 0x41, 0x3c,
  0x2f, 0x95, 0x0c, 0x3c, 0x1e, 0xf5, 0xd2, 0x3b, 0x1a, 0xe1, 0xc9, 0x3b,
  0x02, 0x42, 0x18, 0x3c, 0xb0, 0x27, 0xf2, 0x3b, 0xab, 0x95, 0x21, 0x3c,
  0x84, 0xc7, 0x1c, 0x3c, 0x3c, 0x23, 0xe5, 0x3b, 0x16, 0x25, 0x19, 0x3c,
  0xd1, 0x18, 0x21, 0x3c, 0x05, 0x9b, 0xf0, 0x3b, 0x89, 0xf0, 0x2b, 0x3c,
  0x5d, 0xe2, 0xfe, 0x3b, 0x82, 0x0f, 0x06, 0x3c, 0x6a, 0x84, 0xe2, 0x3b,
  0x23, 0x2b, 0xf4, 0x3b, 0x55, 0x9e, 0xcc, 0x3b, 0x12, 0x00, 0x00, 0x00,
  0x74, 0x66, 0x6c, 0x2e, 0x70, 0x73, 0x65, 0x75, 0x64, 0x6f, 0x5f, 0x71,
  0x63, 0x6f, 0x6e, 0x73, 0x74, 0x33, 0x00, 0x00, 0x04, 0x00, 0x00, 0x00,
  0x18, 0x00, 0x00, 0x00, 0x03, 0x00, 0x00, 0x00, 0x03, 0x00, 0x00, 0x00,
  0x18, 0x00, 0x00, 0x00, 0xf2, 0xfc, 0xff, 0xff, 0x00, 0x00, 0x00, 0x01,
  0x14, 0x00, 0x00, 0x00, 0x44, 0x01, 0x00, 0x00, 0x05, 0x00, 0x00, 0x00,
  0x00, 0x00, 0x00, 0x02, 0x50, 0x01, 0x00, 0x00, 0x6c, 0xfc, 0xff, 0xff,
  0x08, 0x00, 0x00, 0x00, 0xc8, 0x00, 0x00, 0x00, 0x18, 0x00, 0x00, 0x00,
  0x00, 0x00, 0x00, 0x00, 0x00, 0x00, 0x00, 0x00, 0x00, 0x00, 0x00, 0x00,
  0x00, 0x00, 0x00, 0x00, 0x00, 0x00, 0x00, 0x00, 0x00, 0x00, 0x00, 0x00,
  0x00, 0x00, 0x00, 0x00, 0x00, 0x00, 0x00, 0x00, 0x00, 0x00, 0x00, 0x00,
  0x00, 0x00, 0x00, 0x00, 0x00, 0x00, 0x00, 0x00, 0x00, 0x00, 0x00, 0x00,
  0x00, 0x00, 0x00, 0x00, 0x00, 0x00, 0x00, 0x00, 0x00, 0x00, 0x00, 0x00,
  0x00, 0x00, 0x00, 0x00, 0x00, 0x00, 0x00, 0x00, 0x00, 0x00, 0x00, 0x00,
  0x00, 0x00, 0x00, 0x00, 0x00, 0x00, 0x00, 0x00, 0x00, 0x00, 0x00, 0x00,
  0x00, 0x00, 0x00, 0x00, 0x00, 0x00, 0x00, 0x00, 0x00, 0x00, 0x00, 0x00,
  0x00, 0x00, 0x00, 0x00, 0x00, 0x00, 0x00, 0x00, 0x00, 0x00, 0x00, 0x00,
  0x00, 0x00, 0x00, 0x00, 0x00, 0x00, 0x00, 0x00, 0x00, 0x00, 0x00, 0x00,
  0x00, 0x00, 0x00, 0x00, 0x00, 0x00, 0x00, 0x00, 0x00, 0x00, 0x00, 0x00,
  0x00, 0x00, 0x00, 0x00, 0x00, 0x00, 0x00, 0x00, 0x00, 0x00, 0x00, 0x00,
  0x00, 0x00, 0x00, 0x00, 0x00, 0x00, 0x00, 0x00, 0x00, 0x00, 0x00, 0x00,
  0x00, 0x00, 0x00, 0x00, 0x00, 0x00, 0x00, 0x00, 0x00, 0x00, 0x00, 0x00,
  0x00, 0x00, 0x00, 0x00, 0x00, 0x00, 0x00, 0x00, 0x00, 0x00, 0x00, 0x00,
  0x00, 0x00, 0x00, 0x00, 0x00, 0x00, 0x00, 0x00, 0x00, 0x00, 0x00, 0x00,
  0x18, 0x00, 0x00, 0x00, 0x12, 0x63, 0xa6, 0x38, 0x1d, 0xfe, 0xeb, 0x38,
  0xf5, 0x3d, 0xef, 0x38, 0x6a, 0x0c, 0x1a, 0x39, 0x73, 0x44, 0xe0, 0x38,
  0xa3, 0xa0, 0x25, 0x39, 0xda, 0x00, 0x45, 0x39, 0xc1, 0x1c, 0x0f, 0x39,
  0xdb, 0xc0, 0xd6, 0x38, 0x06, 0x83, 0xcd, 0x38, 0x5b, 0xff, 0x1a, 0x39,
  0x22, 0x83, 0xf6, 0x38, 0xfb, 0x7d, 0x24, 0x39, 0xb1, 0x99, 0x1f, 0x39,
  0xb7, 0x42, 0xe9, 0x38, 0x85, 0xe6, 0x1b, 0x39, 0xe2, 0xfe, 0x23, 0x39,
  0x54, 0xef, 0xf4, 0x38, 0x8b, 0x08, 0x2f, 0x39, 0x39, 0xbc, 0x01, 0x39,
  0x09, 0x79, 0x08, 0x39, 0xd3, 0x97, 0xe6, 0x38, 0xdb, 0x8f, 0xf8, 0x38,
  0xdf, 0x4c, 0xd0, 0x38, 0x12, 0x00, 0x00, 0x00, 0x74, 0x66, 0x6c, 0x2e,
  0x70, 0x73, 0x65, 0x75, 0x64, 0x6f, 0x5f, 0x71, 0x63, 0x6f, 0x6e, 0x73,
  0x74, 0x32, 0x00, 0x00, 0x01, 0x00, 0x00, 0x00, 0x18, 0x00, 0x00, 0x00,
  0x62, 0xfe, 0xff, 0xff, 0x00, 0x00, 0x00, 0x01, 0x14, 0x00, 0x00, 0x00,
  0xa0, 0x00, 0x00, 0x00, 0x04, 0x00, 0x00, 0x00, 0x00, 0x00, 0x00, 0x09,
  0xac, 0x00, 0x00, 0x00, 0xdc, 0xfd, 0xff, 0xff, 0x08, 0x00, 0x00, 0x00,
  0x5c, 0x00, 0x00, 0x00, 0x0a, 0x00, 0x00, 0x00, 0x00, 0x00, 0x00, 0x00,
  0x00, 0x00, 0x00, 0x00, 0x00, 0x00, 0x00, 0x00, 0x00, 0x00, 0x00, 0x00,
  0x00, 0x00, 0x00, 0x00, 0x00, 0x00, 0x00, 0x00, 0x00, 0x00, 0x00, 0x00,
  0x00, 0x00, 0x00, 0x00, 0x00, 0x00, 0x00, 0x00, 0x00, 0x00, 0x00, 0x00,
  0x00, 0x00, 0x00, 0x00, 0x00, 0x00, 0x00, 0x00, 0x00, 0x00, 0x00, 0x00,
  0x00, 0x00, 0x00, 0x00, 0x00, 0x00, 0x00, 0x00, 0x00, 0x00, 0x00, 0x00,
  0x00, 0x00, 0x00, 0x00, 0x00, 0x00, 0x00, 0x00, 0x00, 0x00, 0x00, 0x00,
  0x00, 0x00, 0x00, 0x00, 0x00, 0x00, 0x00, 0x00, 0x0a, 0x00, 0x00, 0x00,
  0x36, 0x97, 0x0b, 0x3c, 0xe7, 0x53, 0x1a, 0x3c, 0x3a, 0x6a, 0x12, 0x3c,
  0xbd, 0xdb, 0xdd, 0x3b, 0x7d, 0xf9, 0x22, 0x3c, 0x1e, 0x49, 0xb9, 0x3b,
  0xcb, 0x73, 0xfd, 0x3b, 0x46, 0xf2, 0x07, 0x3c, 0x53, 0x71, 0x15, 0x3c,
  0xcd, 0x2a, 0xc0, 0x3b, 0x12, 0x00, 0x00, 0x00, 0x74, 0x66, 0x6c, 0x2e,
  0x70, 0x73, 0x65, 0x75, 0x64, 0x6f, 0x5f, 0x71, 0x63, 0x6f, 0x6e, 0x73,
  0x74, 0x31, 0x00, 0x00, 0x02, 0x00, 0x00, 0x00, 0x0a, 0x00, 0x00, 0x00,
  0x18, 0x00, 0x00, 0x00, 0x32, 0xff, 0xff, 0xff, 0x00, 0x00, 0x00, 0x01,
  0x14, 0x00, 0x00, 0x00, 0xa0, 0x00, 0x00, 0x00, 0x03, 0x00, 0x00, 0x00,
  0x00, 0x00, 0x00, 0x02, 0xac, 0x00, 0x00, 0x00, 0xac, 0xfe, 0xff, 0xff,
  0x08, 0x00, 0x00, 0x00, 0x5c, 0x00, 0x00, 0x00, 0x0a, 0x00, 0x00, 0x00,
  0x00, 0x00, 0x00, 0x00, 0x00, 0x00, 0x00, 0x00, 0x00, 0x00, 0x00, 0x00,
  0x00, 0x00, 0x00, 0x00, 0x00, 0x00, 0x00, 0x00, 0x00, 0x00, 0x00, 0x00,
  0x00, 0x00, 0x00, 0x00, 0x00, 0x00, 0x00, 0x00, 0x00, 0x00, 0x00, 0x00,
  0x00, 0x00, 0x00, 0x00, 0x00, 0x00, 0x00, 0x00, 0x00, 0x00, 0x00, 0x00,
  0x00, 0x00, 0x00, 0x00, 0x00, 0x00, 0x00, 0x00, 0x00, 0x00, 0x00, 0x00,
  0x00, 0x00, 0x00, 0x00, 0x00, 0x00, 0x00, 0x00, 0x00, 0x00, 0x00, 0x00,
  0x00, 0x00, 0x00, 0x00, 0x00, 0x00, 0x00, 0x00, 0x00, 0x00, 0x00, 0x00,
  0x0a, 0x00, 0x00, 0x00, 0xba, 0x23, 0x02, 0x39, 0xfc, 0xe0, 0x0f, 0x39,
  0x76, 0x80, 0x08, 0x39, 0x55, 0xd6, 0xce, 0x38, 0xb3, 0xf0, 0x17, 0x39,
  0x9e, 0xbd, 0xac, 0x38, 0xc8, 0x4a, 0xec, 0x38, 0xe9, 0x7b, 0xfd, 0x38,
  0x14, 0x53, 0x0b, 0x39, 0x06, 0x28, 0xb3, 0x38, 0x11, 0x00, 0x00, 0x00,
  0x74, 0x66, 0x6c, 0x2e, 0x70, 0x73, 0x65, 0x75, 0x64, 0x6f, 0x5f, 0x71,
  0x63, 0x6f, 0x6e, 0x73, 0x74, 0x00, 0x00, 0x00, 0x01, 0x00, 0x00, 0x00,
  0x0a, 0x00, 0x00, 0x00, 0x00, 0x00, 0x16, 0x00, 0x1c, 0x00, 0x18, 0x00,
  0x17, 0x00, 0x10, 0x00, 0x0c, 0x00, 0x08, 0x00, 0x00, 0x00, 0x00, 0x00,
  0x00, 0x00, 0x07, 0x00, 0x16, 0x00, 0x00, 0x00, 0x00, 0x00, 0x00, 0x01,
  0x18, 0x00, 0x00, 0x00, 0x18, 0x00, 0x00, 0x00, 0x02, 0x00, 0x00, 0x00,
  0x00, 0x00, 0x00, 0x02, 0x20, 0x00, 0x00, 0x00, 0x04, 0x00, 0x04, 0x00,
  0x04, 0x00, 0x00, 0x00, 0x0e, 0x00, 0x00, 0x00, 0x61, 0x72, 0x69, 0x74,
  0x68, 0x2e, 0x63, 0x6f, 0x6e, 0x73, 0x74, 0x61, 0x6e, 0x74, 0x00, 0x00,
  0x01, 0x00, 0x00, 0x00, 0x02, 0x00, 0x00, 0x00, 0x00, 0x00, 0x16, 0x00,
  0x20, 0x00, 0x1c, 0x00, 0x1b, 0x00, 0x14, 0x00, 0x10, 0x00, 0x0c, 0x00,
  0x00, 0x00, 0x00, 0x00, 0x08, 0x00, 0x07, 0x00, 0x16, 0x00, 0x00, 0x00,
  0x00, 0x00, 0x00, 0x01, 0x18, 0x00, 0x00, 0x00, 0x34, 0x00, 0x00, 0x00,
  0x50, 0x00, 0x00, 0x00, 0x01, 0x00, 0x00, 0x00, 0x00, 0x00, 0x00, 0x09,
  0x68, 0x00, 0x00, 0x00, 0x04, 0x00, 0x00, 0x00, 0xff, 0xff, 0xff, 0xff,
  0x20, 0x00, 0x00, 0x00, 0x20, 0x00, 0x00, 0x00, 0x03, 0x00, 0x00, 0x00,
  0x0c, 0x00, 0x0c, 0x00, 0x00, 0x00, 0x00, 0x00, 0x08, 0x00, 0x04, 0x00,
  0x0c, 0x00, 0x00, 0x00, 0x08, 0x00, 0x00, 0x00, 0x10, 0x00, 0x00, 0x00,
  0x01, 0x00, 0x00, 0x00, 0x80, 0xff, 0xff, 0xff, 0xff, 0xff, 0xff, 0xff,
  0x01, 0x00, 0x00, 0x00, 0x00, 0x00, 0x80, 0x3f, 0x1e, 0x00, 0x00, 0x00,
  0x73, 0x65, 0x72, 0x76, 0x69, 0x6e, 0x67, 0x5f, 0x64, 0x65, 0x66, 0x61,
  0x75, 0x6c, 0x74, 0x5f, 0x6b, 0x65, 0x72, 0x61, 0x73, 0x5f, 0x74, 0x65,
  0x6e, 0x73, 0x6f, 0x72, 0x3a, 0x30, 0x00, 0x00, 0x04, 0x00, 0x00, 0x00,
  0x01, 0x00, 0x00, 0x00, 0x20, 0x00, 0x00, 0x00, 0x20, 0x00, 0x00, 0x00,
  0x03, 0x00, 0x00, 0x00, 0x04, 0x00, 0x00, 0x00, 0x4c, 0x00, 0x00, 0x00,
  0x2c, 0x00, 0x00, 0x00, 0x18, 0x00, 0x00, 0x00, 0x04, 0x00, 0x00, 0x00,
  0xd0, 0xff, 0xff, 0xff, 0x19, 0x00, 0x00, 0x00, 0x02, 0x00, 0x00, 0x00,
  0x00, 0x00, 0x00, 0x19, 0xe0, 0xff, 0xff, 0xff, 0x09, 0x00, 0x00, 0x00,
  0x04, 0x00, 0x00, 0x00, 0x00, 0x00, 0x00, 0x09, 0xf0, 0xff, 0xff, 0xff,
  0x28, 0x00, 0x00, 0x00, 0x02, 0x00, 0x00, 0x00, 0x00, 0x00, 0x00, 0x28,
  0x0c, 0x00, 0x10, 0x00, 0x0f, 0x00, 0x00, 0x00, 0x08, 0x00, 0x04, 0x00,
  0x0c, 0x00, 0x00, 0x00, 0x03, 0x00, 0x00, 0x00, 0x03, 0x00, 0x00, 0x00,
  0x00, 0x00, 0x00, 0x03
};
unsigned int g_magic_wand_model_data_len = 14608;
