unsigned char g_magic_wand_model_data[] = {
  0x20, 0x00, 0x00, 0x00, 0x54, 0x46, 0x4c, 0x33, 0x00, 0x00, 0x00, 0x00,
  0x14, 0x00, 0x20, 0x00, 0x1c, 0x00, 0x18, 0x00, 0x14, 0x00, 0x10, 0x00,
  0x0c, 0x00, 0x00, 0x00, 0x08, 0x00, 0x04, 0x00, 0x14, 0x00, 0x00, 0x00,
  0x1c, 0x00, 0x00, 0x00, 0x98, 0x00, 0x00, 0x00, 0x18, 0x01, 0x00, 0x00,
  0x84, 0x0f, 0x00, 0x00, 0x94, 0x0f, 0x00, 0x00, 0xe0, 0x1c, 0x00, 0x00,
  0x03, 0x00, 0x00, 0x00, 0x01, 0x00, 0x00, 0x00, 0x10, 0x00, 0x00, 0x00,
  0x00, 0x00, 0x0a, 0x00, 0x10, 0x00, 0x0c, 0x00, 0x08, 0x00, 0x04, 0x00,
  0x0a, 0x00, 0x00, 0x00, 0x0c, 0x00, 0x00, 0x00, 0x1c, 0x00, 0x00, 0x00,
  0x3c, 0x00, 0x00, 0x00, 0x0f, 0x00, 0x00, 0x00, 0x73, 0x65, 0x72, 0x76,
  0x69, 0x6e, 0x67, 0x5f, 0x64, 0x65, 0x66, 0x61, 0x75, 0x6c, 0x74, 0x00,
  0x01, 0x00, 0x00, 0x00, 0x04, 0x00, 0x00, 0x00, 0x68, 0xff, 0xff, 0xff,
  0x0c, 0x00, 0x00, 0x00, 0x04, 0x00, 0x00, 0x00, 0x08, 0x00, 0x00, 0x00,
  0x6f, 0x75, 0x74, 0x70, 0x75, 0x74, 0x5f, 0x30, 0x00, 0x00, 0x00, 0x00,
  0x01, 0x00, 0x00, 0x00, 0x04, 0x00, 0x00, 0x00, 0x5e, 0xf0, 0xff, 0xff,
  0x04, 0x00, 0x00, 0x00, 0x0c, 0x00, 0x00, 0x00, 0x6b, 0x65, 0x72, 0x61,
  0x73, 0x5f, 0x74, 0x65, 0x6e, 0x73, 0x6f, 0x72, 0x00, 0x00, 0x00, 0x00,
  0x03, 0x00, 0x00, 0x00, 0x5c, 0x00, 0x00, 0x00, 0x2c, 0x00, 0x00, 0x00,
  0x04, 0x00, 0x00, 0x00, 0xb8, 0xff, 0xff, 0xff, 0x10, 0x00, 0x00, 0x00,
  0x04, 0x00, 0x00, 0x00, 0x13, 0x00, 0x00, 0x00, 0x43, 0x4f, 0x4e, 0x56,
  0x45, 0x52, 0x53, 0x49, 0x4f, 0x4e, 0x5f, 0x4d, 0x45, 0x54, 0x41, 0x44,
  0x41, 0x54, 0x41, 0x00, 0xdc, 0xff, 0xff, 0xff, 0x0f, 0x00, 0x00, 0x00,
  0x04, 0x00, 0x00, 0x00, 0x13, 0x00, 0x00, 0x00, 0x6d, 0x69, 0x6e, 0x5f,
  0x72, 0x75, 0x6e, 0x74, 0x69, 0x6d, 0x65, 0x5f, 0x76, 0x65, 0x72, 0x73,
  0x69, 0x6f, 0x6e, 0x00, 0x08, 0x00, 0x0c, 0x00, 0x08, 0x00, 0x04, 0x00,
  0x08, 0x00, 0x00, 0x00, 0x0e, 0x00, 0x00, 0x00, 0x04, 0x00, 0x00, 0x00,
  0x13, 0x00, 0x00, 0x00, 0x6d, 0x69, 0x6e, 0x5f, 0x72, 0x75, 0x6e, 0x74,
  0x69, 0x6d, 0x65, 0x5f, 0x76, 0x65, 0x72, 0x73, 0x69, 0x6f, 0x6e, 0x00,
  0x11, 0x00, 0x00, 0x00, 0x68, 0x0e, 0x00, 0x00, 0x60, 0x0e, 0x00, 0x00,
  0x48, 0x0e, 0x00, 0x00, 0x10, 0x0e, 0x00, 0x00, 0x10, 0x0d, 0x00, 0x00,
  0xa0, 0x0c, 0x00, 0x00, 0x70, 0x02, 0x00, 0x00, 0x30, 0x02, 0x00, 0x00,
  0xdc, 0x00, 0x00, 0x00, 0xd4, 0x00, 0x00, 0x00, 0xcc, 0x00, 0x00, 0x00,
  0xc4, 0x00, 0x00, 0x00, 0xbc, 0x00, 0x00, 0x00, 0xb4, 0x00, 0x00, 0x00,
  0x94, 0x00, 0x00, 0x00, 0x74, 0x00, 0x00, 0x00, 0x04, 0x00, 0x00, 0x00,
  0x46, 0xf1, 0xff, 0xff, 0x04, 0x00, 0x00, 0x00, 0x60, 0x00, 0x00, 0x00,
  0x0c, 0x00, 0x00, 0x00, 0x08, 0x00, 0x0e, 0x00, 0x08, 0x00, 0x04, 0x00,
  0x08, 0x00, 0x00, 0x00, 0x10, 0x00, 0x00, 0x00, 0x28, 0x00, 0x00, 0x00,
  0x00, 0x00, 0x06, 0x00, 0x08, 0x00, 0x04, 0x00, 0x06, 0x00, 0x00, 0x00,
  0x04, 0x00, 0x00, 0x00, 0x01, 0x00, 0x00, 0x00, 0xeb, 0x03, 0x00, 0x00,
  0x0c, 0x00, 0x18, 0x00, 0x14, 0x00, 0x10, 0x00, 0x0c, 0x00, 0x04, 0x00,
  0x0c, 0x00, 0x00, 0x00, 0xfe, 0xe2, 0xb9, 0x3f, 0xf3, 0x4a, 0xfa, 0xc5,
  0x02, 0x00, 0x00, 0x00, 0x02, 0x00, 0x00, 0x00, 0x04, 0x00, 0x00, 0x00,
  0x06, 0x00, 0x00, 0x00, 0x32, 0x2e, 0x31, 0x39, 0x2e, 0x30, 0x00, 0x00,
  0xb2, 0xf1, 0xff, 0xff, 0x04, 0x00, 0x00, 0x00, 0x10, 0x00, 0x00, 0x00,
  0x00, 0x00, 0x00, 0x00, 0x00, 0x00, 0x00, 0x00, 0x00, 0x00, 0x00, 0x00,
  0x00, 0x00, 0x00, 0x00, 0xce, 0xf1, 0xff, 0xff, 0x04, 0x00, 0x00, 0x00,
  0x10, 0x00, 0x00, 0x00, 0x31, 0x2e, 0x31, 0x34, 0x2e, 0x30, 0x00, 0x00,
  0x00, 0x00, 0x00, 0x00, 0x00, 0x00, 0x00, 0x00, 0xec, 0xe5, 0xff, 0xff,
  0xf0, 0xe5, 0xff, 0xff, 0xf4, 0xe5, 0xff, 0xff, 0xf8, 0xe5, 0xff, 0xff,
  0xfc, 0xe5, 0xff, 0xff, 0xfe, 0xf1, 0xff, 0xff, 0x04, 0x00, 0x00, 0x00,
  0x44, 0x01, 0x00, 0x00, 0xb6, 0xc0, 0xd0, 0xc0, 0xbd, 0xc7, 0xb1, 0xda,
  0x81, 0x24, 0xe8, 0xef, 0x1e, 0x24, 0xce, 0xd7, 0x09, 0xea, 0x18, 0x02,
  0xc4, 0x1f, 0x06, 0x0e, 0x0f, 0x0d, 0x08, 0xf9, 0x09, 0x0e, 0x0c, 0xfd,
  0x10, 0x2a, 0xf9, 0x06, 0xe8, 0x0b, 0x06, 0x26, 0xf9, 0x04, 0x25, 0xfa,
  0x05, 0xb0, 0xe9, 0xf7, 0xaa, 0xd1, 0x02, 0x81, 0x05, 0x16, 0x8e, 0x15,
  0x81, 0xcf, 0x0c, 0xa5, 0x21, 0xe4, 0xea, 0x03, 0xee, 0x0e, 0xe0, 0xe5,
  0x15, 0x25, 0xe9, 0x0b, 0x01, 0xfe, 0x09, 0xfd, 0x09, 0x0c, 0x0e, 0xfe,
  0x0c, 0xb8, 0x0c, 0xfc, 0x37, 0xe8, 0x1d, 0x38, 0xbf, 0x18, 0xa0, 0x05,
  0x04, 0x52, 0x28, 0xfa, 0xaf, 0xf8, 0xee, 0xe5, 0x03, 0xb2, 0x01, 0x27,
  0x82, 0x81, 0x13, 0xd2, 0x13, 0xe2, 0x2a, 0xfb, 0x01, 0x0e, 0x08, 0xf9,
  0x19, 0x9b, 0xd5, 0x23, 0xf2, 0x32, 0xbf, 0xe5, 0xcb, 0x16, 0x93, 0xe9,
  0x0f, 0x81, 0x07, 0xde, 0xaf, 0xf4, 0x05, 0xdc, 0x14, 0x03, 0xed, 0x0a,
  0x04, 0x21, 0xd2, 0x99, 0xfa, 0x0b, 0x12, 0xfa, 0x0d, 0x20, 0x24, 0xe7,
  0x81, 0x04, 0x03, 0x1c, 0x14, 0xf5, 0x1d, 0x1e, 0xf0, 0xc7, 0xff, 0x0a,
  0x81, 0xe3, 0x09, 0x09, 0xf6, 0x05, 0x0d, 0x0b, 0xff, 0x92, 0xf3, 0x0b,
  0x0d, 0xff, 0x04, 0x13, 0x11, 0xf9, 0x9e, 0xfe, 0x02, 0x09, 0x05, 0x02,
  0x0c, 0xd4, 0xb6, 0x13, 0x10, 0xf6, 0xd5, 0x0f, 0x14, 0xd0, 0xbf, 0x1f,
  0x81, 0x02, 0xfd, 0x84, 0x18, 0x0f, 0xac, 0xe9, 0x1c, 0xa4, 0x07, 0xef,
  0xbf, 0x2a, 0xd6, 0x01, 0x15, 0x03, 0xa8, 0x05, 0xdd, 0xb5, 0x03, 0x10,
  0x81, 0x04, 0x09, 0x09, 0xed, 0xef, 0x05, 0x21, 0xfc, 0x00, 0xfb, 0x02,
  0x17, 0xfc, 0x01, 0x0b, 0xfa, 0x02, 0xff, 0xfb, 0xed, 0xfb, 0xc2, 0xf4,
  0x0b, 0x81, 0x24, 0xb5, 0x35, 0xea, 0x20, 0x31, 0xee, 0xf0, 0xf2, 0xd8,
  0xcc, 0x1e, 0xf5, 0xd8, 0x2a, 0xe6, 0xe1, 0x20, 0xd4, 0xfb, 0x7f, 0xe8,
  0x43, 0x66, 0xd9, 0x66, 0x36, 0xd0, 0x72, 0x17, 0x12, 0x4d, 0x37, 0x1d,
  0x1f, 0x18, 0xf3, 0x42, 0x0f, 0x07, 0x32, 0x0d, 0x2d, 0x2e, 0x2e, 0x14,
  0x69, 0xbb, 0x08, 0x01, 0xb5, 0x0c, 0x01, 0xb5, 0x0c, 0xfe, 0xbe, 0x00,
  0x03, 0xa0, 0x12, 0x05, 0x81, 0x10, 0xfe, 0xe4, 0xcf, 0x0d, 0xf0, 0xce,
  0xca, 0xe2, 0xe3, 0xff, 0x4e, 0xf3, 0xff, 0xff, 0x04, 0x00, 0x00, 0x00,
  0x30, 0x00, 0x00, 0x00, 0xa1, 0xff, 0xff, 0xff, 0x12, 0x01, 0x00, 0x00,
  0xae, 0xfe, 0xff, 0xff, 0xbb, 0xf9, 0xff, 0xff, 0x62, 0x00, 0x00, 0x00,
  0x93, 0xf1, 0xff, 0xff, 0x96, 0xfa, 0xff, 0xff, 0x7e, 0xff, 0xff, 0xff,
  0xb7, 0xff, 0xff, 0xff, 0x17, 0xff, 0xff, 0xff, 0x6b, 0xd0, 0xff, 0xff,
  0x05, 0xfd, 0xff, 0xff, 0x8a, 0xf3, 0xff, 0xff, 0x04, 0x00, 0x00, 0x00,
  0x20, 0x0a, 0x00, 0x00, 0x00, 0x01, 0xcd, 0x01, 0xe0, 0xfa, 0xed, 0xd5,
  0x0d, 0x31, 0x11, 0xfc, 0xe9, 0xf7, 0xcc, 0xff, 0xc2, 0xe9, 0xf9, 0xcd,
  0x09, 0x51, 0x2b, 0x06, 0xea, 0xf7, 0xe0, 0x04, 0xcf, 0xdf, 0xfe, 0xe1,
  0x13, 0x35, 0x15, 0xf2, 0x05, 0x06, 0xdc, 0x00, 0xdd, 0x02, 0x0a, 0xde,
  0x0e, 0x45, 0x1e, 0x13, 0xef, 0xf8, 0xd2, 0x00, 0xa0, 0x04, 0x1a, 0xd1,
  0x1d, 0x7f, 0x26, 0xf4, 0xf1, 0xff, 0xe3, 0x04, 0xb8, 0xeb, 0x09, 0xea,
  0x1a, 0x44, 0x1e, 0xe4, 0x05, 0xf7, 0xee, 0x05, 0xe0, 0x14, 0x0f, 0xfa,
  0x0b, 0x42, 0x13, 0x12, 0xfb, 0xf2, 0xe7, 0xfa, 0xac, 0x17, 0x08, 0xe9,
  0x0e, 0x47, 0x1d, 0x08, 0xf9, 0xf9, 0xf4, 0xf7, 0xc3, 0x02, 0xf6, 0xea,
  0x13, 0x2d, 0x11, 0xf1, 0xb7, 0xff, 0x0c, 0x01, 0xee, 0x01, 0xca, 0xd9,
  0x0b, 0xd3, 0x30, 0x0d, 0xba, 0xf3, 0x41, 0x03, 0xe5, 0xf9, 0xcb, 0xdf,
  0xf2, 0xa5, 0x3b, 0x1e, 0xc2, 0xe2, 0x17, 0x02, 0xe0, 0x1c, 0xf8, 0xe2,
  0xfb, 0xb1, 0x2c, 0x17, 0xd6, 0x11, 0x4a, 0x05, 0x9c, 0xf0, 0xc3, 0x16,
  0x1d, 0xdf, 0x44, 0xf8, 0xc6, 0x05, 0x62, 0x01, 0x81, 0x00, 0xd8, 0x00,
  0x20, 0xc6, 0x4b, 0xfb, 0xb4, 0xdd, 0x4c, 0x01, 0x98, 0x05, 0xe7, 0x02,
  0x03, 0xbb, 0x3e, 0xcf, 0xf6, 0x03, 0x3f, 0xf5, 0xb9, 0x0e, 0xf0, 0xff,
  0x1a, 0x01, 0x23, 0xf8, 0xf2, 0xfc, 0x4c, 0xee, 0x9d, 0x17, 0xba, 0x16,
  0x08, 0xe0, 0x28, 0xd1, 0xd6, 0xf9, 0x2d, 0xe8, 0xaf, 0x14, 0xf2, 0xee,
  0x1b, 0xe7, 0x1c, 0xbe, 0x58, 0x05, 0xfb, 0xcf, 0xef, 0x87, 0xc3, 0xd2,
  0xa2, 0x97, 0xcb, 0xd5, 0x7f, 0x38, 0x12, 0xe3, 0x38, 0xd4, 0xdf, 0xda,
  0xf9, 0xa4, 0xb7, 0x05, 0x5f, 0xf8, 0x20, 0xf9, 0x04, 0xff, 0xd8, 0xcf,
  0xcb, 0x99, 0xa5, 0xdb, 0x26, 0x44, 0xe2, 0xb9, 0x74, 0x02, 0x09, 0xb0,
  0xa7, 0xa7, 0xca, 0xd0, 0x71, 0x40, 0xd5, 0xd3, 0x76, 0x15, 0xf8, 0xc5,
  0xe0, 0x96, 0xbf, 0x16, 0x5e, 0x31, 0xdb, 0xe9, 0x61, 0x31, 0xef, 0xc0,
  0xbe, 0xcf, 0x9e, 0xfe, 0xe1, 0x31, 0xf0, 0xb2, 0x38, 0xf5, 0x32, 0x91,
  0xa4, 0x9e, 0xea, 0xea, 0x00, 0x5f, 0xf8, 0xb5, 0x30, 0x28, 0x1d, 0x9f,
  0xd6, 0xdf, 0xe6, 0x24, 0x8c, 0x35, 0xc2, 0xbc, 0x60, 0x41, 0xf5, 0xb0,
  0xb8, 0xff, 0xbd, 0x1a, 0xff, 0x0f, 0xe6, 0xe5, 0xf5, 0x0e, 0x37, 0x16,
  0xef, 0xfc, 0x02, 0x89, 0x0b, 0x24, 0xf2, 0xd5, 0xe4, 0x2e, 0x4d, 0x1b,
  0xbc, 0xdf, 0x13, 0xb1, 0x0d, 0x13, 0x05, 0xe1, 0xe6, 0x17, 0x34, 0xf8,
  0xda, 0xbf, 0x07, 0xe4, 0xf9, 0x06, 0xd5, 0xd5, 0xfb, 0x39, 0x33, 0xfa,
  0xcf, 0xeb, 0x10, 0x81, 0xfb, 0x2b, 0xdc, 0xcc, 0xe4, 0x5b, 0x76, 0x02,
  0xa4, 0xd9, 0x0c, 0xa2, 0x03, 0x24, 0x06, 0xd0, 0xcd, 0x45, 0x49, 0xf3,
  0xc2, 0xd5, 0x0b, 0xbb, 0xfe, 0x0c, 0xe8, 0xd8, 0x0a, 0x13, 0x1e, 0xe6,
  0xd1, 0xf2, 0x03, 0xa8, 0x04, 0x1d, 0xe4, 0xd7, 0xe1, 0x45, 0x43, 0xec,
  0xc8, 0xf1, 0x0e, 0xb7, 0xfb, 0x17, 0x08, 0xde, 0xe2, 0x3f, 0x3b, 0xde,
  0xe7, 0xe8, 0x08, 0xfa, 0x06, 0x05, 0xe7, 0xf5, 0xfc, 0x2f, 0x41, 0x0d,
  0xe3, 0xf1, 0xe6, 0xd8, 0x05, 0x1b, 0xf6, 0xed, 0x03, 0x42, 0x53, 0x0f,
  0xd2, 0xfd, 0xfa, 0xd8, 0x15, 0x15, 0xee, 0xf5, 0xfb, 0x1b, 0x3c, 0x12,
  0xe1, 0xed, 0xf7, 0xe7, 0xfb, 0x08, 0xcd, 0xf1, 0x0f, 0x44, 0x47, 0xf7,
  0xce, 0xf1, 0xeb, 0xbc, 0xf6, 0x0d, 0xd1, 0xe5, 0x06, 0x54, 0x7f, 0xfd,
  0xcc, 0xf2, 0xf9, 0xc3, 0x08, 0x12, 0xd9, 0xe9, 0xfc, 0x3d, 0x4e, 0x04,
  0xd9, 0xf8, 0xf9, 0xd2, 0xfc, 0x0c, 0xd8, 0xee, 0x08, 0x1e, 0x2e, 0xf5,
  0xdb, 0xfb, 0xf9, 0xce, 0xff, 0x15, 0xcd, 0xef, 0x0c, 0x3e, 0x4a, 0xf0,
  0xe1, 0xf7, 0x02, 0xc1, 0x05, 0x0f, 0xdd, 0xe9, 0xf2, 0x2a, 0x41, 0xfb,
  0xde, 0xfb, 0x01, 0xe1, 0xcf, 0xf3, 0xc9, 0x05, 0x03, 0xfc, 0xfa, 0xe4,
  0x2c, 0x4c, 0x06, 0xf8, 0xd7, 0xf0, 0xd7, 0x1f, 0x03, 0xf4, 0xfa, 0xf1,
  0x40, 0x5a, 0xff, 0x0d, 0xf4, 0xf1, 0xf6, 0x12, 0x01, 0xfd, 0x01, 0xf9,
  0x26, 0x37, 0x02, 0x0e, 0xca, 0xee, 0xc1, 0x15, 0x0a, 0xed, 0xfe, 0xe0,
  0x44, 0x58, 0x01, 0x03, 0xcf, 0xcc, 0xc5, 0x22, 0x08, 0xe4, 0x00, 0x00,
  0x50, 0x7f, 0x00, 0x21, 0xe0, 0xde, 0xdc, 0x21, 0x13, 0xf3, 0xff, 0xfd,
  0x35, 0x39, 0x02, 0x26, 0xdd, 0xe0, 0xe4, 0x09, 0x00, 0xf3, 0xfb, 0xeb,
  0x2b, 0x46, 0x03, 0x09, 0xcd, 0xd2, 0xc3, 0x20, 0x09, 0xed, 0x03, 0xef,
  0x46, 0x3f, 0x09, 0x23, 0xe0, 0xd8, 0xee, 0x18, 0x0d, 0xed, 0x02, 0xfe,
  0x35, 0x19, 0x09, 0x2a, 0x24, 0x02, 0x36, 0x0e, 0xee, 0xeb, 0xed, 0x29,
  0x19, 0xec, 0xf7, 0x2b, 0x1b, 0xf7, 0x43, 0x06, 0xf3, 0xd8, 0xd7, 0x0b,
  0x0a, 0xde, 0xfd, 0x50, 0x0a, 0x0b, 0x3e, 0x07, 0xfd, 0xe0, 0xbc, 0xf9,
  0x16, 0xf3, 0xfa, 0x3c, 0x1d, 0x00, 0x35, 0xff, 0xea, 0xd3, 0xe1, 0x2c,
  0x01, 0xe8, 0xfe, 0x54, 0x2e, 0x00, 0x5e, 0x13, 0xe7, 0xcb, 0xbb, 0x15,
  0x15, 0xdc, 0xf9, 0x7f, 0x10, 0xff, 0x40, 0xf7, 0x00, 0xe0, 0xcf, 0xfb,
  0xff, 0xe3, 0xf4, 0x65, 0x23, 0x0a, 0x35, 0x04, 0xe1, 0xdb, 0xd8, 0x18,
  0x05, 0xf1, 0x0f, 0x30, 0x1b, 0x04, 0x4b, 0x03, 0xf3, 0xda, 0xd1, 0x11,
  0xfd, 0xd6, 0x08, 0x59, 0x0b, 0xff, 0x2f, 0x05, 0xf2, 0xe6, 0xd5, 0xf9,
  0x02, 0xf3, 0xfe, 0x37, 0x41, 0x08, 0x44, 0xf1, 0x06, 0xc0, 0xdb, 0xf2,
  0xf6, 0xe9, 0x06, 0x15, 0x59, 0x30, 0x53, 0xed, 0x0c, 0xbd, 0xcb, 0xe6,
  0xf4, 0xe2, 0x07, 0x34, 0x2b, 0x29, 0x2a, 0xf2, 0x02, 0xd2, 0xc6, 0xe7,
  0x04, 0xf6, 0xfc, 0x20, 0x67, 0x3a, 0x4b, 0xda, 0x02, 0xe7, 0xe8, 0xe1,
  0xe9, 0xcc, 0xf1, 0x23, 0x7f, 0x35, 0x4d, 0xe4, 0x0a, 0xd3, 0xd0, 0xdd,
  0xf5, 0xbb, 0xf0, 0x56, 0x38, 0x29, 0x27, 0xe8, 0x0c, 0xcc, 0xd5, 0xe3,
  0xe7, 0xd8, 0xf8, 0x49, 0x36, 0x2e, 0x21, 0xe0, 0xfd, 0xfb, 0xef, 0xdc,
  0xe8, 0xe0, 0xf6, 0x18, 0x3b, 0x3e, 0x47, 0xd7, 0x0e, 0xe1, 0xee, 0xd6,
  0xd4, 0xc6, 0xf8, 0x43, 0x0d, 0x28, 0x25, 0xf2, 0x0c, 0xd2, 0xda, 0xe6,
  0xe3, 0xed, 0xf6, 0x32, 0x28, 0x08, 0x35, 0x18, 0xdf, 0xf7, 0x13, 0x49,
  0xff, 0xbc, 0xfa, 0xf6, 0xf4, 0xf8, 0x64, 0x15, 0xe2, 0xef, 0x01, 0x5a,
  0xfe, 0xa5, 0xf9, 0xeb, 0xe5, 0xc1, 0x2e, 0x10, 0xf7, 0x04, 0x06, 0x1d,
  0xee, 0x9b, 0xe7, 0xd1, 0x22, 0x1b, 0x59, 0x24, 0xca, 0xf9, 0xf9, 0x6c,
  0xfd, 0xc2, 0xfe, 0xed, 0x0d, 0x05, 0x73, 0x2a, 0xdc, 0xf6, 0xfb, 0x7f,
  0xfc, 0xa4, 0xfe, 0xdc, 0xef, 0xc6, 0x46, 0x17, 0xec, 0x01, 0x03, 0x42,
  0xf0, 0xac, 0xee, 0xc7, 0x13, 0x1d, 0x36, 0x1e, 0xe0, 0xfb, 0xf7, 0x41,
  0x04, 0xe2, 0x04, 0xf9, 0xff, 0x0d, 0x4f, 0x1c, 0xe7, 0xeb, 0xf6, 0x64,
  0xe0, 0xca, 0xf4, 0xd7, 0xfe, 0xdf, 0x1f, 0x12, 0xf7, 0xf0, 0x05, 0x2d,
  0xdf, 0xc6, 0xe3, 0xd1, 0xea, 0xde, 0xcd, 0x0c, 0x33, 0x18, 0x0a, 0xf5,
  0x0b, 0x59, 0xe7, 0xed, 0xf6, 0xda, 0xb6, 0x1b, 0x44, 0x3e, 0x20, 0xee,
  0x2e, 0x5e, 0xec, 0xdf, 0xf4, 0xeb, 0xc1, 0x0b, 0x20, 0x39, 0x14, 0x0a,
  0x2f, 0x42, 0xf8, 0xdb, 0xfc, 0xde, 0xd6, 0x0c, 0x7f, 0x24, 0x11, 0xea,
  0x0d, 0x45, 0xe4, 0xe5, 0xf9, 0xdd, 0xbf, 0x0f, 0x77, 0x3f, 0x2a, 0xe9,
  0x20, 0x6c, 0xe3, 0xe2, 0xf2, 0xdb, 0xb2, 0x0d, 0x55, 0x33, 0x2c, 0xfa,
  0x36, 0x4b, 0xf3, 0xf3, 0xf5, 0xe0, 0xee, 0x10, 0x4d, 0x18, 0x1c, 0x03,
  0x07, 0xe0, 0xe5, 0x00, 0xf9, 0xd9, 0xc9, 0x18, 0x5e, 0x39, 0x31, 0xec,
  0x25, 0x33, 0xf1, 0xec, 0xed, 0xee, 0xcf, 0x0c, 0x40, 0x21, 0x33, 0x04,
  0x38, 0x2d, 0xf7, 0xf6, 0x3d, 0x2e, 0x31, 0xef, 0x0d, 0xd4, 0xdd, 0xf0,
  0xf6, 0xf6, 0x05, 0x0f, 0x61, 0x32, 0x43, 0xf1, 0x14, 0xc9, 0xcf, 0xdf,
  0xec, 0xf8, 0x04, 0x2c, 0x32, 0x31, 0x2a, 0xee, 0x09, 0xd0, 0xcd, 0xe8,
  0xf3, 0x0c, 0xfc, 0x19, 0x58, 0x3c, 0x34, 0xe0, 0x10, 0xe9, 0xee, 0xf2,
  0xfa, 0xde, 0xf6, 0x36, 0x7f, 0x45, 0x26, 0xdc, 0x0d, 0xcd, 0xd7, 0xec,
  0xec, 0xf3, 0xee, 0x42, 0x43, 0x2d, 0x1a, 0xe8, 0x11, 0xda, 0xd9, 0xe2,
  0xec, 0xee, 0xeb, 0x38, 0x35, 0x2f, 0x1d, 0xd6, 0x03, 0xf8, 0xee, 0xdd,
  0xe4, 0xf2, 0x02, 0x0f, 0x48, 0x45, 0x1c, 0xd9, 0x0b, 0xd6, 0xe7, 0xdb,
  0xdf, 0xd9, 0xf6, 0x29, 0x1a, 0x28, 0x19, 0xe8, 0x11, 0xd6, 0xdf, 0xdf,
  0xe6, 0x00, 0xf4, 0x26, 0x46, 0x16, 0x10, 0xe9, 0xf7, 0xd8, 0xf0, 0xeb,
  0xd7, 0xbd, 0xdf, 0xef, 0x4e, 0x31, 0x4c, 0xf3, 0xf3, 0xe6, 0xed, 0xea,
  0xef, 0xaf, 0xe3, 0x06, 0x3e, 0x1a, 0x23, 0x00, 0x0c, 0xf8, 0xe5, 0xee,
  0xd0, 0xa4, 0xdb, 0xfb, 0x4c, 0x2e, 0x2b, 0xef, 0x07, 0x03, 0xfc, 0xe5,
  0xd4, 0xa9, 0xec, 0xe2, 0x65, 0x2b, 0x27, 0xfe, 0x11, 0xfc, 0xfd, 0xeb,
  0xdd, 0x84, 0xe2, 0x14, 0x49, 0x08, 0x04, 0x04, 0xfe, 0x0a, 0xf9, 0xeb,
  0xc8, 0x81, 0xd6, 0x04, 0x3e, 0x36, 0x24, 0xe9, 0x0d, 0xfd, 0x02, 0xeb,
  0xd7, 0xa8, 0xf7, 0xeb, 0x3f, 0x38, 0x17, 0xef, 0xf2, 0x07, 0x01, 0xdf,
  0xcb, 0x95, 0xec, 0x0d, 0x17, 0x13, 0xfd, 0xfd, 0xff, 0x05, 0xed, 0xf0,
  0xc9, 0x9b, 0xdd, 0x19, 0x03, 0xe7, 0x15, 0x28, 0xf9, 0x0b, 0x29, 0x65,
  0x33, 0xf5, 0xf9, 0x14, 0xf1, 0xcb, 0x23, 0x35, 0xfa, 0x01, 0x23, 0x61,
  0x26, 0xdd, 0xe6, 0x2a, 0xf7, 0xab, 0x1a, 0x2a, 0xfa, 0xf0, 0xe6, 0x10,
  0xff, 0xd6, 0xd8, 0x23, 0xda, 0xe1, 0x06, 0x47, 0x00, 0xf6, 0x18, 0x7f,
  0x45, 0xf5, 0xf0, 0x09, 0xd4, 0xcf, 0x31, 0x4f, 0x14, 0xe2, 0xfa, 0x78,
  0x23, 0xfa, 0xe5, 0x32, 0xdb, 0xab, 0x27, 0x43, 0x27, 0xf3, 0xea, 0x3c,
  0x18, 0xfd, 0xdf, 0x1c, 0xfc, 0xe4, 0x15, 0x33, 0x15, 0xf2, 0x0c, 0x4d,
  0x31, 0xfa, 0xf7, 0xef, 0xeb, 0xcb, 0x13, 0x4c, 0x16, 0xe5, 0xed, 0x65,
  0x15, 0xf0, 0xe9, 0x0c, 0xfe, 0xd1, 0xfc, 0x31, 0x13, 0xf4, 0xd6, 0x2b,
  0xfc, 0xfa, 0xd6, 0xfe, 0xed, 0x0c, 0xcb, 0xe5, 0xd5, 0xf9, 0x10, 0xd0,
  0xfb, 0xfb, 0x2d, 0xb1, 0xef, 0x3a, 0xbf, 0xce, 0x8b, 0x01, 0x23, 0xc9,
  0xce, 0xfe, 0x45, 0xde, 0xe7, 0x2b, 0xf4, 0xe3, 0xaf, 0xda, 0x04, 0xb7,
  0xda, 0x09, 0x25, 0xff, 0xee, 0x20, 0xc4, 0xdd, 0xe6, 0x27, 0x2c, 0xe7,
  0xe9, 0xe0, 0x40, 0xa7, 0xe3, 0x47, 0xc4, 0xd3, 0x8a, 0x2d, 0x7f, 0xda,
  0xc6, 0xf5, 0x5b, 0x97, 0xed, 0x41, 0x06, 0xcf, 0xac, 0x05, 0x2c, 0xc2,
  0xe5, 0x00, 0x39, 0xc5, 0xfe, 0x19, 0xf0, 0xf6, 0xfb, 0x21, 0x19, 0xf7,
  0xe4, 0xf4, 0x1a, 0xce, 0xf7, 0x22, 0xfb, 0xde, 0x9c, 0x43, 0x52, 0xe9,
  0xe7, 0xe9, 0x30, 0xac, 0xf4, 0x1d, 0x12, 0xf2, 0xd6, 0x17, 0x15, 0xd3,
  0xf4, 0x00, 0x1e, 0xe4, 0x16, 0xe5, 0xdd, 0xf9, 0x4b, 0x3b, 0x29, 0xff,
  0xee, 0x2f, 0xbe, 0xd8, 0x19, 0xf3, 0xce, 0x02, 0x6c, 0x62, 0x2d, 0xfd,
  0xf9, 0x2d, 0xde, 0xd4, 0x15, 0xfb, 0xd2, 0x05, 0x2e, 0x45, 0x30, 0x10,
  0x1a, 0x1f, 0xef, 0xe1, 0x10, 0xf1, 0xcc, 0xfa, 0x69, 0x56, 0x2e, 0xf3,
  0xed, 0x3d, 0xd1, 0xba, 0x13, 0xf2, 0xa7, 0xed, 0x7f, 0x7d, 0x49, 0xf9,
  0x05, 0x34, 0xda, 0xc1, 0x10, 0xf9, 0xbb, 0xf1, 0x50, 0x57, 0x3c, 0xfb,
  0x1b, 0x17, 0xec, 0xb5, 0x03, 0xff, 0xd6, 0xf6, 0x45, 0x28, 0x2f, 0xf6,
  0xff, 0x2b, 0xe9, 0xd0, 0x0c, 0x01, 0xb0, 0xf5, 0x67, 0x60, 0x47, 0xed,
  0x19, 0x2d, 0xf2, 0xba, 0xf9, 0x0a, 0xc2, 0xec, 0x39, 0x56, 0x39, 0x02,
  0x23, 0x16, 0xef, 0xcf, 0xd0, 0xf1, 0x0b, 0x17, 0xfc, 0xe9, 0xf7, 0x13,
  0x0c, 0xfa, 0x05, 0x2f, 0xd8, 0xe2, 0x26, 0x27, 0xdf, 0xc6, 0xea, 0x19,
  0x1e, 0x00, 0x0a, 0x54, 0xf5, 0xf2, 0x25, 0x22, 0xf5, 0xee, 0xeb, 0x07,
  0x08, 0xdd, 0x10, 0x3e, 0xbe, 0xd8, 0x06, 0x26, 0xe4, 0xce, 0xe4, 0x24,
  0x38, 0x0b, 0x14, 0x48, 0xca, 0xdb, 0x3d, 0x39, 0xb7, 0xaf, 0xdf, 0x2b,
  0x46, 0xf8, 0x1c, 0x7f, 0xe9, 0xe3, 0x27, 0x22, 0xce, 0xdb, 0xe6, 0x13,
  0x25, 0xfe, 0x14, 0x4f, 0xde, 0xf2, 0x09, 0x0c, 0xea, 0xdc, 0xfa, 0x10,
  0x10, 0x0d, 0x17, 0x19, 0xe7, 0xe0, 0x18, 0x19, 0xb1, 0xda, 0xec, 0x10,
  0x2b, 0x09, 0x1a, 0x45, 0xed, 0xe8, 0x08, 0x12, 0xc8, 0xf1, 0xf5, 0x07,
  0x16, 0x07, 0x0c, 0x39, 0x47, 0xd6, 0xe3, 0xf4, 0x1c, 0xe0, 0xd7, 0xe4,
  0xd1, 0xb5, 0xc1, 0xf1, 0x4a, 0x15, 0x06, 0xff, 0x33, 0xf9, 0xe5, 0xd4,
  0x12, 0xe0, 0xab, 0xfb, 0x36, 0xd8, 0x08, 0x09, 0x23, 0x21, 0xd3, 0xc9,
  0x09, 0xca, 0xbd, 0xd6, 0xe0, 0x12, 0xea, 0xf6, 0x71, 0x0b, 0x0d, 0xbe,
  0xc2, 0xe6, 0xc2, 0xef, 0x09, 0x16, 0xf0, 0xf2, 0x77, 0x22, 0xe7, 0xd8,
  0xfe, 0xe9, 0xb6, 0x11, 0xdb, 0xed, 0xd9, 0xf9, 0x68, 0x3b, 0xdc, 0xbf,
  0xfc, 0xe6, 0xb7, 0xe6, 0xdc, 0x0a, 0xf9, 0xc9, 0x5e, 0xfa, 0x0c, 0xcc,
  0xad, 0xb6, 0xdf, 0x0d, 0xed, 0x2b, 0x05, 0xc4, 0x36, 0x1f, 0xfa, 0xca,
  0xe6, 0xee, 0xd7, 0xfd, 0x81, 0x0b, 0xbd, 0xcd, 0x35, 0x30, 0xda, 0xb9,
  0xe7, 0x04, 0xdc, 0xee, 0x9b, 0xc7, 0xda, 0x1f, 0x01, 0x07, 0x26, 0x2f,
  0x29, 0x21, 0x06, 0x1a, 0xb1, 0xc3, 0xd6, 0x40, 0x05, 0x05, 0x26, 0x47,
  0x33, 0x37, 0x03, 0x24, 0xd1, 0xcc, 0xe6, 0x2d, 0xf7, 0x08, 0x1d, 0x2f,
  0x1a, 0x19, 0xfc, 0x22, 0x81, 0xbe, 0xbf, 0x34, 0x01, 0xfd, 0x35, 0x2b,
  0x5b, 0x37, 0xff, 0xf6, 0x8f, 0x9f, 0xbd, 0x5a, 0x12, 0xf5, 0x43, 0x53,
  0x5c, 0x48, 0x0c, 0x19, 0xbe, 0xb5, 0xc8, 0x56, 0x0c, 0xf7, 0x2e, 0x5c,
  0x3d, 0x21, 0x02, 0x1c, 0xb0, 0xbc, 0xb3, 0x19, 0xf0, 0xd8, 0x2b, 0x0f,
  0x14, 0x2c, 0xea, 0xd8, 0xbc, 0xb7, 0x98, 0x53, 0x0e, 0xd5, 0x2b, 0x4a,
  0x4a, 0x26, 0x03, 0xeb, 0xe5, 0xb9, 0xb6, 0x3d, 0x13, 0xde, 0x18, 0x39,
  0x23, 0x0a, 0xf9, 0x01, 0xfd, 0x0b, 0xf2, 0xd4, 0x04, 0x2c, 0x2f, 0xcb,
  0xdd, 0x09, 0xfd, 0xa9, 0x07, 0x18, 0xef, 0xce, 0x16, 0x62, 0x56, 0xcc,
  0xca, 0x12, 0x02, 0xd2, 0x0d, 0x1f, 0x0b, 0xd9, 0x15, 0x2d, 0x2f, 0xcf,
  0xf0, 0x04, 0x10, 0xfd, 0xed, 0xfa, 0xdf, 0xd0, 0xf9, 0x33, 0x20, 0xce,
  0xda, 0xf8, 0x10, 0x94, 0x07, 0x23, 0xd8, 0xc8, 0x12, 0x7f, 0x5c, 0xcc,
  0xbf, 0x04, 0x1c, 0xd2, 0xfb, 0x34, 0x0d, 0xc7, 0x0a, 0x58, 0x5a, 0xc6,
  0xe6, 0xf0, 0x06, 0xe0, 0x01, 0x11, 0xf6, 0xd0, 0x14, 0x24, 0x1d, 0xdb,
  0xe2, 0xf7, 0x0c, 0xb3, 0x00, 0x10, 0xfc, 0xda, 0xfe, 0x55, 0x4b, 0xcd,
  0xe3, 0xfa, 0x14, 0xce, 0xf2, 0x15, 0x13, 0xda, 0x0c, 0x44, 0x49, 0xd6,
  0x01, 0xee, 0x12, 0x08, 0x07, 0xb6, 0xcf, 0xe7, 0xdf, 0xc4, 0xce, 0xd8,
  0xae, 0xdb, 0xde, 0x00, 0x29, 0xed, 0xf0, 0xfd, 0x23, 0x03, 0xe6, 0xda,
  0x0e, 0xdd, 0xd0, 0xf1, 0x18, 0xdf, 0x12, 0xf3, 0x33, 0x02, 0xb0, 0xb3,
  0xf1, 0xd3, 0xe7, 0xd1, 0xc3, 0x08, 0xdf, 0xed, 0x29, 0xee, 0xfd, 0xce,
  0xba, 0xeb, 0xe8, 0x16, 0x01, 0x1a, 0xf0, 0xf6, 0x2b, 0x14, 0xf7, 0xe3,
  0xf9, 0xec, 0xeb, 0x0d, 0xc3, 0x03, 0xe6, 0xed, 0x33, 0xfa, 0xda, 0xca,
  0xf2, 0x0b, 0xdf, 0xd1, 0xd0, 0x09, 0xf0, 0xe5, 0x06, 0xd2, 0x0a, 0xb5,
  0xb0, 0xbd, 0xe9, 0x2b, 0xce, 0x2f, 0xfe, 0xde, 0x01, 0xf1, 0xe9, 0xe9,
  0xf1, 0xf6, 0xf1, 0x0e, 0x81, 0xed, 0xc2, 0xd7, 0x27, 0xe2, 0xb9, 0xa9,
  0xed, 0x02, 0xe3, 0xe2, 0xfc, 0x08, 0xfd, 0x0c, 0xdb, 0x13, 0x3a, 0x2c,
  0x07, 0xda, 0x1e, 0xc3, 0xdf, 0x06, 0x1a, 0x0a, 0xb1, 0x16, 0x4b, 0x4b,
  0xdf, 0xb6, 0x25, 0xae, 0xd6, 0xf4, 0x02, 0x0c, 0xc1, 0x18, 0x2c, 0x18,
  0xe9, 0xad, 0x09, 0xc3, 0x0c, 0x11, 0x11, 0xf7, 0xbe, 0x13, 0x3d, 0x4a,
  0xe9, 0xdb, 0x31, 0x99, 0xe7, 0x15, 0x20, 0xf2, 0x81, 0x12, 0x4c, 0x42,
  0xd0, 0xb1, 0x35, 0x91, 0xec, 0x06, 0x02, 0x0c, 0x92, 0x11, 0x28, 0x33,
  0xe2, 0xbf, 0x24, 0x96, 0x05, 0x18, 0xf6, 0x03, 0xb0, 0xfb, 0x17, 0x1f,
  0xcc, 0xfc, 0x0b, 0xbb, 0x03, 0x1b, 0x0f, 0xed, 0x93, 0x13, 0x28, 0x24,
  0xbb, 0xe7, 0x1c, 0x98, 0xfb, 0x06, 0x0b, 0x00, 0xac, 0x0d, 0x21, 0x02,
  0xe7, 0xdf, 0x0c, 0xbb, 0x0c, 0xb7, 0xcb, 0xe9, 0x22, 0xba, 0xb3, 0xdd,
  0xe9, 0x14, 0xdf, 0xfb, 0x34, 0xe5, 0xf3, 0xfe, 0x53, 0xea, 0xe1, 0xe8,
  0x1f, 0xe6, 0xbf, 0xe3, 0x1e, 0xc9, 0xea, 0xf6, 0x2b, 0x2d, 0xba, 0xd7,
  0x0a, 0xe6, 0xd3, 0xc4, 0xef, 0xce, 0xeb, 0xe5, 0x56, 0xd7, 0xf3, 0xc2,
  0xd9, 0x4d, 0xe0, 0x09, 0x2d, 0xf4, 0xdd, 0xf9, 0x57, 0x2b, 0xee, 0xd8,
  0x14, 0x27, 0xce, 0xe9, 0x29, 0xe7, 0xce, 0xe5, 0x7f, 0x17, 0xbb, 0xc8,
  0x02, 0x32, 0xd3, 0xd8, 0xf0, 0xdd, 0xd1, 0xf0, 0x32, 0xd1, 0x12, 0xcc,
  0xc4, 0x55, 0xe0, 0x13, 0xeb, 0x17, 0xd4, 0xee, 0x38, 0x2d, 0xfc, 0xc3,
  0x07, 0x31, 0xdf, 0xf2, 0xa9, 0xf0, 0xc1, 0xd0, 0x36, 0x25, 0xc2, 0xaa,
  0x08, 0x40, 0xeb, 0xd2, 0x0a, 0xbb, 0xe9, 0x08, 0x25, 0xf8, 0xf4, 0xf5,
  0x0b, 0x0e, 0xd7, 0x06, 0x26, 0xcf, 0xf1, 0x09, 0x57, 0x25, 0xfb, 0xf0,
  0x30, 0x22, 0xcb, 0xe9, 0x02, 0xd0, 0xe9, 0x08, 0x1f, 0x3b, 0xad, 0xe6,
  0x1c, 0x2c, 0xdb, 0xb6, 0xda, 0xc7, 0x03, 0x0e, 0x65, 0x13, 0x04, 0xdc,
  0xf8, 0x13, 0xcb, 0x11, 0x02, 0xe8, 0xef, 0x0d, 0x7f, 0x39, 0xf0, 0xde,
  0x1b, 0x21, 0xc1, 0xea, 0xf3, 0xe5, 0xe1, 0x07, 0x79, 0x3e, 0xb8, 0xde,
  0x10, 0x38, 0xdb, 0xce, 0xfc, 0xdf, 0xf5, 0x08, 0x41, 0x07, 0x14, 0xf7,
  0xe2, 0xfd, 0xdc, 0x1b, 0xff, 0xef, 0xef, 0xfb, 0x70, 0x23, 0xf6, 0xeb,
  0x0d, 0x0c, 0xd8, 0xe1, 0xc3, 0xe9, 0xda, 0xf2, 0x35, 0x28, 0xbb, 0xd1,
  0x10, 0x2c, 0xee, 0xd0, 0x64, 0x0f, 0x00, 0xcf, 0x17, 0xb6, 0xb9, 0xd9,
  0xbf, 0x97, 0xcb, 0xd0, 0x7f, 0x31, 0x32, 0xdf, 0x3b, 0xd7, 0xe0, 0xda,
  0xf7, 0xca, 0xb2, 0x05, 0x62, 0x0b, 0x18, 0xf6, 0x2c, 0x16, 0xd2, 0xd4,
  0xde, 0xc7, 0xb1, 0xe2, 0x44, 0x27, 0xec, 0xbe, 0x7a, 0xf2, 0xf8, 0xc5,
  0xb3, 0x8e, 0xce, 0xd4, 0x7a, 0x36, 0x07, 0xdd, 0x7a, 0x0e, 0xef, 0xc9,
  0xe0, 0x99, 0xb5, 0x0d, 0x65, 0x20, 0xe0, 0xf5, 0x40, 0x36, 0xe0, 0xcd,
  0xc2, 0xab, 0xa6, 0xff, 0x18, 0x3e, 0xf2, 0xbf, 0x43, 0xf5, 0x26, 0xd8,
  0xb7, 0x85, 0xec, 0xe9, 0x61, 0x6e, 0xf2, 0xc4, 0x37, 0x3d, 0x02, 0xb9,
  0xb5, 0xb7, 0xda, 0x10, 0xee, 0x26, 0xa1, 0xc5, 0x37, 0x4a, 0xe3, 0xd7,
  0xb4, 0xba, 0xc0, 0x06, 0xb6, 0xfd, 0xff, 0xff, 0x04, 0x00, 0x00, 0x00,
  0x60, 0x00, 0x00, 0x00, 0x30, 0x00, 0x00, 0x00, 0x4d, 0x00, 0x00, 0x00,
  0xe9, 0x0a, 0x00, 0x00, 0xf8, 0xfe, 0xff, 0xff, 0xd4, 0xfe, 0xff, 0xff,
  0x72, 0xff, 0xff, 0xff, 0x75, 0xff, 0xff, 0xff, 0x1c, 0xfe, 0xff, 0xff,
  0x9b, 0xff, 0xff, 0xff, 0x05, 0xff, 0xff, 0xff, 0xd7, 0xfd, 0xff, 0xff,
  0xe7, 0x03, 0x00, 0x00, 0xfe, 0xfe, 0xff, 0xff, 0x87, 0xff, 0xff, 0xff,
  0x66, 0xfd, 0xff, 0xff, 0x04, 0xff, 0xff, 0xff, 0x18, 0x0b, 0x00, 0x00,
  0xeb, 0xfe, 0xff, 0xff, 0xcc, 0xfe, 0xff, 0xff, 0xc2, 0x0c, 0x00, 0x00,
  0x12, 0x00, 0x00, 0x00, 0xf4, 0x09, 0x00, 0x00, 0x77, 0x05, 0x00, 0x00,
  0x61, 0x08, 0x00, 0x00, 0x22, 0xfe, 0xff, 0xff, 0x04, 0x00, 0x00, 0x00,
  0xf0, 0x00, 0x00, 0x00, 0x02, 0xd7, 0x81, 0x27, 0x08, 0x3e, 0x22, 0xee,
  0x2e, 0xe4, 0xf6, 0xa2, 0x78, 0x09, 0xfc, 0x20, 0x8b, 0x68, 0x18, 0x87,
  0xf5, 0x93, 0xb3, 0x97, 0xca, 0xb0, 0x12, 0xc9, 0xee, 0x07, 0xa8, 0x81,
  0xc2, 0x20, 0x91, 0xfe, 0xf6, 0xab, 0x15, 0xb7, 0x1b, 0x00, 0xee, 0x0e,
  0xad, 0x1c, 0x1f, 0x0a, 0xa7, 0x0c, 0xdd, 0x8d, 0x81, 0xdd, 0x25, 0x27,
  0x50, 0xdd, 0x16, 0x03, 0x34, 0x9a, 0xc1, 0x14, 0xec, 0xd8, 0x81, 0xe7,
  0xea, 0xe9, 0xf4, 0xef, 0x18, 0xc8, 0xdf, 0x99, 0xb3, 0xbe, 0x21, 0x4c,
  0xe5, 0x86, 0x3c, 0xf7, 0xdc, 0xe9, 0x81, 0x16, 0xd3, 0x8e, 0xad, 0xe7,
  0xc7, 0xea, 0xcd, 0xde, 0x17, 0xf3, 0xeb, 0x37, 0x31, 0xc6, 0x9f, 0xc0,
  0xce, 0xfd, 0xe0, 0xef, 0x9e, 0x2b, 0x13, 0x81, 0xe9, 0xe0, 0x1e, 0xe8,
  0x2d, 0xf4, 0xe7, 0xf3, 0x31, 0x26, 0xea, 0xcb, 0xb3, 0x0a, 0x00, 0x30,
  0x81, 0xe6, 0x2c, 0xe3, 0xa2, 0x0f, 0xf2, 0x00, 0xe3, 0xa7, 0x07, 0xe9,
  0xbc, 0xf5, 0xe7, 0xee, 0x15, 0xc6, 0xdf, 0x81, 0xb5, 0x47, 0x00, 0xd4,
  0xc6, 0x0a, 0xe5, 0xe5, 0x16, 0xd5, 0xd9, 0x23, 0xee, 0x40, 0x90, 0xf7,
  0xb4, 0xf7, 0xf7, 0xe1, 0xb7, 0xcc, 0x11, 0x00, 0xf6, 0x8a, 0xe9, 0x1c,
  0xee, 0xef, 0x12, 0x18, 0xb5, 0xf5, 0xf3, 0xb5, 0x0a, 0x81, 0x02, 0x02,
  0xf1, 0x02, 0xfb, 0x0e, 0x46, 0x79, 0xc7, 0x0e, 0xcb, 0x1e, 0xe3, 0x95,
  0x1a, 0xc2, 0x81, 0xb8, 0xf3, 0x2f, 0xa1, 0x41, 0xd2, 0x42, 0x02, 0xd6,
  0x4c, 0xbe, 0xb3, 0xb0, 0x99, 0xd4, 0xcc, 0x20, 0x12, 0x81, 0xc5, 0xbe,
  0x37, 0xdb, 0xcb, 0xdd, 0x2f, 0x04, 0x09, 0xc6, 0xdd, 0xfe, 0x0b, 0xec,
  0x15, 0xd2, 0xe3, 0xcb, 0x1e, 0xff, 0xff, 0xff, 0x04, 0x00, 0x00, 0x00,
  0x28, 0x00, 0x00, 0x00, 0xb0, 0xc2, 0xff, 0xff, 0x54, 0x06, 0x00, 0x00,
  0x51, 0xed, 0xff, 0xff, 0x36, 0xdf, 0xff, 0xff, 0xce, 0xf2, 0xff, 0xff,
  0x2f, 0xf1, 0xff, 0xff, 0xf2, 0xed, 0xff, 0xff, 0xe4, 0x00, 0x00, 0x00,
  0xdf, 0xd8, 0xff, 0xff, 0xe9, 0xe0, 0xff, 0xff, 0x52, 0xff, 0xff, 0xff,
  0x04, 0x00, 0x00, 0x00, 0x08, 0x00, 0x00, 0x00, 0x01, 0x00, 0x00, 0x00,
  0x02, 0x00, 0x00, 0x00, 0x68, 0xf3, 0xff, 0xff, 0x6c, 0xf3, 0xff, 0xff,
  0x0f, 0x00, 0x00, 0x00, 0x4d, 0x4c, 0x49, 0x52, 0x20, 0x43, 0x6f, 0x6e,
  0x76, 0x65, 0x72, 0x74, 0x65, 0x64, 0x2e, 0x00, 0x01, 0x00, 0x00, 0x00,
  0x14, 0x00, 0x00, 0x00, 0x00, 0x00, 0x0e, 0x00, 0x18, 0x00, 0x14, 0x00,
  0x10, 0x00, 0x0c, 0x00, 0x08, 0x00, 0x04, 0x00, 0x0e, 0x00, 0x00, 0x00,
  0x14, 0x00, 0x00, 0x00, 0x1c, 0x00, 0x00, 0x00, 0x80, 0x01, 0x00, 0x00,
  0x84, 0x01, 0x00, 0x00, 0x88, 0x01, 0x00, 0x00, 0x04, 0x00, 0x00, 0x00,
  0x6d, 0x61, 0x69, 0x6e, 0x00, 0x00, 0x00, 0x00, 0x05, 0x00, 0x00, 0x00,
  0x1c, 0x01, 0x00, 0x00, 0xcc, 0x00, 0x00, 0x00, 0x98, 0x00, 0x00, 0x00,
  0x50, 0x00, 0x00, 0x00, 0x14, 0x00, 0x00, 0x00, 0x00, 0x00, 0x0e, 0x00,
  0x1a, 0x00, 0x14, 0x00, 0x10, 0x00, 0x0c, 0x00, 0x0b, 0x00, 0x04, 0x00,
  0x0e, 0x00, 0x00, 0x00, 0x1c, 0x00, 0x00, 0x00, 0x00, 0x00, 0x00, 0x09,
  0x1c, 0x00, 0x00, 0x00, 0x20, 0x00, 0x00, 0x00, 0x03, 0x00, 0x00, 0x00,
  0x00, 0x00, 0x06, 0x00, 0x08, 0x00, 0x04, 0x00, 0x06, 0x00, 0x00, 0x00,
  0x00, 0x00, 0x80, 0x3f, 0x01, 0x00, 0x00, 0x00, 0x0c, 0x00, 0x00, 0x00,
  0x01, 0x00, 0x00, 0x00, 0x0b, 0x00, 0x00, 0x00, 0xca, 0xff, 0xff, 0xff,
  0x14, 0x00, 0x00, 0x00, 0x00, 0x00, 0x00, 0x08, 0x10, 0x00, 0x00, 0x00,
  0x14, 0x00, 0x00, 0x00, 0x02, 0x00, 0x00, 0x00, 0x38, 0xf4, 0xff, 0xff,
  0x01, 0x00, 0x00, 0x00, 0x0b, 0x00, 0x00, 0x00, 0x03, 0x00, 0x00, 0x00,
  0x0a, 0x00, 0x00, 0x00, 0x03, 0x00, 0x00, 0x00, 0x02, 0x00, 0x00, 0x00,
  0x00, 0x00, 0x0e, 0x00, 0x18, 0x00, 0x14, 0x00, 0x10, 0x00, 0x0c, 0x00,
  0x0b, 0x00, 0x04, 0x00, 0x0e, 0x00, 0x00, 0x00, 0x14, 0x00, 0x00, 0x00,
  0x00, 0x00, 0x00, 0x1b, 0x10, 0x00, 0x00, 0x00, 0x14, 0x00, 0x00, 0x00,
  0x01, 0x00, 0x00, 0x00, 0x7c, 0xf4, 0xff, 0xff, 0x01, 0x00, 0x00, 0x00,
  0x0a, 0x00, 0x00, 0x00, 0x02, 0x00, 0x00, 0x00, 0x09, 0x00, 0x00, 0x00,
  0x01, 0x00, 0x00, 0x00, 0xc2, 0xff, 0xff, 0xff, 0x10, 0x00, 0x00, 0x00,
  0x00, 0x00, 0x00, 0x01, 0x18, 0x00, 0x00, 0x00, 0x1c, 0x00, 0x00, 0x00,
  0xb4, 0xff, 0xff, 0xff, 0x00, 0x00, 0x00, 0x01, 0x02, 0x00, 0x00, 0x00,
  0x02, 0x00, 0x00, 0x00, 0x01, 0x00, 0x00, 0x00, 0x09, 0x00, 0x00, 0x00,
  0x03, 0x00, 0x00, 0x00, 0x08, 0x00, 0x00, 0x00, 0x05, 0x00, 0x00, 0x00,
  0x04, 0x00, 0x00, 0x00, 0x00, 0x00, 0x0e, 0x00, 0x14, 0x00, 0x00, 0x00,
  0x10, 0x00, 0x0c, 0x00, 0x0b, 0x00, 0x04, 0x00, 0x0e, 0x00, 0x00, 0x00,
  0x1c, 0x00, 0x00, 0x00, 0x00, 0x00, 0x00, 0x01, 0x24, 0x00, 0x00, 0x00,
  0x28, 0x00, 0x00, 0x00, 0x0c, 0x00, 0x10, 0x00, 0x00, 0x00, 0x0c, 0x00,
  0x08, 0x00, 0x07, 0x00, 0x0c, 0x00, 0x00, 0x00, 0x00, 0x00, 0x00, 0x01,
  0x02, 0x00, 0x00, 0x00, 0x02, 0x00, 0x00, 0x00, 0x01, 0x00, 0x00, 0x00,
  0x08, 0x00, 0x00, 0x00, 0x03, 0x00, 0x00, 0x00, 0x00, 0x00, 0x00, 0x00,
  0x07, 0x00, 0x00, 0x00, 0x06, 0x00, 0x00, 0x00, 0x01, 0x00, 0x00, 0x00,
  0x0c, 0x00, 0x00, 0x00, 0x01, 0x00, 0x00, 0x00, 0x00, 0x00, 0x00, 0x00,
  0x0d, 0x00, 0x00, 0x00, 0x00, 0x0b, 0x00, 0x00, 0xa4, 0x0a, 0x00, 0x00,
  0xbc, 0x09, 0x00, 0x00, 0xe8, 0x08, 0x00, 0x00, 0x74, 0x07, 0x00, 0x00,
  0xf0, 0x05, 0x00, 0x00, 0x0c, 0x05, 0x00, 0x00, 0x18, 0x04, 0x00, 0x00,
  0xe4, 0x02, 0x00, 0x00, 0xa8, 0x01, 0x00, 0x00, 0x1c, 0x01, 0x00, 0x00,
  0x80, 0x00, 0x00, 0x00, 0x04, 0x00, 0x00, 0x00, 0x4a, 0xf5, 0xff, 0xff,
  0x00, 0x00, 0x00, 0x01, 0x18, 0x00, 0x00, 0x00, 0x20, 0x00, 0x00, 0x00,
  0x3c, 0x00, 0x00, 0x00, 0x0d, 0x00, 0x00, 0x00, 0x00, 0x00, 0x00, 0x09,
  0x50, 0x00, 0x00, 0x00, 0x02, 0x00, 0x00, 0x00, 0xff, 0xff, 0xff, 0xff,
  0x0a, 0x00, 0x00, 0x00, 0x2c, 0xf5, 0xff, 0xff, 0x08, 0x00, 0x00, 0x00,
  0x10, 0x00, 0x00, 0x00, 0x01, 0x00, 0x00, 0x00, 0x80, 0xff, 0xff, 0xff,
  0xff, 0xff, 0xff, 0xff, 0x01, 0x00, 0x00, 0x00, 0x00, 0x00, 0x80, 0x3b,
  0x1b, 0x00, 0x00, 0x00, 0x53, 0x74, 0x61, 0x74, 0x65, 0x66, 0x75, 0x6c,
  0x50, 0x61, 0x72, 0x74, 0x69, 0x74, 0x69, 0x6f, 0x6e, 0x65, 0x64, 0x43,
  0x61, 0x6c, 0x6c, 0x5f, 0x31, 0x3a, 0x30, 0x00, 0x02, 0x00, 0x00, 0x00,
  0x01, 0x00, 0x00, 0x00, 0x0a, 0x00, 0x00, 0x00, 0xc2, 0xf5, 0xff, 0xff,
  0x00, 0x00, 0x00, 0x01, 0x18, 0x00, 0x00, 0x00, 0x20, 0x00, 0x00, 0x00,
  0x40, 0x00, 0x00, 0x00, 0x0c, 0x00, 0x00, 0x00, 0x00, 0x00, 0x00, 0x09,
  0x70, 0x00, 0x00, 0x00, 0x02, 0x00, 0x00, 0x00, 0xff, 0xff, 0xff, 0xff,
  0x0a, 0x00, 0x00, 0x00, 0xa4, 0xf5, 0xff, 0xff, 0x08, 0x00, 0x00, 0x00,
  0x14, 0x00, 0x00, 0x00, 0x01, 0x00, 0x00, 0x00, 0x4e, 0x00, 0x00, 0x00,
  0x00, 0x00, 0x00, 0x00, 0x00, 0x00, 0x00, 0x00, 0x01, 0x00, 0x00, 0x00,
  0x45, 0x1b, 0xa7, 0x3d, 0x36, 0x00, 0x00, 0x00, 0x6d, 0x69, 0x64, 0x5f,
  0x31, 0x32, 0x5f, 0x32, 0x34, 0x5f, 0x31, 0x2f, 0x64, 0x65, 0x6e, 0x73,
  0x65, 0x5f, 0x31, 0x2f, 0x4d, 0x61, 0x74, 0x4d, 0x75, 0x6c, 0x3b, 0x6d,
  0x69, 0x64, 0x5f, 0x31, 0x32, 0x5f, 0x32, 0x34, 0x5f, 0x31, 0x2f, 0x64,
  0x65, 0x6e, 0x73, 0x65, 0x5f, 0x31, 0x2f, 0x42, 0x69, 0x61, 0x73, 0x41,
  0x64, 0x64, 0x00, 0x00, 0x02, 0x00, 0x00, 0x00, 0x01, 0x00, 0x00, 0x00,
  0x0a, 0x00, 0x00, 0x00, 0x5a, 0xf6, 0xff, 0xff, 0x00, 0x00, 0x00, 0x01,
  0x18, 0x00, 0x00, 0x00, 0x20, 0x00, 0x00, 0x00, 0x3c, 0x00, 0x00, 0x00,
  0x0b, 0x00, 0x00, 0x00, 0x00, 0x00, 0x00, 0x09, 0x60, 0x00, 0x00, 0x00,
  0x02, 0x00, 0x00, 0x00, 0xff, 0xff, 0xff, 0xff, 0x18, 0x00, 0x00, 0x00,
  0x3c, 0xf6, 0xff, 0xff, 0x08, 0x00, 0x00, 0x00, 0x10, 0x00, 0x00, 0x00,
  0x01, 0x00, 0x00, 0x00, 0x80, 0xff, 0xff, 0xff, 0xff, 0xff, 0xff, 0xff,
  0x01, 0x00, 0x00, 0x00, 0x4e, 0x84, 0x06, 0x3c, 0x2b, 0x00, 0x00, 0x00,
  0x6d, 0x69, 0x64, 0x5f, 0x31, 0x32, 0x5f, 0x32, 0x34, 0x5f, 0x31, 0x2f,
  0x67, 0x6c, 0x6f, 0x62, 0x61, 0x6c, 0x5f, 0x61, 0x76, 0x65, 0x72, 0x61,
  0x67, 0x65, 0x5f, 0x70, 0x6f, 0x6f, 0x6c, 0x69, 0x6e, 0x67, 0x32, 0x64,
  0x5f, 0x31, 0x2f, 0x4d, 0x65, 0x61, 0x6e, 0x00, 0x02, 0x00, 0x00, 0x00,
  0x01, 0x00, 0x00, 0x00, 0x18, 0x00, 0x00, 0x00, 0xe2, 0xf6, 0xff, 0xff,
  0x00, 0x00, 0x00, 0x01, 0x18, 0x00, 0x00, 0x00, 0x28, 0x00, 0x00, 0x00,
  0x44, 0x00, 0x00, 0x00, 0x0a, 0x00, 0x00, 0x00, 0x00, 0x00, 0x00, 0x09,
  0x08, 0x01, 0x00, 0x00, 0x04, 0x00, 0x00, 0x00, 0xff, 0xff, 0xff, 0xff,
  0x08, 0x00, 0x00, 0x00, 0x08, 0x00, 0x00, 0x00, 0x18, 0x00, 0x00, 0x00,
  0xcc, 0xf6, 0xff, 0xff, 0x08, 0x00, 0x00, 0x00, 0x10, 0x00, 0x00, 0x00,
  0x01, 0x00, 0x00, 0x00, 0x80, 0xff, 0xff, 0xff, 0xff, 0xff, 0xff, 0xff,
  0x01, 0x00, 0x00, 0x00, 0xbe, 0x0a, 0x0b, 0x3e, 0xca, 0x00, 0x00, 0x00,
  0x6d, 0x69, 0x64, 0x5f, 0x31, 0x32, 0x5f, 0x32, 0x34, 0x5f, 0x31, 0x2f,
  0x61, 0x63, 0x74, 0x69, 0x76, 0x61, 0x74, 0x69, 0x6f, 0x6e, 0x5f, 0x31,
  0x5f, 0x32, 0x2f, 0x52, 0x65, 0x6c, 0x75, 0x3b, 0x6d, 0x69, 0x64, 0x5f,
  0x31, 0x32, 0x5f, 0x32, 0x34, 0x5f, 0x31, 0x2f, 0x62, 0x61, 0x74, 0x63,
  0x68, 0x5f, 0x6e, 0x6f, 0x72, 0x6d, 0x61, 0x6c, 0x69, 0x7a, 0x61, 0x74,
  0x69, 0x6f, 0x6e, 0x5f, 0x31, 0x5f, 0x32, 0x2f, 0x62, 0x61, 0x74, 0x63,
  0x68, 0x6e, 0x6f, 0x72, 0x6d, 0x2f, 0x61, 0x64, 0x64, 0x5f, 0x31, 0x3b,
  0x6d, 0x69, 0x64, 0x5f, 0x31, 0x32, 0x5f, 0x32, 0x34, 0x5f, 0x31, 0x2f,
  0x62, 0x61, 0x74, 0x63, 0x68, 0x5f, 0x6e, 0x6f, 0x72, 0x6d, 0x61, 0x6c,
  0x69, 0x7a, 0x61, 0x74, 0x69, 0x6f, 0x6e, 0x5f, 0x31, 0x5f, 0x32, 0x2f,
  0x62, 0x61, 0x74, 0x63, 0x68, 0x6e, 0x6f, 0x72, 0x6d, 0x2f, 0x6d, 0x75,
  0x6c, 0x5f, 0x31, 0x3b, 0x3b, 0x6d, 0x69, 0x64, 0x5f, 0x31, 0x32, 0x5f,
  0x32, 0x34, 0x5f, 0x31, 0x2f, 0x63, 0x6f, 0x6e, 0x76, 0x32, 0x64, 0x5f,
  0x31, 0x5f, 0x32, 0x2f, 0x42, 0x69, 0x61, 0x73, 0x41, 0x64, 0x64, 0x3b,
  0x6d, 0x69, 0x64, 0x5f, 0x31, 0x32, 0x5f, 0x32, 0x34, 0x5f, 0x31, 0x2f,
  0x63, 0x6f, 0x6e, 0x76, 0x32, 0x64, 0x5f, 0x31, 0x5f, 0x32, 0x2f, 0x63,
  0x6f, 0x6e, 0x76, 0x6f, 0x6c, 0x75, 0x74, 0x69, 0x6f, 0x6e, 0x00, 0x00,
  0x04, 0x00, 0x00, 0x00, 0x01, 0x00, 0x00, 0x00, 0x08, 0x00, 0x00, 0x00,
  0x08, 0x00, 0x00, 0x00, 0x18, 0x00, 0x00, 0x00, 0x1a, 0xf8, 0xff, 0xff,
  0x00, 0x00, 0x00, 0x01, 0x18, 0x00, 0x00, 0x00, 0x28, 0x00, 0x00, 0x00,
  0x44, 0x00, 0x00, 0x00, 0x09, 0x00, 0x00, 0x00, 0x00, 0x00, 0x00, 0x09,
  0x00, 0x01, 0x00, 0x00, 0x04, 0x00, 0x00, 0x00, 0xff, 0xff, 0xff, 0xff,
  0x10, 0x00, 0x00, 0x00, 0x10, 0x00, 0x00, 0x00, 0x0c, 0x00, 0x00, 0x00,
  0x04, 0xf8, 0xff, 0xff, 0x08, 0x00, 0x00, 0x00, 0x10, 0x00, 0x00, 0x00,
  0x01, 0x00, 0x00, 0x00, 0x80, 0xff, 0xff, 0xff, 0xff, 0xff, 0xff, 0xff,
  0x01, 0x00, 0x00, 0x00, 0xd6, 0xc6, 0xfb, 0x3c, 0xc1, 0x00, 0x00, 0x00,
  0x6d, 0x69, 0x64, 0x5f, 0x31, 0x32, 0x5f, 0x32, 0x34, 0x5f, 0x31, 0x2f,
  0x61, 0x63, 0x74, 0x69, 0x76, 0x61, 0x74, 0x69, 0x6f, 0x6e, 0x5f, 0x31,
  0x2f, 0x52, 0x65, 0x6c, 0x75, 0x3b, 0x6d, 0x69, 0x64, 0x5f, 0x31, 0x32,
  0x5f, 0x32, 0x34, 0x5f, 0x31, 0x2f, 0x62, 0x61, 0x74, 0x63, 0x68, 0x5f,
  0x6e, 0x6f, 0x72, 0x6d, 0x61, 0x6c, 0x69, 0x7a, 0x61, 0x74, 0x69, 0x6f,
  0x6e, 0x5f, 0x31, 0x2f, 0x62, 0x61, 0x74, 0x63, 0x68, 0x6e, 0x6f, 0x72,
  0x6d, 0x2f, 0x61, 0x64, 0x64, 0x5f, 0x31, 0x3b, 0x6d, 0x69, 0x64, 0x5f,
  0x31, 0x32, 0x5f, 0x32, 0x34, 0x5f, 0x31, 0x2f, 0x62, 0x61, 0x74, 0x63,
  0x68, 0x5f, 0x6e, 0x6f, 0x72, 0x6d, 0x61, 0x6c, 0x69, 0x7a, 0x61, 0x74,
  0x69, 0x6f, 0x6e, 0x5f, 0x31, 0x2f, 0x62, 0x61, 0x74, 0x63, 0x68, 0x6e,
  0x6f, 0x72, 0x6d, 0x2f, 0x6d, 0x75, 0x6c, 0x5f, 0x31, 0x3b, 0x3b, 0x6d,
  0x69, 0x64, 0x5f, 0x31, 0x32, 0x5f, 0x32, 0x34, 0x5f, 0x31, 0x2f, 0x63,
  0x6f, 0x6e, 0x76, 0x32, 0x64, 0x5f, 0x31, 0x2f, 0x42, 0x69, 0x61, 0x73,
  0x41, 0x64, 0x64, 0x3b, 0x6d, 0x69, 0x64, 0x5f, 0x31, 0x32, 0x5f, 0x32,
  0x34, 0x5f, 0x31, 0x2f, 0x63, 0x6f, 0x6e, 0x76, 0x32, 0x64, 0x5f, 0x31,
  0x2f, 0x63, 0x6f, 0x6e, 0x76, 0x6f, 0x6c, 0x75, 0x74, 0x69, 0x6f, 0x6e,
  0x31, 0x00, 0x00, 0x00, 0x04, 0x00, 0x00, 0x00, 0x01, 0x00, 0x00, 0x00,
  0x10, 0x00, 0x00, 0x00, 0x10, 0x00, 0x00, 0x00, 0x0c, 0x00, 0x00, 0x00,
  0xa2, 0xf9, 0xff, 0xff, 0x00, 0x00, 0x00, 0x01, 0x14, 0x00, 0x00, 0x00,
  0xb8, 0x00, 0x00, 0x00, 0x08, 0x00, 0x00, 0x00, 0x00, 0x00, 0x00, 0x09,
  0xc4, 0x00, 0x00, 0x00, 0x1c, 0xf9, 0xff, 0xff, 0x08, 0x00, 0x00, 0x00,
  0x6c, 0x00, 0x00, 0x00, 0x0c, 0x00, 0x00, 0x00, 0x00, 0x00, 0x00, 0x00,
  0x00, 0x00, 0x00, 0x00, 0x00, 0x00, 0x00, 0x00, 0x00, 0x00, 0x00, 0x00,
  0x00, 0x00, 0x00, 0x00, 0x00, 0x00, 0x00, 0x00, 0x00, 0x00, 0x00, 0x00,
  0x00, 0x00, 0x00, 0x00, 0x00, 0x00, 0x00, 0x00, 0x00, 0x00, 0x00, 0x00,
  0x00, 0x00, 0x00, 0x00, 0x00, 0x00, 0x00, 0x00, 0x00, 0x00, 0x00, 0x00,
  0x00, 0x00, 0x00, 0x00, 0x00, 0x00, 0x00, 0x00, 0x00, 0x00, 0x00, 0x00,
  0x00, 0x00, 0x00, 0x00, 0x00, 0x00, 0x00, 0x00, 0x00, 0x00, 0x00, 0x00,
  0x00, 0x00, 0x00, 0x00, 0x00, 0x00, 0x00, 0x00, 0x00, 0x00, 0x00, 0x00,
  0x00, 0x00, 0x00, 0x00, 0x00, 0x00, 0x00, 0x00, 0x00, 0x00, 0x00, 0x00,
  0x0c, 0x00, 0x00, 0x00, 0xfd, 0xf9, 0x24, 0x39, 0x1d, 0xc0, 0x68, 0x39,
  0x4d, 0xf8, 0x8b, 0x39, 0xa7, 0x9f, 0x1c, 0x39, 0x8b, 0x1d, 0x45, 0x39,
  0x56, 0x11, 0x2d, 0x39, 0x4e, 0x84, 0x6a, 0x39, 0x85, 0x9e, 0x27, 0x39,
  0x5e, 0x9d, 0x88, 0x39, 0x4f, 0xd1, 0x65, 0x39, 0x3f, 0x6c, 0x96, 0x38,
  0x28, 0x3b, 0x5d, 0x39, 0x12, 0x00, 0x00, 0x00, 0x74, 0x66, 0x6c, 0x2e,
  0x70, 0x73, 0x65, 0x75, 0x64, 0x6f, 0x5f, 0x71, 0x63, 0x6f, 0x6e, 0x73,
  0x74, 0x35, 0x00, 0x00, 0x04, 0x00, 0x00, 0x00, 0x0c, 0x00, 0x00, 0x00,
  0x03, 0x00, 0x00, 0x00, 0x03, 0x00, 0x00, 0x00, 0x03, 0x00, 0x00, 0x00,
  0x92, 0xfa, 0xff, 0xff, 0x00, 0x00, 0x00, 0x01, 0x14, 0x00, 0x00, 0x00,
  0xb4, 0x00, 0x00, 0x00, 0x07, 0x00, 0x00, 0x00, 0x00, 0x00, 0x00, 0x02,
  0xc0, 0x00, 0x00, 0x00, 0x0c, 0xfa, 0xff, 0xff, 0x08, 0x00, 0x00, 0x00,
  0x68, 0x00, 0x00, 0x00, 0x0c, 0x00, 0x00, 0x00, 0x00, 0x00, 0x00, 0x00,
  0x00, 0x00, 0x00, 0x00, 0x00, 0x00, 0x00, 0x00, 0x00, 0x00, 0x00, 0x00,
  0x00, 0x00, 0x00, 0x00, 0x00, 0x00, 0x00, 0x00, 0x00, 0x00, 0x00, 0x00,
  0x00, 0x00, 0x00, 0x00, 0x00, 0x00, 0x00, 0x00, 0x00, 0x00, 0x00, 0x00,
  0x00, 0x00, 0x00, 0x00, 0x00, 0x00, 0x00, 0x00, 0x00, 0x00, 0x00, 0x00,
  0x00, 0x00, 0x00, 0x00, 0x00, 0x00, 0x00, 0x00, 0x00, 0x00, 0x00, 0x00,
  0x00, 0x00, 0x00, 0x00, 0x00, 0x00, 0x00, 0x00, 0x00, 0x00, 0x00, 0x00,
  0x00, 0x00, 0x00, 0x00, 0x00, 0x00, 0x00, 0x00, 0x00, 0x00, 0x00, 0x00,
  0x00, 0x00, 0x00, 0x00, 0x00, 0x00, 0x00, 0x00, 0x0c, 0x00, 0x00, 0x00,
  0xfd, 0xf9, 0x24, 0x39, 0x1d, 0xc0, 0x68, 0x39, 0x4d, 0xf8, 0x8b, 0x39,
  0xa7, 0x9f, 0x1c, 0x39, 0x8b, 0x1d, 0x45, 0x39, 0x56, 0x11, 0x2d, 0x39,
  0x4e, 0x84, 0x6a, 0x39, 0x85, 0x9e, 0x27, 0x39, 0x5e, 0x9d, 0x88, 0x39,
  0x4f, 0xd1, 0x65, 0x39, 0x3f, 0x6c, 0x96, 0x38, 0x28, 0x3b, 0x5d, 0x39,
  0x12, 0x00, 0x00, 0x00, 0x74, 0x66, 0x6c, 0x2e, 0x70, 0x73, 0x65, 0x75,
  0x64, 0x6f, 0x5f, 0x71, 0x63, 0x6f, 0x6e, 0x73, 0x74, 0x34, 0x00, 0x00,
  0x01, 0x00, 0x00, 0x00, 0x0c, 0x00, 0x00, 0x00, 0x72, 0xfb, 0xff, 0xff,
  0x00, 0x00, 0x00, 0x01, 0x14, 0x00, 0x00, 0x00, 0x48, 0x01, 0x00, 0x00,
  0x06, 0x00, 0x00, 0x00, 0x00, 0x00, 0x00, 0x09, 0x54, 0x01, 0x00, 0x00,
  0xec, 0xfa, 0xff, 0xff, 0x08, 0x00, 0x00, 0x00, 0xcc, 0x00, 0x00, 0x00,
  0x18, 0x00, 0x00, 0x00, 0x00, 0x00, 0x00, 0x00, 0x00, 0x00, 0x00, 0x00,
  0x00, 0x00, 0x00, 0x00, 0x00, 0x00, 0x00, 0x00, 0x00, 0x00, 0x00, 0x00,
  0x00, 0x00, 0x00, 0x00, 0x00, 0x00, 0x00, 0x00, 0x00, 0x00, 0x00, 0x00,
  0x00, 0x00, 0x00, 0x00, 0x00, 0x00, 0x00, 0x00, 0x00, 0x00, 0x00, 0x00,
  0x00, 0x00, 0x00, 0x00, 0x00, 0x00, 0x00, 0x00, 0x00, 0x00, 0x00, 0x00,
  0x00, 0x00, 0x00, 0x00, 0x00, 0x00, 0x00, 0x00, 0x00, 0x00, 0x00, 0x00,
  0x00, 0x00, 0x00, 0x00, 0x00, 0x00, 0x00, 0x00, 0x00, 0x00, 0x00, 0x00,
  0x00, 0x00, 0x00, 0x00, 0x00, 0x00, 0x00, 0x00, 0x00, 0x00, 0x00, 0x00,
  0x00, 0x00, 0x00, 0x00, 0x00, 0x00, 0x00, 0x00, 0x00, 0x00, 0x00, 0x00,
  0x00, 0x00, 0x00, 0x00, 0x00, 0x00, 0x00, 0x00, 0x00, 0x00, 0x00, 0x00,
  0x00, 0x00, 0x00, 0x00, 0x00, 0x00, 0x00, 0x00, 0x00, 0x00, 0x00, 0x00,
  0x00, 0x00, 0x00, 0x00, 0x00, 0x00, 0x00, 0x00, 0x00, 0x00, 0x00, 0x00,
  0x00, 0x00, 0x00, 0x00, 0x00, 0x00, 0x00, 0x00, 0x00, 0x00, 0x00, 0x00,
  0x00, 0x00, 0x00, 0x00, 0x00, 0x00, 0x00, 0x00, 0x00, 0x00, 0x00, 0x00,
  0x00, 0x00, 0x00, 0x00, 0x00, 0x00, 0x00, 0x00, 0x00, 0x00, 0x00, 0x00,
  0x00, 0x00, 0x00, 0x00, 0x00, 0x00, 0x00, 0x00, 0x00, 0x00, 0x00, 0x00,
  0x00, 0x00, 0x00, 0x00, 0x00, 0x00, 0x00, 0x00, 0x18, 0x00, 0x00, 0x00,
  0x90, 0xa4, 0x0e, 0x3d, 0x5d, 0x40, 0xaa, 0x3c, 0xbb, 0x80, 0xea, 0x3b,
  0x6f, 0x41, 0xc5, 0x3c, 0xe5, 0xc9, 0xce, 0x3c, 0x8c, 0x8a, 0x1c, 0x3d,
  0x89, 0x40, 0xe5, 0x3c, 0x07, 0x25, 0xd9, 0x3c, 0xd5, 0x6c, 0xe2, 0x3c,
  0xa1, 0x6b, 0x9b, 0x3c, 0x0d, 0x02, 0xf9, 0x3c, 0xcc, 0x8d, 0x9b, 0x3c,
  0xe2, 0xf3, 0xa6, 0x3c, 0x17, 0x30, 0xa0, 0x3c, 0x0d, 0xb6, 0x95, 0x3c,
  0x3b, 0xfc, 0xdd, 0x3c, 0xfb, 0x65, 0x0f, 0x3c, 0xb1, 0xa3, 0xa7, 0x3c,
  0x21, 0x49, 0xb3, 0x3c, 0x1c, 0xca, 0x1d, 0x3c, 0xe8, 0x94, 0xdd, 0x3c,
  0xa9, 0x39, 0x27, 0x3c, 0xd6, 0xb8, 0x5a, 0x3c, 0x22, 0xbc, 0x0f, 0x3c,
  0x12, 0x00, 0x00, 0x00, 0x74, 0x66, 0x6c, 0x2e, 0x70, 0x73, 0x65, 0x75,
  0x64, 0x6f, 0x5f, 0x71, 0x63, 0x6f, 0x6e, 0x73, 0x74, 0x33, 0x00, 0x00,
  0x04, 0x00, 0x00, 0x00, 0x18, 0x00, 0x00, 0x00, 0x03, 0x00, 0x00, 0x00,
  0x03, 0x00, 0x00, 0x00, 0x0c, 0x00, 0x00, 0x00, 0xf2, 0xfc, 0xff, 0xff,
  0x00, 0x00, 0x00, 0x01, 0x14, 0x00, 0x00, 0x00, 0x44, 0x01, 0x00, 0x00,
  0x05, 0x00, 0x00, 0x00, 0x00, 0x00, 0x00, 0x02, 0x50, 0x01, 0x00, 0x00,
  0x6c, 0xfc, 0xff, 0xff, 0x08, 0x00, 0x00, 0x00, 0xc8, 0x00, 0x00, 0x00,
  0x18, 0x00, 0x00, 0x00, 0x00, 0x00, 0x00, 0x00, 0x00, 0x00, 0x00, 0x00,
  0x00, 0x00, 0x00, 0x00, 0x00, 0x00, 0x00, 0x00, 0x00, 0x00, 0x00, 0x00,
  0x00, 0x00, 0x00, 0x00, 0x00, 0x00, 0x00, 0x00, 0x00, 0x00, 0x00, 0x00,
  0x00, 0x00, 0x00, 0x00, 0x00, 0x00, 0x00, 0x00, 0x00, 0x00, 0x00, 0x00,
  0x00, 0x00, 0x00, 0x00, 0x00, 0x00, 0x00, 0x00, 0x00, 0x00, 0x00, 0x00,
  0x00, 0x00, 0x00, 0x00, 0x00, 0x00, 0x00, 0x00, 0x00, 0x00, 0x00, 0x00,
  0x00, 0x00, 0x00, 0x00, 0x00, 0x00, 0x00, 0x00, 0x00, 0x00, 0x00, 0x00,
  0x00, 0x00, 0x00, 0x00, 0x00, 0x00, 0x00, 0x00, 0x00, 0x00, 0x00, 0x00,
  0x00, 0x00, 0x00, 0x00, 0x00, 0x00, 0x00, 0x00, 0x00, 0x00, 0x00, 0x00,
  0x00, 0x00, 0x00, 0x00, 0x00, 0x00, 0x00, 0x00, 0x00, 0x00, 0x00, 0x00,
  0x00, 0x00, 0x00, 0x00, 0x00, 0x00, 0x00, 0x00, 0x00, 0x00, 0x00, 0x00,
  0x00, 0x00, 0x00, 0x00, 0x00, 0x00, 0x00, 0x00, 0x00, 0x00, 0x00, 0x00,
  0x00, 0x00, 0x00, 0x00, 0x00, 0x00, 0x00, 0x00, 0x00, 0x00, 0x00, 0x00,
  0x00, 0x00, 0x00, 0x00, 0x00, 0x00, 0x00, 0x00, 0x00, 0x00, 0x00, 0x00,
  0x00, 0x00, 0x00, 0x00, 0x00, 0x00, 0x00, 0x00, 0x00, 0x00, 0x00, 0x00,
  0x00, 0x00, 0x00, 0x00, 0x00, 0x00, 0x00, 0x00, 0x00, 0x00, 0x00, 0x00,
  0x00, 0x00, 0x00, 0x00, 0x18, 0x00, 0x00, 0x00, 0x24, 0x4a, 0x8c, 0x3a,
  0x57, 0x71, 0x27, 0x3a, 0x5b, 0xa2, 0x66, 0x39, 0x5d, 0x00, 0x42, 0x3a,
  0x91, 0x60, 0x4b, 0x3a, 0x6d, 0xf5, 0x99, 0x3a, 0x56, 0x78, 0x61, 0x3a,
  0xf6, 0x8f, 0x55, 0x3a, 0x92, 0xb0, 0x5e, 0x3a, 0x3e, 0xdb, 0x18, 0x3a,
  0x6a, 0xe6, 0x74, 0x3a, 0xd9, 0xfc, 0x18, 0x3a, 0xcb, 0x32, 0x24, 0x3a,
  0x92, 0x8b, 0x1d, 0x3a, 0xc7, 0x3d, 0x13, 0x3a, 0xb8, 0x52, 0x5a, 0x3a,
  0x5e, 0x08, 0x8d, 0x39, 0xb3, 0xdf, 0x24, 0x3a, 0xf4, 0x53, 0x30, 0x3a,
  0xb8, 0x2f, 0x9b, 0x39, 0x1a, 0xed, 0x59, 0x3a, 0x6b, 0x77, 0xa4, 0x39,
  0x1c, 0x1d, 0xd7, 0x39, 0x19, 0x5d, 0x8d, 0x39, 0x12, 0x00, 0x00, 0x00,
  0x74, 0x66, 0x6c, 0x2e, 0x70, 0x73, 0x65, 0x75, 0x64, 0x6f, 0x5f, 0x71,
  0x63, 0x6f, 0x6e, 0x73, 0x74, 0x32, 0x00, 0x00, 0x01, 0x00, 0x00, 0x00,
  0x18, 0x00, 0x00, 0x00, 0x62, 0xfe, 0xff, 0xff, 0x00, 0x00, 0x00, 0x01,
  0x14, 0x00, 0x00, 0x00, 0xa0, 0x00, 0x00, 0x00, 0x04, 0x00, 0x00, 0x00,
  0x00, 0x00, 0x00, 0x09, 0xac, 0x00, 0x00, 0x00, 0xdc, 0xfd, 0xff, 0xff,
  0x08, 0x00, 0x00, 0x00, 0x5c, 0x00, 0x00, 0x00, 0x0a, 0x00, 0x00, 0x00,
  0x00, 0x00, 0x00, 0x00, 0x00, 0x00, 0x00, 0x00, 0x00, 0x00, 0x00, 0x00,
  0x00, 0x00, 0x00, 0x00, 0x00, 0x00, 0x00, 0x00, 0x00, 0x00, 0x00, 0x00,
  0x00, 0x00, 0x00, 0x00, 0x00, 0x00, 0x00, 0x00, 0x00, 0x00, 0x00, 0x00,
  0x00, 0x00, 0x00, 0x00, 0x00, 0x00, 0x00, 0x00, 0x00, 0x00, 0x00, 0x00,
  0x00, 0x00, 0x00, 0x00, 0x00, 0x00, 0x00, 0x00, 0x00, 0x00, 0x00, 0x00,
  0x00, 0x00, 0x00, 0x00, 0x00, 0x00, 0x00, 0x00, 0x00, 0x00, 0x00, 0x00,
  0x00, 0x00, 0x00, 0x00, 0x00, 0x00, 0x00, 0x00, 0x00, 0x00, 0x00, 0x00,
  0x0a, 0x00, 0x00, 0x00, 0x74, 0xa1, 0xd1, 0x3b, 0x99, 0x2f, 0x9b, 0x3c,
  0x80, 0x12, 0x3e, 0x3c, 0xbc, 0x57, 0xbe, 0x3b, 0x2f, 0x4b, 0x8e, 0x3c,
  0x1a, 0x12, 0x38, 0x3c, 0xf0, 0xb8, 0x1c, 0x3c, 0x9b, 0xda, 0xa3, 0x3c,
  0x11, 0xdd, 0x0a, 0x3c, 0x2d, 0xb9, 0xc0, 0x3b, 0x12, 0x00, 0x00, 0x00,
  0x74, 0x66, 0x6c, 0x2e, 0x70, 0x73, 0x65, 0x75, 0x64, 0x6f, 0x5f, 0x71,
  0x63, 0x6f, 0x6e, 0x73, 0x74, 0x31, 0x00, 0x00, 0x02, 0x00, 0x00, 0x00,
  0x0a, 0x00, 0x00, 0x00, 0x18, 0x00, 0x00, 0x00, 0x32, 0xff, 0xff, 0xff,
  0x00, 0x00, 0x00, 0x01, 0x14, 0x00, 0x00, 0x00, 0xa0, 0x00, 0x00, 0x00,
  0x03, 0x00, 0x00, 0x00, 0x00, 0x00, 0x00, 0x02, 0xac, 0x00, 0x00, 0x00,
  0xac, 0xfe, 0xff, 0xff, 0x08, 0x00, 0x00, 0x00, 0x5c, 0x00, 0x00, 0x00,
  0x0a, 0x00, 0x00, 0x00, 0x00, 0x00, 0x00, 0x00, 0x00, 0x00, 0x00, 0x00,
  0x00, 0x00, 0x00, 0x00, 0x00, 0x00, 0x00, 0x00, 0x00, 0x00, 0x00, 0x00,
  0x00, 0x00, 0x00, 0x00, 0x00, 0x00, 0x00, 0x00, 0x00, 0x00, 0x00, 0x00,
  0x00, 0x00, 0x00, 0x00, 0x00, 0x00, 0x00, 0x00, 0x00, 0x00, 0x00, 0x00,
  0x00, 0x00, 0x00, 0x00, 0x00, 0x00, 0x00, 0x00, 0x00, 0x00, 0x00, 0x00,
  0x00, 0x00, 0x00, 0x00, 0x00, 0x00, 0x00, 0x00, 0x00, 0x00, 0x00, 0x00,
  0x00, 0x00, 0x00, 0x00, 0x00, 0x00, 0x00, 0x00, 0x00, 0x00, 0x00, 0x00,
  0x00, 0x00, 0x00, 0x00, 0x0a, 0x00, 0x00, 0x00, 0xb4, 0x4d, 0x5c, 0x38,
  0x3c, 0x16, 0x23, 0x39, 0xd5, 0xbf, 0xc7, 0x38, 0x97, 0x08, 0x48, 0x38,
  0xc9, 0x89, 0x15, 0x39, 0x36, 0x71, 0xc1, 0x38, 0x99, 0xb3, 0xa4, 0x38,
  0x38, 0x32, 0x2c, 0x39, 0xf6, 0xee, 0x91, 0x38, 0x10, 0x89, 0x4a, 0x38,
  0x11, 0x00, 0x00, 0x00, 0x74, 0x66, 0x6c, 0x2e, 0x70, 0x73, 0x65, 0x75,
  0x64, 0x6f, 0x5f, 0x71, 0x63, 0x6f, 0x6e, 0x73, 0x74, 0x00, 0x00, 0x00,
  0x01, 0x00, 0x00, 0x00, 0x0a, 0x00, 0x00, 0x00, 0x00, 0x00, 0x16, 0x00,
  0x1c, 0x00, 0x18, 0x00, 0x17, 0x00, 0x10, 0x00, 0x0c, 0x00, 0x08, 0x00,
  0x00, 0x00, 0x00, 0x00, 0x00, 0x00, 0x07, 0x00, 0x16, 0x00, 0x00, 0x00,
  0x00, 0x00, 0x00, 0x01, 0x18, 0x00, 0x00, 0x00, 0x18, 0x00, 0x00, 0x00,
  0x02, 0x00, 0x00, 0x00, 0x00, 0x00, 0x00, 0x02, 0x20, 0x00, 0x00, 0x00,
  0x04, 0x00, 0x04, 0x00, 0x04, 0x00, 0x00, 0x00, 0x0e, 0x00, 0x00, 0x00,
  0x61, 0x72, 0x69, 0x74, 0x68, 0x2e, 0x63, 0x6f, 0x6e, 0x73, 0x74, 0x61,
  0x6e, 0x74, 0x00, 0x00, 0x01, 0x00, 0x00, 0x00, 0x02, 0x00, 0x00, 0x00,
  0x00, 0x00, 0x16, 0x00, 0x20, 0x00, 0x1c, 0x00, 0x1b, 0x00, 0x14, 0x00,
  0x10, 0x00, 0x0c, 0x00, 0x00, 0x00, 0x00, 0x00, 0x08, 0x00, 0x07, 0x00,
  0x16, 0x00, 0x00, 0x00, 0x00, 0x00, 0x00, 0x01, 0x18, 0x00, 0x00, 0x00,
  0x34, 0x00, 0x00, 0x00, 0x50, 0x00, 0x00, 0x00, 0x01, 0x00, 0x00, 0x00,
  0x00, 0x00, 0x00, 0x09, 0x68, 0x00, 0x00, 0x00, 0x04, 0x00, 0x00, 0x00,
  0xff, 0xff, 0xff, 0xff, 0x20, 0x00, 0x00, 0x00, 0x20, 0x00, 0x00, 0x00,
  0x03, 0x00, 0x00, 0x00, 0x0c, 0x00, 0x0c, 0x00, 0x00, 0x00, 0x00, 0x00,
  0x08, 0x00, 0x04, 0x00, 0x0c, 0x00, 0x00, 0x00, 0x08, 0x00, 0x00, 0x00,
  0x10, 0x00, 0x00, 0x00, 0x01, 0x00, 0x00, 0x00, 0x80, 0xff, 0xff, 0xff,
  0xff, 0xff, 0xff, 0xff, 0x01, 0x00, 0x00, 0x00, 0x00, 0x00, 0x80, 0x3f,
  0x1e, 0x00, 0x00, 0x00, 0x73, 0x65, 0x72, 0x76, 0x69, 0x6e, 0x67, 0x5f,
  0x64, 0x65, 0x66, 0x61, 0x75, 0x6c, 0x74, 0x5f, 0x6b, 0x65, 0x72, 0x61,
  0x73, 0x5f, 0x74, 0x65, 0x6e, 0x73, 0x6f, 0x72, 0x3a, 0x30, 0x00, 0x00,
  0x04, 0x00, 0x00, 0x00, 0x01, 0x00, 0x00, 0x00, 0x20, 0x00, 0x00, 0x00,
  0x20, 0x00, 0x00, 0x00, 0x03, 0x00, 0x00, 0x00, 0x04, 0x00, 0x00, 0x00,
  0x4c, 0x00, 0x00, 0x00, 0x2c, 0x00, 0x00, 0x00, 0x18, 0x00, 0x00, 0x00,
  0x04, 0x00, 0x00, 0x00, 0xd0, 0xff, 0xff, 0xff, 0x19, 0x00, 0x00, 0x00,
  0x02, 0x00, 0x00, 0x00, 0x00, 0x00, 0x00, 0x19, 0xe0, 0xff, 0xff, 0xff,
  0x09, 0x00, 0x00, 0x00, 0x04, 0x00, 0x00, 0x00, 0x00, 0x00, 0x00, 0x09,
  0xf0, 0xff, 0xff, 0xff, 0x28, 0x00, 0x00, 0x00, 0x02, 0x00, 0x00, 0x00,
  0x00, 0x00, 0x00, 0x28, 0x0c, 0x00, 0x10, 0x00, 0x0f, 0x00, 0x00, 0x00,
  0x08, 0x00, 0x04, 0x00, 0x0c, 0x00, 0x00, 0x00, 0x03, 0x00, 0x00, 0x00,
  0x03, 0x00, 0x00, 0x00, 0x00, 0x00, 0x00, 0x03
};
unsigned int g_magic_wand_model_data_len = 7544;
