unsigned char g_magic_wand_model_data[] = {
  0x1c, 0x00, 0x00, 0x00, 0x54, 0x46, 0x4c, 0x33, 0x14, 0x00, 0x20, 0x00,
  0x1c, 0x00, 0x18, 0x00, 0x14, 0x00, 0x10, 0x00, 0x0c, 0x00, 0x00, 0x00,
  0x08, 0x00, 0x04, 0x00, 0x14, 0x00, 0x00, 0x00, 0x1c, 0x00, 0x00, 0x00,
  0x98, 0x00, 0x00, 0x00, 0x18, 0x01, 0x00, 0x00, 0xf8, 0x08, 0x00, 0x00,
  0x08, 0x09, 0x00, 0x00, 0x0c, 0x15, 0x00, 0x00, 0x03, 0x00, 0x00, 0x00,
  0x01, 0x00, 0x00, 0x00, 0x10, 0x00, 0x00, 0x00, 0x00, 0x00, 0x0a, 0x00,
  0x10, 0x00, 0x0c, 0x00, 0x08, 0x00, 0x04, 0x00, 0x0a, 0x00, 0x00, 0x00,
  0x0c, 0x00, 0x00, 0x00, 0x1c, 0x00, 0x00, 0x00, 0x3c, 0x00, 0x00, 0x00,
  0x0f, 0x00, 0x00, 0x00, 0x73, 0x65, 0x72, 0x76, 0x69, 0x6e, 0x67, 0x5f,
  0x64, 0x65, 0x66, 0x61, 0x75, 0x6c, 0x74, 0x00, 0x01, 0x00, 0x00, 0x00,
  0x04, 0x00, 0x00, 0x00, 0x68, 0xff, 0xff, 0xff, 0x0c, 0x00, 0x00, 0x00,
  0x04, 0x00, 0x00, 0x00, 0x08, 0x00, 0x00, 0x00, 0x6f, 0x75, 0x74, 0x70,
  0x75, 0x74, 0x5f, 0x30, 0x00, 0x00, 0x00, 0x00, 0x01, 0x00, 0x00, 0x00,
  0x04, 0x00, 0x00, 0x00, 0xea, 0xf6, 0xff, 0xff, 0x04, 0x00, 0x00, 0x00,
  0x0c, 0x00, 0x00, 0x00, 0x6b, 0x65, 0x72, 0x61, 0x73, 0x5f, 0x74, 0x65,
  0x6e, 0x73, 0x6f, 0x72, 0x00, 0x00, 0x00, 0x00, 0x03, 0x00, 0x00, 0x00,
  0x5c, 0x00, 0x00, 0x00, 0x2c, 0x00, 0x00, 0x00, 0x04, 0x00, 0x00, 0x00,
  0xb8, 0xff, 0xff, 0xff, 0x10, 0x00, 0x00, 0x00, 0x04, 0x00, 0x00, 0x00,
  0x13, 0x00, 0x00, 0x00, 0x43, 0x4f, 0x4e, 0x56, 0x45, 0x52, 0x53, 0x49,
  0x4f, 0x4e, 0x5f, 0x4d, 0x45, 0x54, 0x41, 0x44, 0x41, 0x54, 0x41, 0x00,
  0xdc, 0xff, 0xff, 0xff, 0x0f, 0x00, 0x00, 0x00, 0x04, 0x00, 0x00, 0x00,
  0x13, 0x00, 0x00, 0x00, 0x6d, 0x69, 0x6e, 0x5f, 0x72, 0x75, 0x6e, 0x74,
  0x69, 0x6d, 0x65, 0x5f, 0x76, 0x65, 0x72, 0x73, 0x69, 0x6f, 0x6e, 0x00,
  0x08, 0x00, 0x0c, 0x00, 0x08, 0x00, 0x04, 0x00, 0x08, 0x00, 0x00, 0x00,
  0x0e, 0x00, 0x00, 0x00, 0x04, 0x00, 0x00, 0x00, 0x13, 0x00, 0x00, 0x00,
  0x6d, 0x69, 0x6e, 0x5f, 0x72, 0x75, 0x6e, 0x74, 0x69, 0x6d, 0x65, 0x5f,
  0x76, 0x65, 0x72, 0x73, 0x69, 0x6f, 0x6e, 0x00, 0x11, 0x00, 0x00, 0x00,
  0xdc, 0x07, 0x00, 0x00, 0xd4, 0x07, 0x00, 0x00, 0xbc, 0x07, 0x00, 0x00,
  0x84, 0x07, 0x00, 0x00, 0xd4, 0x06, 0x00, 0x00, 0x84, 0x06, 0x00, 0x00,
  0xf4, 0x01, 0x00, 0x00, 0xc4, 0x01, 0x00, 0x00, 0xdc, 0x00, 0x00, 0x00,
  0xd4, 0x00, 0x00, 0x00, 0xcc, 0x00, 0x00, 0x00, 0xc4, 0x00, 0x00, 0x00,
  0xbc, 0x00, 0x00, 0x00, 0xb4, 0x00, 0x00, 0x00, 0x94, 0x00, 0x00, 0x00,
  0x74, 0x00, 0x00, 0x00, 0x04, 0x00, 0x00, 0x00, 0xd2, 0xf7, 0xff, 0xff,
  0x04, 0x00, 0x00, 0x00, 0x60, 0x00, 0x00, 0x00, 0x0c, 0x00, 0x00, 0x00,
  0x08, 0x00, 0x0e, 0x00, 0x08, 0x00, 0x04, 0x00, 0x08, 0x00, 0x00, 0x00,
  0x10, 0x00, 0x00, 0x00, 0x28, 0x00, 0x00, 0x00, 0x00, 0x00, 0x06, 0x00,
  0x08, 0x00, 0x04, 0x00, 0x06, 0x00, 0x00, 0x00, 0x04, 0x00, 0x00, 0x00,
  0x01, 0x00, 0x00, 0x00, 0xeb, 0x03, 0x00, 0x00, 0x0c, 0x00, 0x18, 0x00,
  0x14, 0x00, 0x10, 0x00, 0x0c, 0x00, 0x04, 0x00, 0x0c, 0x00, 0x00, 0x00,
  0x9c, 0x8c, 0x3f, 0x71, 0x98, 0x0b, 0xa4, 0x36, 0x02, 0x00, 0x00, 0x00,
  0x02, 0x00, 0x00, 0x00, 0x04, 0x00, 0x00, 0x00, 0x06, 0x00, 0x00, 0x00,
  0x32, 0x2e, 0x31, 0x39, 0x2e, 0x30, 0x00, 0x00, 0x3e, 0xf8, 0xff, 0xff,
  0x04, 0x00, 0x00, 0x00, 0x10, 0x00, 0x00, 0x00, 0x00, 0x00, 0x00, 0x00,
  0x00, 0x00, 0x00, 0x00, 0x00, 0x00, 0x00, 0x00, 0x00, 0x00, 0x00, 0x00,
  0x5a, 0xf8, 0xff, 0xff, 0x04, 0x00, 0x00, 0x00, 0x10, 0x00, 0x00, 0x00,
  0x31, 0x2e, 0x31, 0x34, 0x2e, 0x30, 0x00, 0x00, 0x00, 0x00, 0x00, 0x00,
  0x00, 0x00, 0x00, 0x00, 0xc0, 0xed, 0xff, 0xff, 0xc4, 0xed, 0xff, 0xff,
  0xc8, 0xed, 0xff, 0xff, 0xcc, 0xed, 0xff, 0xff, 0xd0, 0xed, 0xff, 0xff,
  0x8a, 0xf8, 0xff, 0xff, 0x04, 0x00, 0x00, 0x00, 0xd8, 0x00, 0x00, 0x00,
  0xfa, 0xfd, 0x3d, 0x35, 0xd1, 0x34, 0x59, 0xc2, 0x0f, 0x0a, 0xbd, 0xc9,
  0x43, 0xb3, 0x0e, 0x38, 0xfa, 0x24, 0xc6, 0x81, 0x1c, 0x98, 0xe8, 0x3b,
  0xa5, 0xfb, 0x38, 0xdb, 0x03, 0xfa, 0xe8, 0x0d, 0xf9, 0xf4, 0x08, 0xfd,
  0x84, 0x0b, 0x81, 0xef, 0x0a, 0xfb, 0xfc, 0x07, 0xff, 0xe5, 0xdd, 0xfa,
  0x14, 0xe4, 0xc7, 0x18, 0xf9, 0xb8, 0x08, 0x06, 0x08, 0x17, 0xec, 0x18,
  0x1e, 0xde, 0x17, 0x09, 0x00, 0x07, 0x10, 0xfb, 0x1b, 0x23, 0xe2, 0x9d,
  0xfd, 0x0b, 0x19, 0xfd, 0x06, 0x21, 0x1d, 0xef, 0x81, 0x17, 0x10, 0x07,
  0x01, 0xfd, 0x19, 0xc6, 0xd4, 0x1c, 0x09, 0x09, 0xec, 0xfe, 0x0e, 0x0b,
  0xd7, 0xd0, 0x10, 0x03, 0xf7, 0x81, 0x00, 0x21, 0xb4, 0xb8, 0x10, 0xaa,
  0xfb, 0x09, 0x9f, 0xf3, 0x08, 0x09, 0x05, 0xfd, 0x1a, 0x05, 0x05, 0x97,
  0xff, 0x03, 0x0c, 0x0f, 0xfb, 0x1a, 0xfd, 0x06, 0x81, 0x00, 0x05, 0x0a,
  0x02, 0x04, 0x05, 0x0e, 0xf9, 0x11, 0x27, 0xf8, 0x08, 0xf7, 0xee, 0x07,
  0x1e, 0x08, 0xf5, 0x1c, 0x01, 0xfc, 0x81, 0xe9, 0x06, 0x18, 0x03, 0x0b,
  0x03, 0x0c, 0x05, 0x81, 0xf7, 0x06, 0xf8, 0x0b, 0xf3, 0xc9, 0xfa, 0xee,
  0xfa, 0x0c, 0x81, 0x06, 0xfa, 0x0e, 0xe4, 0xe4, 0x24, 0x22, 0xf0, 0xc9,
  0xec, 0x17, 0xd3, 0xa9, 0x10, 0xad, 0x0a, 0xfd, 0xb8, 0xd4, 0x8c, 0xf2,
  0xdd, 0x81, 0xb1, 0xf4, 0xd6, 0x00, 0x13, 0xf7, 0x07, 0x02, 0x16, 0x34,
  0x16, 0xf6, 0x1b, 0x0e, 0x08, 0x11, 0x11, 0x10, 0x29, 0xf3, 0x0d, 0x12,
  0x6e, 0xf9, 0xff, 0xff, 0x04, 0x00, 0x00, 0x00, 0x20, 0x00, 0x00, 0x00,
  0xb0, 0xff, 0xff, 0xff, 0x42, 0xfe, 0xff, 0xff, 0x12, 0xf8, 0xff, 0xff,
  0x4c, 0xef, 0xff, 0xff, 0x40, 0xf6, 0xff, 0xff, 0xb1, 0xf9, 0xff, 0xff,
  0x06, 0xfe, 0xff, 0xff, 0x7e, 0xfd, 0xff, 0xff, 0x9a, 0xf9, 0xff, 0xff,
  0x04, 0x00, 0x00, 0x00, 0x80, 0x04, 0x00, 0x00, 0x36, 0xcc, 0xf7, 0xe0,
  0x16, 0xc9, 0xa9, 0x39, 0x26, 0xda, 0xf3, 0xf7, 0x1f, 0xcd, 0xdb, 0x44,
  0xf6, 0xc6, 0xf2, 0xe9, 0xfb, 0xe1, 0xa8, 0x3d, 0x1f, 0xce, 0xbd, 0xe3,
  0xbb, 0xe9, 0xd5, 0xf0, 0x9a, 0xec, 0xa1, 0x04, 0xab, 0xea, 0xf1, 0x25,
  0x81, 0xb9, 0xab, 0xeb, 0x94, 0xdd, 0xd5, 0x34, 0xe9, 0xe5, 0x8f, 0xa2,
  0x96, 0xb5, 0x93, 0xe9, 0xaf, 0xe9, 0x90, 0x9d, 0x9b, 0xb7, 0xde, 0x18,
  0x93, 0xa3, 0x9e, 0xdc, 0x8e, 0xe4, 0xbf, 0x1c, 0x36, 0x01, 0x1a, 0xe6,
  0xfe, 0xd1, 0xf7, 0x14, 0x6a, 0x00, 0xfd, 0xe2, 0x0a, 0xc4, 0xfa, 0x32,
  0x53, 0x02, 0x06, 0xfc, 0x00, 0xe2, 0x01, 0x31, 0x43, 0xf8, 0x00, 0xca,
  0xda, 0xc2, 0xef, 0x1e, 0x7f, 0xfb, 0xe8, 0xd5, 0xf1, 0xb6, 0xf9, 0x3e,
  0x55, 0x03, 0xd7, 0xd9, 0x00, 0xbc, 0x06, 0x40, 0x2f, 0xea, 0xf7, 0xc4,
  0xe3, 0xbd, 0xd8, 0x00, 0x66, 0x07, 0xdb, 0xd6, 0xf7, 0xbc, 0x02, 0x1d,
  0x2e, 0x0c, 0xbc, 0xf1, 0xf5, 0xb9, 0xfb, 0x22, 0xf9, 0x25, 0xe9, 0x1d,
  0xfe, 0xff, 0x57, 0x0a, 0xfa, 0x1a, 0xdb, 0x29, 0xce, 0x0d, 0x69, 0xff,
  0xe4, 0x04, 0xce, 0x3d, 0xbd, 0x08, 0x37, 0xf2, 0xef, 0x12, 0xda, 0x36,
  0xed, 0xfd, 0x6c, 0x0d, 0xf4, 0x0f, 0xdf, 0x54, 0xc2, 0x08, 0x7f, 0xfc,
  0xf7, 0xff, 0xe0, 0x45, 0xbc, 0x11, 0x4c, 0xe5, 0xef, 0xec, 0xee, 0x2f,
  0xec, 0xff, 0x50, 0x06, 0xf5, 0xee, 0xe6, 0x40, 0xd7, 0x09, 0x67, 0xf1,
  0xdb, 0x02, 0xf1, 0x33, 0xca, 0x10, 0x28, 0xce, 0xdc, 0x3a, 0xfa, 0x0d,
  0xe8, 0x05, 0x00, 0x1d, 0x02, 0x5a, 0x01, 0xfd, 0xd2, 0x14, 0xe7, 0x2f,
  0x0e, 0x1e, 0x05, 0xee, 0xe5, 0x13, 0xd4, 0x1f, 0x01, 0x63, 0xf9, 0xf4,
  0xd2, 0x03, 0xfd, 0x3a, 0x01, 0x7f, 0xfb, 0xd1, 0xb1, 0x0a, 0xcb, 0x54,
  0x0a, 0x35, 0x02, 0xcd, 0xc4, 0xfb, 0xbe, 0x2d, 0xe5, 0x33, 0x01, 0x02,
  0xde, 0xfa, 0xf8, 0x31, 0xf0, 0x62, 0x09, 0xf2, 0xbd, 0xfd, 0xd6, 0x32,
  0xfc, 0x0e, 0x07, 0xe3, 0xda, 0xfb, 0xcb, 0x15, 0xf8, 0xab, 0xc1, 0x87,
  0xb5, 0xe1, 0x07, 0x13, 0xbd, 0xc0, 0xb8, 0xb1, 0xd2, 0xda, 0x4f, 0x1e,
  0xbd, 0x81, 0xbc, 0xc3, 0x95, 0xe7, 0xcf, 0x1b, 0x1f, 0xb5, 0xd0, 0xbe,
  0x26, 0xd7, 0x25, 0x16, 0xeb, 0xce, 0xc0, 0xe2, 0x00, 0xed, 0x44, 0x11,
  0xcd, 0x86, 0xd2, 0xe1, 0xf2, 0xea, 0x29, 0x06, 0x11, 0xc0, 0xa0, 0xc0,
  0x00, 0x98, 0xcf, 0x04, 0xf6, 0xc5, 0xbb, 0xba, 0xd8, 0xc5, 0x0a, 0xfc,
  0xe3, 0x8a, 0xbc, 0xda, 0xb5, 0xea, 0xef, 0xf5, 0xfb, 0x2c, 0xed, 0x19,
  0xfc, 0x19, 0x12, 0xdf, 0xf3, 0x47, 0xf1, 0x23, 0xf0, 0x29, 0x1a, 0xef,
  0x00, 0x3d, 0x04, 0x13, 0xe5, 0x26, 0x00, 0x00, 0xe2, 0x50, 0xce, 0x3a,
  0xf4, 0x19, 0x14, 0xd2, 0xf8, 0x7f, 0xf0, 0x53, 0xcd, 0x4e, 0x34, 0xce,
  0x08, 0x55, 0xfe, 0x34, 0xc4, 0x37, 0x26, 0xf8, 0xda, 0x26, 0xcf, 0x3c,
  0xe8, 0x11, 0x0e, 0xe4, 0xf1, 0x3d, 0xe3, 0x54, 0xc6, 0x30, 0x19, 0xec,
  0xf0, 0x21, 0xef, 0x1f, 0xc6, 0x31, 0x0b, 0xf7, 0xf3, 0xd7, 0x36, 0xd1,
  0x22, 0x08, 0xc5, 0x03, 0xee, 0xde, 0x55, 0xcc, 0x27, 0x00, 0x9e, 0xf4,
  0xfa, 0xe9, 0x2c, 0xcb, 0x11, 0xfd, 0xbe, 0xf0, 0xd2, 0xe7, 0x52, 0xb9,
  0x29, 0x17, 0xd0, 0x04, 0xb7, 0xeb, 0x7f, 0xa1, 0x77, 0x09, 0xb9, 0xf7,
  0xdb, 0xe5, 0x59, 0xa4, 0x4f, 0x09, 0xb8, 0xf2, 0xd3, 0x00, 0x32, 0xd2,
  0x28, 0x10, 0xe2, 0xff, 0xc9, 0x06, 0x51, 0x97, 0x32, 0x13, 0xc1, 0x00,
  0xe7, 0xf3, 0x3d, 0xa9, 0x3e, 0x0a, 0xcf, 0xff, 0xee, 0x2a, 0xfe, 0x24,
  0x0e, 0xff, 0x22, 0xcb, 0xd7, 0x0a, 0xfc, 0x44, 0x0d, 0x0b, 0x4d, 0xce,
  0xd5, 0x0a, 0xe6, 0x3c, 0x05, 0xfb, 0x22, 0xe3, 0xd6, 0x11, 0xfe, 0x6a,
  0x25, 0x00, 0x37, 0xbb, 0xd8, 0x0f, 0x08, 0x7f, 0x32, 0x0f, 0x4e, 0xc8,
  0xda, 0x0f, 0xfb, 0x6d, 0x10, 0xff, 0x36, 0xd7, 0xe3, 0xf3, 0x04, 0x52,
  0x2d, 0x01, 0x22, 0xe4, 0xe5, 0xed, 0x04, 0x74, 0x1e, 0x04, 0x3f, 0xdb,
  0xda, 0x03, 0x01, 0x44, 0x0b, 0xfc, 0x22, 0xd2, 0xbd, 0xba, 0xbb, 0x1c,
  0x22, 0xb7, 0x2b, 0xdb, 0xbb, 0xbe, 0xc8, 0x1a, 0x43, 0xd0, 0x1a, 0xd1,
  0xcb, 0xa7, 0x1e, 0x0d, 0x61, 0xdf, 0x1f, 0xb5, 0x11, 0x9b, 0xe9, 0x0d,
  0x64, 0xbf, 0x30, 0xb7, 0xe9, 0xb0, 0xf5, 0x2b, 0x60, 0xcc, 0xdb, 0xb8,
  0xd4, 0x81, 0x1d, 0x16, 0x4f, 0xcb, 0x1e, 0xa5, 0x25, 0xbf, 0xf6, 0xdc,
  0x6a, 0xb9, 0x18, 0x9a, 0x09, 0x8e, 0x0f, 0xf3, 0x6b, 0xcb, 0xfb, 0xbb,
  0xfa, 0x87, 0x20, 0xee, 0x58, 0xc8, 0x0a, 0xa7, 0xfc, 0xe4, 0x17, 0xe3,
  0x2d, 0x00, 0xe4, 0xf7, 0xf9, 0xe0, 0x1b, 0xd8, 0x4b, 0xf5, 0xd2, 0xf4,
  0x01, 0xe7, 0x09, 0xdf, 0x32, 0xf7, 0xe9, 0x08, 0xe8, 0xe2, 0x20, 0xdb,
  0x48, 0x01, 0xe0, 0xe7, 0x00, 0xd8, 0x30, 0xc1, 0x7f, 0xfe, 0xd6, 0xf3,
  0x02, 0xde, 0x16, 0xcf, 0x59, 0xfb, 0xe4, 0x07, 0xf3, 0xeb, 0x0e, 0xdf,
  0x30, 0x06, 0xf1, 0xf6, 0xfd, 0xf0, 0x1c, 0xc7, 0x54, 0x06, 0xdc, 0xf6,
  0x0b, 0xf4, 0x0c, 0xdd, 0x37, 0x01, 0xee, 0x06, 0x0d, 0xcf, 0x28, 0xe0,
  0x44, 0x06, 0xd5, 0x0c, 0x23, 0xdb, 0x2b, 0xc9, 0x69, 0xe3, 0xac, 0x02,
  0x1f, 0xed, 0x0f, 0xd7, 0x37, 0xee, 0xd6, 0x08, 0x13, 0xc7, 0x37, 0xa7,
  0x50, 0x03, 0xcf, 0x10, 0x43, 0xbf, 0x39, 0x8a, 0x76, 0xf4, 0xca, 0x05,
  0x2e, 0xd6, 0x0b, 0xaa, 0x54, 0xf6, 0xcb, 0x0e, 0x1b, 0xe7, 0x20, 0xbf,
  0x1c, 0x01, 0xe2, 0xff, 0x2e, 0xe7, 0x27, 0x81, 0x3c, 0x03, 0xbb, 0x03,
  0x2a, 0xe3, 0x11, 0xa8, 0x25, 0xfe, 0xc0, 0x0b, 0xf1, 0x24, 0x28, 0xef,
  0x04, 0xee, 0x03, 0xc2, 0xce, 0x24, 0x3d, 0x2a, 0x1c, 0x09, 0x04, 0xb5,
  0xdc, 0x1c, 0x19, 0x1b, 0x11, 0x13, 0x0e, 0xe7, 0xc3, 0x18, 0x48, 0x24,
  0x3e, 0xfd, 0xd9, 0xa9, 0x9e, 0x1a, 0x4c, 0x36, 0x7f, 0x23, 0x04, 0xb5,
  0xc2, 0x2b, 0x27, 0x39, 0x34, 0x16, 0x10, 0xd9, 0xd1, 0x05, 0x10, 0x23,
  0x45, 0xfd, 0x0a, 0xc9, 0xc1, 0x0a, 0x2b, 0x30, 0x57, 0x1c, 0x08, 0xc6,
  0xd8, 0x13, 0x05, 0x2d, 0x32, 0x11, 0x0f, 0xea, 0x01, 0x28, 0x03, 0x09,
  0xfd, 0x1c, 0x03, 0xf2, 0xf8, 0x51, 0xf7, 0x23, 0xf6, 0x27, 0xf1, 0x02,
  0x02, 0x3a, 0x0b, 0x0a, 0xfc, 0x18, 0xe0, 0x0f, 0xef, 0x54, 0xe4, 0x2d,
  0xff, 0x31, 0x02, 0xca, 0xfd, 0x7f, 0xec, 0x3e, 0xed, 0x46, 0xeb, 0xf3,
  0xfb, 0x5d, 0x02, 0x23, 0xf1, 0x2a, 0xfe, 0x0b, 0xf6, 0x22, 0xe0, 0x35,
  0x07, 0x27, 0x0e, 0xe3, 0xf2, 0x4c, 0xe4, 0x3d, 0xe6, 0x37, 0xf8, 0x07,
  0xfe, 0x1e, 0xf9, 0x07, 0xf1, 0x20, 0xf1, 0x0c, 0x0b, 0x33, 0xeb, 0xdc,
  0xc9, 0xeb, 0x03, 0x42, 0x20, 0x37, 0xe6, 0xd3, 0xbd, 0x06, 0xff, 0x59,
  0x14, 0x0b, 0xe4, 0xf6, 0xd3, 0x05, 0xfb, 0x35, 0x23, 0x4d, 0xf3, 0xd5,
  0xcd, 0xea, 0xf8, 0x4d, 0x30, 0x60, 0xe7, 0xd2, 0xae, 0xd8, 0xf4, 0x7f,
  0x37, 0x10, 0xe3, 0xda, 0xb9, 0xe4, 0xf3, 0x49, 0x13, 0x29, 0xf4, 0xe5,
  0xd1, 0xeb, 0xfe, 0x30, 0x31, 0x3a, 0xee, 0xe0, 0xca, 0xd0, 0xf5, 0x47,
  0x17, 0x06, 0xf1, 0xf8, 0xd8, 0xe2, 0xf3, 0x21, 0x0c, 0xb3, 0xb7, 0x89,
  0xa8, 0xc9, 0x9a, 0x10, 0xdc, 0xb8, 0xb0, 0x09, 0x45, 0xb2, 0x42, 0xfd,
  0xf4, 0xa4, 0xd8, 0xd8, 0x1c, 0xdf, 0xc7, 0x06, 0x30, 0xa1, 0xe5, 0xde,
  0x44, 0xcc, 0xde, 0xf9, 0x1d, 0xcb, 0xd0, 0x17, 0x44, 0xdd, 0x6a, 0xf9,
  0xf8, 0x88, 0xce, 0xeb, 0x15, 0xe5, 0xfd, 0xf1, 0x23, 0xce, 0xb9, 0xca,
  0x1b, 0xa1, 0xb4, 0xf3, 0x1d, 0xc0, 0xce, 0xc4, 0xdb, 0xb9, 0x30, 0xeb,
  0xea, 0x81, 0xb9, 0xc7, 0x8a, 0xd3, 0xc9, 0xd2, 0xfe, 0xad, 0xac, 0xd4,
  0xbd, 0xbf, 0xb4, 0xe7, 0xd8, 0xbd, 0xc9, 0x1a, 0x4b, 0xbd, 0x4f, 0xe5,
  0x00, 0xa1, 0xfe, 0xec, 0x31, 0xd7, 0xd0, 0xe4, 0x26, 0xb0, 0xdf, 0xf4,
  0x43, 0xd2, 0xd7, 0xdd, 0x18, 0xc9, 0xe0, 0x2c, 0x65, 0xce, 0x52, 0xd7,
  0x1b, 0x97, 0xe4, 0xfe, 0x24, 0xcb, 0xf5, 0xd2, 0x27, 0xc7, 0xcc, 0xd3,
  0x43, 0xa5, 0xca, 0xd8, 0x21, 0xc0, 0xf4, 0xdb, 0x46, 0xb6, 0x20, 0xb9,
  0xf6, 0x81, 0xbf, 0xdf, 0x82, 0xd3, 0xc5, 0xa8, 0x26, 0xfe, 0xff, 0xff,
  0x04, 0x00, 0x00, 0x00, 0x40, 0x00, 0x00, 0x00, 0xb0, 0x0d, 0x00, 0x00,
  0x50, 0xfe, 0xff, 0xff, 0x17, 0xff, 0xff, 0xff, 0x4f, 0xff, 0xff, 0xff,
  0xd4, 0x0b, 0x00, 0x00, 0xb9, 0xfd, 0xff, 0xff, 0xab, 0xfd, 0xff, 0xff,
  0x3a, 0xff, 0xff, 0xff, 0x9c, 0x09, 0x00, 0x00, 0x40, 0xff, 0xff, 0xff,
  0x58, 0xfe, 0xff, 0xff, 0x93, 0xfe, 0xff, 0xff, 0x1d, 0xfd, 0xff, 0xff,
  0x9f, 0xfe, 0xff, 0xff, 0xb8, 0x0b, 0x00, 0x00, 0xbb, 0x0a, 0x00, 0x00,
  0x72, 0xfe, 0xff, 0xff, 0x04, 0x00, 0x00, 0x00, 0xa0, 0x00, 0x00, 0x00,
  0x81, 0x02, 0x4d, 0x15, 0x86, 0x49, 0x08, 0x42, 0x98, 0xe8, 0xfc, 0x38,
  0x34, 0x13, 0x89, 0x84, 0x08, 0x9a, 0xf9, 0xae, 0x09, 0xf6, 0xe2, 0x0c,
  0x12, 0xe1, 0xc7, 0x04, 0xe2, 0x81, 0x0f, 0x11, 0xfe, 0xfd, 0x03, 0x19,
  0xf5, 0x08, 0xae, 0xf4, 0xf3, 0x81, 0xa9, 0xdb, 0x12, 0x13, 0xf0, 0xef,
  0xe3, 0x4e, 0xcd, 0x24, 0xdd, 0x0a, 0x83, 0x97, 0xd6, 0xa8, 0xd1, 0x81,
  0x05, 0x33, 0xe1, 0xe1, 0xf3, 0xf8, 0x8b, 0xb2, 0xea, 0x81, 0x45, 0xdb,
  0xf9, 0x3b, 0x33, 0x2d, 0xab, 0xac, 0xef, 0xf4, 0xf5, 0x34, 0x81, 0x13,
  0xe9, 0xc3, 0x07, 0x8b, 0xe3, 0xf7, 0x1f, 0xd3, 0xdd, 0x23, 0xf2, 0xe8,
  0xf2, 0x81, 0xf3, 0x0d, 0xf3, 0x0f, 0xd5, 0x0f, 0xf1, 0xd8, 0xbc, 0x16,
  0x26, 0xe2, 0xf0, 0xf4, 0x0b, 0x0d, 0xf7, 0xe3, 0x11, 0xa8, 0xb3, 0xab,
  0x0a, 0xed, 0xec, 0x81, 0x8e, 0x04, 0x0f, 0x0d, 0x89, 0xb0, 0x37, 0x12,
  0xa1, 0x55, 0x65, 0x28, 0x81, 0x1e, 0x2d, 0x2d, 0x50, 0xfd, 0xa1, 0x91,
  0xd7, 0x2e, 0x28, 0x81, 0xd2, 0xce, 0xc5, 0x36, 0xd4, 0xf8, 0x18, 0xd6,
  0xc5, 0xc5, 0xd8, 0xe2, 0x1e, 0xff, 0xff, 0xff, 0x04, 0x00, 0x00, 0x00,
  0x28, 0x00, 0x00, 0x00, 0xe2, 0xab, 0xff, 0xff, 0x2b, 0x03, 0x00, 0x00,
  0xea, 0xf3, 0xff, 0xff, 0x82, 0xd4, 0xff, 0xff, 0xcb, 0xef, 0xff, 0xff,
  0xe9, 0xef, 0xff, 0xff, 0x30, 0xf1, 0xff, 0xff, 0x56, 0x02, 0x00, 0x00,
  0x50, 0x99, 0xff, 0xff, 0x40, 0xc4, 0xff, 0xff, 0x52, 0xff, 0xff, 0xff,
  0x04, 0x00, 0x00, 0x00, 0x08, 0x00, 0x00, 0x00, 0x01, 0x00, 0x00, 0x00,
  0x02, 0x00, 0x00, 0x00, 0xb0, 0xf4, 0xff, 0xff, 0xb4, 0xf4, 0xff, 0xff,
  0x0f, 0x00, 0x00, 0x00, 0x4d, 0x4c, 0x49, 0x52, 0x20, 0x43, 0x6f, 0x6e,
  0x76, 0x65, 0x72, 0x74, 0x65, 0x64, 0x2e, 0x00, 0x01, 0x00, 0x00, 0x00,
  0x14, 0x00, 0x00, 0x00, 0x00, 0x00, 0x0e, 0x00, 0x18, 0x00, 0x14, 0x00,
  0x10, 0x00, 0x0c, 0x00, 0x08, 0x00, 0x04, 0x00, 0x0e, 0x00, 0x00, 0x00,
  0x14, 0x00, 0x00, 0x00, 0x1c, 0x00, 0x00, 0x00, 0x80, 0x01, 0x00, 0x00,
  0x84, 0x01, 0x00, 0x00, 0x88, 0x01, 0x00, 0x00, 0x04, 0x00, 0x00, 0x00,
  0x6d, 0x61, 0x69, 0x6e, 0x00, 0x00, 0x00, 0x00, 0x05, 0x00, 0x00, 0x00,
  0x1c, 0x01, 0x00, 0x00, 0xcc, 0x00, 0x00, 0x00, 0x98, 0x00, 0x00, 0x00,
  0x50, 0x00, 0x00, 0x00, 0x14, 0x00, 0x00, 0x00, 0x00, 0x00, 0x0e, 0x00,
  0x1a, 0x00, 0x14, 0x00, 0x10, 0x00, 0x0c, 0x00, 0x0b, 0x00, 0x04, 0x00,
  0x0e, 0x00, 0x00, 0x00, 0x1c, 0x00, 0x00, 0x00, 0x00, 0x00, 0x00, 0x09,
  0x1c, 0x00, 0x00, 0x00, 0x20, 0x00, 0x00, 0x00, 0x03, 0x00, 0x00, 0x00,
  0x00, 0x00, 0x06, 0x00, 0x08, 0x00, 0x04, 0x00, 0x06, 0x00, 0x00, 0x00,
  0x00, 0x00, 0x80, 0x3f, 0x01, 0x00, 0x00, 0x00, 0x0c, 0x00, 0x00, 0x00,
  0x01, 0x00, 0x00, 0x00, 0x0b, 0x00, 0x00, 0x00, 0xca, 0xff, 0xff, 0xff,
  0x14, 0x00, 0x00, 0x00, 0x00, 0x00, 0x00, 0x08, 0x10, 0x00, 0x00, 0x00,
  0x14, 0x00, 0x00, 0x00, 0x02, 0x00, 0x00, 0x00, 0x80, 0xf5, 0xff, 0xff,
  0x01, 0x00, 0x00, 0x00, 0x0b, 0x00, 0x00, 0x00, 0x03, 0x00, 0x00, 0x00,
  0x0a, 0x00, 0x00, 0x00, 0x03, 0x00, 0x00, 0x00, 0x02, 0x00, 0x00, 0x00,
  0x00, 0x00, 0x0e, 0x00, 0x18, 0x00, 0x14, 0x00, 0x10, 0x00, 0x0c, 0x00,
  0x0b, 0x00, 0x04, 0x00, 0x0e, 0x00, 0x00, 0x00, 0x14, 0x00, 0x00, 0x00,
  0x00, 0x00, 0x00, 0x1b, 0x10, 0x00, 0x00, 0x00, 0x14, 0x00, 0x00, 0x00,
  0x01, 0x00, 0x00, 0x00, 0xc4, 0xf5, 0xff, 0xff, 0x01, 0x00, 0x00, 0x00,
  0x0a, 0x00, 0x00, 0x00, 0x02, 0x00, 0x00, 0x00, 0x09, 0x00, 0x00, 0x00,
  0x01, 0x00, 0x00, 0x00, 0xc2, 0xff, 0xff, 0xff, 0x10, 0x00, 0x00, 0x00,
  0x00, 0x00, 0x00, 0x01, 0x18, 0x00, 0x00, 0x00, 0x1c, 0x00, 0x00, 0x00,
  0xb4, 0xff, 0xff, 0xff, 0x00, 0x00, 0x00, 0x01, 0x02, 0x00, 0x00, 0x00,
  0x02, 0x00, 0x00, 0x00, 0x01, 0x00, 0x00, 0x00, 0x09, 0x00, 0x00, 0x00,
  0x03, 0x00, 0x00, 0x00, 0x08, 0x00, 0x00, 0x00, 0x05, 0x00, 0x00, 0x00,
  0x04, 0x00, 0x00, 0x00, 0x00, 0x00, 0x0e, 0x00, 0x14, 0x00, 0x00, 0x00,
  0x10, 0x00, 0x0c, 0x00, 0x0b, 0x00, 0x04, 0x00, 0x0e, 0x00, 0x00, 0x00,
  0x1c, 0x00, 0x00, 0x00, 0x00, 0x00, 0x00, 0x01, 0x24, 0x00, 0x00, 0x00,
  0x28, 0x00, 0x00, 0x00, 0x0c, 0x00, 0x10, 0x00, 0x00, 0x00, 0x0c, 0x00,
  0x08, 0x00, 0x07, 0x00, 0x0c, 0x00, 0x00, 0x00, 0x00, 0x00, 0x00, 0x01,
  0x02, 0x00, 0x00, 0x00, 0x02, 0x00, 0x00, 0x00, 0x01, 0x00, 0x00, 0x00,
  0x08, 0x00, 0x00, 0x00, 0x03, 0x00, 0x00, 0x00, 0x00, 0x00, 0x00, 0x00,
  0x07, 0x00, 0x00, 0x00, 0x06, 0x00, 0x00, 0x00, 0x01, 0x00, 0x00, 0x00,
  0x0c, 0x00, 0x00, 0x00, 0x01, 0x00, 0x00, 0x00, 0x00, 0x00, 0x00, 0x00,
  0x0d, 0x00, 0x00, 0x00, 0xb8, 0x09, 0x00, 0x00, 0x5c, 0x09, 0x00, 0x00,
  0x74, 0x08, 0x00, 0x00, 0xa0, 0x07, 0x00, 0x00, 0x8c, 0x06, 0x00, 0x00,
  0x68, 0x05, 0x00, 0x00, 0xb4, 0x04, 0x00, 0x00, 0xf0, 0x03, 0x00, 0x00,
  0xcc, 0x02, 0x00, 0x00, 0xa0, 0x01, 0x00, 0x00, 0x14, 0x01, 0x00, 0x00,
  0x80, 0x00, 0x00, 0x00, 0x04, 0x00, 0x00, 0x00, 0x92, 0xf6, 0xff, 0xff,
  0x00, 0x00, 0x00, 0x01, 0x18, 0x00, 0x00, 0x00, 0x20, 0x00, 0x00, 0x00,
  0x3c, 0x00, 0x00, 0x00, 0x0d, 0x00, 0x00, 0x00, 0x00, 0x00, 0x00, 0x09,
  0x50, 0x00, 0x00, 0x00, 0x02, 0x00, 0x00, 0x00, 0xff, 0xff, 0xff, 0xff,
  0x0a, 0x00, 0x00, 0x00, 0x74, 0xf6, 0xff, 0xff, 0x08, 0x00, 0x00, 0x00,
  0x10, 0x00, 0x00, 0x00, 0x01, 0x00, 0x00, 0x00, 0x80, 0xff, 0xff, 0xff,
  0xff, 0xff, 0xff, 0xff, 0x01, 0x00, 0x00, 0x00, 0x00, 0x00, 0x80, 0x3b,
  0x1b, 0x00, 0x00, 0x00, 0x53, 0x74, 0x61, 0x74, 0x65, 0x66, 0x75, 0x6c,
  0x50, 0x61, 0x72, 0x74, 0x69, 0x74, 0x69, 0x6f, 0x6e, 0x65, 0x64, 0x43,
  0x61, 0x6c, 0x6c, 0x5f, 0x31, 0x3a, 0x30, 0x00, 0x02, 0x00, 0x00, 0x00,
  0x01, 0x00, 0x00, 0x00, 0x0a, 0x00, 0x00, 0x00, 0x0a, 0xf7, 0xff, 0xff,
  0x00, 0x00, 0x00, 0x01, 0x18, 0x00, 0x00, 0x00, 0x20, 0x00, 0x00, 0x00,
  0x3c, 0x00, 0x00, 0x00, 0x0c, 0x00, 0x00, 0x00, 0x00, 0x00, 0x00, 0x09,
  0x68, 0x00, 0x00, 0x00, 0x02, 0x00, 0x00, 0x00, 0xff, 0xff, 0xff, 0xff,
  0x0a, 0x00, 0x00, 0x00, 0xec, 0xf6, 0xff, 0xff, 0x08, 0x00, 0x00, 0x00,
  0x10, 0x00, 0x00, 0x00, 0x01, 0x00, 0x00, 0x00, 0x4a, 0x00, 0x00, 0x00,
  0x00, 0x00, 0x00, 0x00, 0x01, 0x00, 0x00, 0x00, 0x3a, 0xa0, 0xaa, 0x3d,
  0x30, 0x00, 0x00, 0x00, 0x74, 0x69, 0x6e, 0x79, 0x5f, 0x32, 0x5f, 0x31,
  0x2f, 0x64, 0x65, 0x6e, 0x73, 0x65, 0x5f, 0x31, 0x2f, 0x4d, 0x61, 0x74,
  0x4d, 0x75, 0x6c, 0x3b, 0x74, 0x69, 0x6e, 0x79, 0x5f, 0x32, 0x5f, 0x31,
  0x2f, 0x64, 0x65, 0x6e, 0x73, 0x65, 0x5f, 0x31, 0x2f, 0x42, 0x69, 0x61,
  0x73, 0x41, 0x64, 0x64, 0x00, 0x00, 0x00, 0x00, 0x02, 0x00, 0x00, 0x00,
  0x01, 0x00, 0x00, 0x00, 0x0a, 0x00, 0x00, 0x00, 0x9a, 0xf7, 0xff, 0xff,
  0x00, 0x00, 0x00, 0x01, 0x18, 0x00, 0x00, 0x00, 0x20, 0x00, 0x00, 0x00,
  0x3c, 0x00, 0x00, 0x00, 0x0b, 0x00, 0x00, 0x00, 0x00, 0x00, 0x00, 0x09,
  0x60, 0x00, 0x00, 0x00, 0x02, 0x00, 0x00, 0x00, 0xff, 0xff, 0xff, 0xff,
  0x10, 0x00, 0x00, 0x00, 0x7c, 0xf7, 0xff, 0xff, 0x08, 0x00, 0x00, 0x00,
  0x10, 0x00, 0x00, 0x00, 0x01, 0x00, 0x00, 0x00, 0x80, 0xff, 0xff, 0xff,
  0xff, 0xff, 0xff, 0xff, 0x01, 0x00, 0x00, 0x00, 0xf2, 0x6e, 0x10, 0x3c,
  0x28, 0x00, 0x00, 0x00, 0x74, 0x69, 0x6e, 0x79, 0x5f, 0x32, 0x5f, 0x31,
  0x2f, 0x67, 0x6c, 0x6f, 0x62, 0x61, 0x6c, 0x5f, 0x61, 0x76, 0x65, 0x72,
  0x61, 0x67, 0x65, 0x5f, 0x70, 0x6f, 0x6f, 0x6c, 0x69, 0x6e, 0x67, 0x32,
  0x64, 0x5f, 0x31, 0x2f, 0x4d, 0x65, 0x61, 0x6e, 0x00, 0x00, 0x00, 0x00,
  0x02, 0x00, 0x00, 0x00, 0x01, 0x00, 0x00, 0x00, 0x10, 0x00, 0x00, 0x00,
  0x22, 0xf8, 0xff, 0xff, 0x00, 0x00, 0x00, 0x01, 0x18, 0x00, 0x00, 0x00,
  0x28, 0x00, 0x00, 0x00, 0x44, 0x00, 0x00, 0x00, 0x0a, 0x00, 0x00, 0x00,
  0x00, 0x00, 0x00, 0x09, 0xf8, 0x00, 0x00, 0x00, 0x04, 0x00, 0x00, 0x00,
  0xff, 0xff, 0xff, 0xff, 0x08, 0x00, 0x00, 0x00, 0x08, 0x00, 0x00, 0x00,
  0x10, 0x00, 0x00, 0x00, 0x0c, 0xf8, 0xff, 0xff, 0x08, 0x00, 0x00, 0x00,
  0x10, 0x00, 0x00, 0x00, 0x01, 0x00, 0x00, 0x00, 0x80, 0xff, 0xff, 0xff,
  0xff, 0xff, 0xff, 0xff, 0x01, 0x00, 0x00, 0x00, 0x0d, 0xad, 0x0b, 0x3e,
  0xbb, 0x00, 0x00, 0x00, 0x74, 0x69, 0x6e, 0x79, 0x5f, 0x32, 0x5f, 0x31,
  0x2f, 0x61, 0x63, 0x74, 0x69, 0x76, 0x61, 0x74, 0x69, 0x6f, 0x6e, 0x5f,
  0x31, 0x5f, 0x32, 0x2f, 0x52, 0x65, 0x6c, 0x75, 0x3b, 0x74, 0x69, 0x6e,
  0x79, 0x5f, 0x32, 0x5f, 0x31, 0x2f, 0x62, 0x61, 0x74, 0x63, 0x68, 0x5f,
  0x6e, 0x6f, 0x72, 0x6d, 0x61, 0x6c, 0x69, 0x7a, 0x61, 0x74, 0x69, 0x6f,
  0x6e, 0x5f, 0x31, 0x5f, 0x32, 0x2f, 0x62, 0x61, 0x74, 0x63, 0x68, 0x6e,
  0x6f, 0x72, 0x6d, 0x2f, 0x61, 0x64, 0x64, 0x5f, 0x31, 0x3b, 0x74, 0x69,
  0x6e, 0x79, 0x5f, 0x32, 0x5f, 0x31, 0x2f, 0x62, 0x61, 0x74, 0x63, 0x68,
  0x5f, 0x6e, 0x6f, 0x72, 0x6d, 0x61, 0x6c, 0x69, 0x7a, 0x61, 0x74, 0x69,
  0x6f, 0x6e, 0x5f, 0x31, 0x5f, 0x32, 0x2f, 0x62, 0x61, 0x74, 0x63, 0x68,
  0x6e, 0x6f, 0x72, 0x6d, 0x2f, 0x6d, 0x75, 0x6c, 0x5f, 0x31, 0x3b, 0x3b,
  0x74, 0x69, 0x6e, 0x79, 0x5f, 0x32, 0x5f, 0x31, 0x2f, 0x63, 0x6f, 0x6e,
  0x76, 0x32, 0x64, 0x5f, 0x31, 0x5f, 0x32, 0x2f, 0x42, 0x69, 0x61, 0x73,
  0x41, 0x64, 0x64, 0x3b, 0x74, 0x69, 0x6e, 0x79, 0x5f, 0x32, 0x5f, 0x31,
  0x2f, 0x63, 0x6f, 0x6e, 0x76, 0x32, 0x64, 0x5f, 0x31, 0x5f, 0x32, 0x2f,
  0x63, 0x6f, 0x6e, 0x76, 0x6f, 0x6c, 0x75, 0x74, 0x69, 0x6f, 0x6e, 0x00,
  0x04, 0x00, 0x00, 0x00, 0x01, 0x00, 0x00, 0x00, 0x08, 0x00, 0x00, 0x00,
  0x08, 0x00, 0x00, 0x00, 0x10, 0x00, 0x00, 0x00, 0x4a, 0xf9, 0xff, 0xff,
  0x00, 0x00, 0x00, 0x01, 0x18, 0x00, 0x00, 0x00, 0x28, 0x00, 0x00, 0x00,
  0x44, 0x00, 0x00, 0x00, 0x09, 0x00, 0x00, 0x00, 0x00, 0x00, 0x00, 0x09,
  0xf0, 0x00, 0x00, 0x00, 0x04, 0x00, 0x00, 0x00, 0xff, 0xff, 0xff, 0xff,
  0x10, 0x00, 0x00, 0x00, 0x10, 0x00, 0x00, 0x00, 0x08, 0x00, 0x00, 0x00,
  0x34, 0xf9, 0xff, 0xff, 0x08, 0x00, 0x00, 0x00, 0x10, 0x00, 0x00, 0x00,
  0x01, 0x00, 0x00, 0x00, 0x80, 0xff, 0xff, 0xff, 0xff, 0xff, 0xff, 0xff,
  0x01, 0x00, 0x00, 0x00, 0x7b, 0xef, 0xd3, 0x3c, 0xb2, 0x00, 0x00, 0x00,
  0x74, 0x69, 0x6e, 0x79, 0x5f, 0x32, 0x5f, 0x31, 0x2f, 0x61, 0x63, 0x74,
  0x69, 0x76, 0x61, 0x74, 0x69, 0x6f, 0x6e, 0x5f, 0x31, 0x2f, 0x52, 0x65,
  0x6c, 0x75, 0x3b, 0x74, 0x69, 0x6e, 0x79, 0x5f, 0x32, 0x5f, 0x31, 0x2f,
  0x62, 0x61, 0x74, 0x63, 0x68, 0x5f, 0x6e, 0x6f, 0x72, 0x6d, 0x61, 0x6c,
  0x69, 0x7a, 0x61, 0x74, 0x69, 0x6f, 0x6e, 0x5f, 0x31, 0x2f, 0x62, 0x61,
  0x74, 0x63, 0x68, 0x6e, 0x6f, 0x72, 0x6d, 0x2f, 0x61, 0x64, 0x64, 0x5f,
  0x31, 0x3b, 0x74, 0x69, 0x6e, 0x79, 0x5f, 0x32, 0x5f, 0x31, 0x2f, 0x62,
  0x61, 0x74, 0x63, 0x68, 0x5f, 0x6e, 0x6f, 0x72, 0x6d, 0x61, 0x6c, 0x69,
  0x7a, 0x61, 0x74, 0x69, 0x6f, 0x6e, 0x5f, 0x31, 0x2f, 0x62, 0x61, 0x74,
  0x63, 0x68, 0x6e, 0x6f, 0x72, 0x6d, 0x2f, 0x6d, 0x75, 0x6c, 0x5f, 0x31,
  0x3b, 0x3b, 0x74, 0x69, 0x6e, 0x79, 0x5f, 0x32, 0x5f, 0x31, 0x2f, 0x63,
  0x6f, 0x6e, 0x76, 0x32, 0x64, 0x5f, 0x31, 0x2f, 0x42, 0x69, 0x61, 0x73,
  0x41, 0x64, 0x64, 0x3b, 0x74, 0x69, 0x6e, 0x79, 0x5f, 0x32, 0x5f, 0x31,
  0x2f, 0x63, 0x6f, 0x6e, 0x76, 0x32, 0x64, 0x5f, 0x31, 0x2f, 0x63, 0x6f,
  0x6e, 0x76, 0x6f, 0x6c, 0x75, 0x74, 0x69, 0x6f, 0x6e, 0x31, 0x00, 0x00,
  0x04, 0x00, 0x00, 0x00, 0x01, 0x00, 0x00, 0x00, 0x10, 0x00, 0x00, 0x00,
  0x10, 0x00, 0x00, 0x00, 0x08, 0x00, 0x00, 0x00, 0xc2, 0xfa, 0xff, 0xff,
  0x00, 0x00, 0x00, 0x01, 0x14, 0x00, 0x00, 0x00, 0x88, 0x00, 0x00, 0x00,
  0x08, 0x00, 0x00, 0x00, 0x00, 0x00, 0x00, 0x09, 0x94, 0x00, 0x00, 0x00,
  0x3c, 0xfa, 0xff, 0xff, 0x08, 0x00, 0x00, 0x00, 0x4c, 0x00, 0x00, 0x00,
  0x08, 0x00, 0x00, 0x00, 0x00, 0x00, 0x00, 0x00, 0x00, 0x00, 0x00, 0x00,
  0x00, 0x00, 0x00, 0x00, 0x00, 0x00, 0x00, 0x00, 0x00, 0x00, 0x00, 0x00,
  0x00, 0x00, 0x00, 0x00, 0x00, 0x00, 0x00, 0x00, 0x00, 0x00, 0x00, 0x00,
  0x00, 0x00, 0x00, 0x00, 0x00, 0x00, 0x00, 0x00, 0x00, 0x00, 0x00, 0x00,
  0x00, 0x00, 0x00, 0x00, 0x00, 0x00, 0x00, 0x00, 0x00, 0x00, 0x00, 0x00,
  0x00, 0x00, 0x00, 0x00, 0x00, 0x00, 0x00, 0x00, 0x00, 0x00, 0x00, 0x00,
  0x08, 0x00, 0x00, 0x00, 0x8d, 0xbb, 0xc1, 0x38, 0x96, 0xe4, 0x8c, 0x39,
  0x5e, 0x28, 0x5e, 0x39, 0x5c, 0x2f, 0x2c, 0x39, 0x9f, 0xf6, 0x6b, 0x39,
  0x1b, 0x70, 0x78, 0x39, 0x7f, 0x0f, 0x7e, 0x39, 0xf0, 0x98, 0xf6, 0x38,
  0x12, 0x00, 0x00, 0x00, 0x74, 0x66, 0x6c, 0x2e, 0x70, 0x73, 0x65, 0x75,
  0x64, 0x6f, 0x5f, 0x71, 0x63, 0x6f, 0x6e, 0x73, 0x74, 0x35, 0x00, 0x00,
  0x04, 0x00, 0x00, 0x00, 0x08, 0x00, 0x00, 0x00, 0x03, 0x00, 0x00, 0x00,
  0x03, 0x00, 0x00, 0x00, 0x03, 0x00, 0x00, 0x00, 0x82, 0xfb, 0xff, 0xff,
  0x00, 0x00, 0x00, 0x01, 0x14, 0x00, 0x00, 0x00, 0x84, 0x00, 0x00, 0x00,
  0x07, 0x00, 0x00, 0x00, 0x00, 0x00, 0x00, 0x02, 0x90, 0x00, 0x00, 0x00,
  0xfc, 0xfa, 0xff, 0xff, 0x08, 0x00, 0x00, 0x00, 0x48, 0x00, 0x00, 0x00,
  0x08, 0x00, 0x00, 0x00, 0x00, 0x00, 0x00, 0x00, 0x00, 0x00, 0x00, 0x00,
  0x00, 0x00, 0x00, 0x00, 0x00, 0x00, 0x00, 0x00, 0x00, 0x00, 0x00, 0x00,
  0x00, 0x00, 0x00, 0x00, 0x00, 0x00, 0x00, 0x00, 0x00, 0x00, 0x00, 0x00,
  0x00, 0x00, 0x00, 0x00, 0x00, 0x00, 0x00, 0x00, 0x00, 0x00, 0x00, 0x00,
  0x00, 0x00, 0x00, 0x00, 0x00, 0x00, 0x00, 0x00, 0x00, 0x00, 0x00, 0x00,
  0x00, 0x00, 0x00, 0x00, 0x00, 0x00, 0x00, 0x00, 0x08, 0x00, 0x00, 0x00,
  0x8d, 0xbb, 0xc1, 0x38, 0x96, 0xe4, 0x8c, 0x39, 0x5e, 0x28, 0x5e, 0x39,
  0x5c, 0x2f, 0x2c, 0x39, 0x9f, 0xf6, 0x6b, 0x39, 0x1b, 0x70, 0x78, 0x39,
  0x7f, 0x0f, 0x7e, 0x39, 0xf0, 0x98, 0xf6, 0x38, 0x12, 0x00, 0x00, 0x00,
  0x74, 0x66, 0x6c, 0x2e, 0x70, 0x73, 0x65, 0x75, 0x64, 0x6f, 0x5f, 0x71,
  0x63, 0x6f, 0x6e, 0x73, 0x74, 0x34, 0x00, 0x00, 0x01, 0x00, 0x00, 0x00,
  0x08, 0x00, 0x00, 0x00, 0x32, 0xfc, 0xff, 0xff, 0x00, 0x00, 0x00, 0x01,
  0x14, 0x00, 0x00, 0x00, 0xe8, 0x00, 0x00, 0x00, 0x06, 0x00, 0x00, 0x00,
  0x00, 0x00, 0x00, 0x09, 0xf4, 0x00, 0x00, 0x00, 0xac, 0xfb, 0xff, 0xff,
  0x08, 0x00, 0x00, 0x00, 0x8c, 0x00, 0x00, 0x00, 0x10, 0x00, 0x00, 0x00,
  0x00, 0x00, 0x00, 0x00, 0x00, 0x00, 0x00, 0x00, 0x00, 0x00, 0x00, 0x00,
  0x00, 0x00, 0x00, 0x00, 0x00, 0x00, 0x00, 0x00, 0x00, 0x00, 0x00, 0x00,
  0x00, 0x00, 0x00, 0x00, 0x00, 0x00, 0x00, 0x00, 0x00, 0x00, 0x00, 0x00,
  0x00, 0x00, 0x00, 0x00, 0x00, 0x00, 0x00, 0x00, 0x00, 0x00, 0x00, 0x00,
  0x00, 0x00, 0x00, 0x00, 0x00, 0x00, 0x00, 0x00, 0x00, 0x00, 0x00, 0x00,
  0x00, 0x00, 0x00, 0x00, 0x00, 0x00, 0x00, 0x00, 0x00, 0x00, 0x00, 0x00,
  0x00, 0x00, 0x00, 0x00, 0x00, 0x00, 0x00, 0x00, 0x00, 0x00, 0x00, 0x00,
  0x00, 0x00, 0x00, 0x00, 0x00, 0x00, 0x00, 0x00, 0x00, 0x00, 0x00, 0x00,
  0x00, 0x00, 0x00, 0x00, 0x00, 0x00, 0x00, 0x00, 0x00, 0x00, 0x00, 0x00,
  0x00, 0x00, 0x00, 0x00, 0x00, 0x00, 0x00, 0x00, 0x00, 0x00, 0x00, 0x00,
  0x00, 0x00, 0x00, 0x00, 0x00, 0x00, 0x00, 0x00, 0x00, 0x00, 0x00, 0x00,
  0x10, 0x00, 0x00, 0x00, 0x0c, 0xf4, 0x2f, 0x3c, 0xba, 0x2d, 0x15, 0x3d,
  0x62, 0xc8, 0x36, 0x3d, 0xa7, 0x9c, 0x57, 0x3d, 0xc7, 0xa9, 0x4d, 0x3c,
  0xe6, 0xf1, 0x09, 0x3d, 0xaa, 0x0e, 0x03, 0x3d, 0xb3, 0x70, 0x23, 0x3d,
  0x1e, 0x47, 0x54, 0x3c, 0x88, 0x1f, 0x53, 0x3d, 0x82, 0xe3, 0x00, 0x3d,
  0xd5, 0x63, 0x11, 0x3d, 0x12, 0x37, 0x14, 0x3d, 0x68, 0x83, 0x25, 0x3d,
  0xe0, 0x36, 0x4e, 0x3c, 0x46, 0xd8, 0x49, 0x3c, 0x12, 0x00, 0x00, 0x00,
  0x74, 0x66, 0x6c, 0x2e, 0x70, 0x73, 0x65, 0x75, 0x64, 0x6f, 0x5f, 0x71,
  0x63, 0x6f, 0x6e, 0x73, 0x74, 0x33, 0x00, 0x00, 0x04, 0x00, 0x00, 0x00,
  0x10, 0x00, 0x00, 0x00, 0x03, 0x00, 0x00, 0x00, 0x03, 0x00, 0x00, 0x00,
  0x08, 0x00, 0x00, 0x00, 0x52, 0xfd, 0xff, 0xff, 0x00, 0x00, 0x00, 0x01,
  0x14, 0x00, 0x00, 0x00, 0xe4, 0x00, 0x00, 0x00, 0x05, 0x00, 0x00, 0x00,
  0x00, 0x00, 0x00, 0x02, 0xf0, 0x00, 0x00, 0x00, 0xcc, 0xfc, 0xff, 0xff,
  0x08, 0x00, 0x00, 0x00, 0x88, 0x00, 0x00, 0x00, 0x10, 0x00, 0x00, 0x00,
  0x00, 0x00, 0x00, 0x00, 0x00, 0x00, 0x00, 0x00, 0x00, 0x00, 0x00, 0x00,
  0x00, 0x00, 0x00, 0x00, 0x00, 0x00, 0x00, 0x00, 0x00, 0x00, 0x00, 0x00,
  0x00, 0x00, 0x00, 0x00, 0x00, 0x00, 0x00, 0x00, 0x00, 0x00, 0x00, 0x00,
  0x00, 0x00, 0x00, 0x00, 0x00, 0x00, 0x00, 0x00, 0x00, 0x00, 0x00, 0x00,
  0x00, 0x00, 0x00, 0x00, 0x00, 0x00, 0x00, 0x00, 0x00, 0x00, 0x00, 0x00,
  0x00, 0x00, 0x00, 0x00, 0x00, 0x00, 0x00, 0x00, 0x00, 0x00, 0x00, 0x00,
  0x00, 0x00, 0x00, 0x00, 0x00, 0x00, 0x00, 0x00, 0x00, 0x00, 0x00, 0x00,
  0x00, 0x00, 0x00, 0x00, 0x00, 0x00, 0x00, 0x00, 0x00, 0x00, 0x00, 0x00,
  0x00, 0x00, 0x00, 0x00, 0x00, 0x00, 0x00, 0x00, 0x00, 0x00, 0x00, 0x00,
  0x00, 0x00, 0x00, 0x00, 0x00, 0x00, 0x00, 0x00, 0x00, 0x00, 0x00, 0x00,
  0x00, 0x00, 0x00, 0x00, 0x00, 0x00, 0x00, 0x00, 0x10, 0x00, 0x00, 0x00,
  0xbf, 0xaa, 0x91, 0x39, 0x7b, 0x00, 0x77, 0x3a, 0x26, 0x52, 0x97, 0x3a,
  0xd0, 0x7f, 0xb2, 0x3a, 0x53, 0x43, 0xaa, 0x39, 0xd7, 0x66, 0x64, 0x3a,
  0x60, 0xff, 0x58, 0x3a, 0xc8, 0x4e, 0x87, 0x3a, 0x32, 0xbd, 0xaf, 0x39,
  0x7d, 0xc8, 0xae, 0x3a, 0x2d, 0x68, 0x55, 0x3a, 0x95, 0xba, 0x70, 0x3a,
  0x15, 0x68, 0x75, 0x3a, 0x24, 0x06, 0x89, 0x3a, 0x23, 0xb8, 0xaa, 0x39,
  0x14, 0x1a, 0xa7, 0x39, 0x12, 0x00, 0x00, 0x00, 0x74, 0x66, 0x6c, 0x2e,
  0x70, 0x73, 0x65, 0x75, 0x64, 0x6f, 0x5f, 0x71, 0x63, 0x6f, 0x6e, 0x73,
  0x74, 0x32, 0x00, 0x00, 0x01, 0x00, 0x00, 0x00, 0x10, 0x00, 0x00, 0x00,
  0x62, 0xfe, 0xff, 0xff, 0x00, 0x00, 0x00, 0x01, 0x14, 0x00, 0x00, 0x00,
  0xa0, 0x00, 0x00, 0x00, 0x04, 0x00, 0x00, 0x00, 0x00, 0x00, 0x00, 0x09,
  0xac, 0x00, 0x00, 0x00, 0xdc, 0xfd, 0xff, 0xff, 0x08, 0x00, 0x00, 0x00,
  0x5c, 0x00, 0x00, 0x00, 0x0a, 0x00, 0x00, 0x00, 0x00, 0x00, 0x00, 0x00,
  0x00, 0x00, 0x00, 0x00, 0x00, 0x00, 0x00, 0x00, 0x00, 0x00, 0x00, 0x00,
  0x00, 0x00, 0x00, 0x00, 0x00, 0x00, 0x00, 0x00, 0x00, 0x00, 0x00, 0x00,
  0x00, 0x00, 0x00, 0x00, 0x00, 0x00, 0x00, 0x00, 0x00, 0x00, 0x00, 0x00,
  0x00, 0x00, 0x00, 0x00, 0x00, 0x00, 0x00, 0x00, 0x00, 0x00, 0x00, 0x00,
  0x00, 0x00, 0x00, 0x00, 0x00, 0x00, 0x00, 0x00, 0x00, 0x00, 0x00, 0x00,
  0x00, 0x00, 0x00, 0x00, 0x00, 0x00, 0x00, 0x00, 0x00, 0x00, 0x00, 0x00,
  0x00, 0x00, 0x00, 0x00, 0x00, 0x00, 0x00, 0x00, 0x0a, 0x00, 0x00, 0x00,
  0x22, 0xf1, 0xdd, 0x3b, 0xe9, 0xbf, 0xe1, 0x3c, 0x07, 0x39, 0x9d, 0x3c,
  0xcd, 0xb2, 0xf8, 0x3b, 0xcd, 0x5f, 0x9b, 0x3c, 0x6d, 0x44, 0x83, 0x3c,
  0xba, 0xe6, 0x73, 0x3c, 0x0f, 0x0f, 0xa1, 0x3c, 0x88, 0x69, 0xc6, 0x3b,
  0x7b, 0xd0, 0xb5, 0x3b, 0x12, 0x00, 0x00, 0x00, 0x74, 0x66, 0x6c, 0x2e,
  0x70, 0x73, 0x65, 0x75, 0x64, 0x6f, 0x5f, 0x71, 0x63, 0x6f, 0x6e, 0x73,
  0x74, 0x31, 0x00, 0x00, 0x02, 0x00, 0x00, 0x00, 0x0a, 0x00, 0x00, 0x00,
  0x10, 0x00, 0x00, 0x00, 0x32, 0xff, 0xff, 0xff, 0x00, 0x00, 0x00, 0x01,
  0x14, 0x00, 0x00, 0x00, 0xa0, 0x00, 0x00, 0x00, 0x03, 0x00, 0x00, 0x00,
  0x00, 0x00, 0x00, 0x02, 0xac, 0x00, 0x00, 0x00, 0xac, 0xfe, 0xff, 0xff,
  0x08, 0x00, 0x00, 0x00, 0x5c, 0x00, 0x00, 0x00, 0x0a, 0x00, 0x00, 0x00,
  0x00, 0x00, 0x00, 0x00, 0x00, 0x00, 0x00, 0x00, 0x00, 0x00, 0x00, 0x00,
  0x00, 0x00, 0x00, 0x00, 0x00, 0x00, 0x00, 0x00, 0x00, 0x00, 0x00, 0x00,
  0x00, 0x00, 0x00, 0x00, 0x00, 0x00, 0x00, 0x00, 0x00, 0x00, 0x00, 0x00,
  0x00, 0x00, 0x00, 0x00, 0x00, 0x00, 0x00, 0x00, 0x00, 0x00, 0x00, 0x00,
  0x00, 0x00, 0x00, 0x00, 0x00, 0x00, 0x00, 0x00, 0x00, 0x00, 0x00, 0x00,
  0x00, 0x00, 0x00, 0x00, 0x00, 0x00, 0x00, 0x00, 0x00, 0x00, 0x00, 0x00,
  0x00, 0x00, 0x00, 0x00, 0x00, 0x00, 0x00, 0x00, 0x00, 0x00, 0x00, 0x00,
  0x0a, 0x00, 0x00, 0x00, 0xa5, 0x6f, 0x7a, 0x38, 0x92, 0xbb, 0x7e, 0x39,
  0x6e, 0x68, 0x31, 0x39, 0x5b, 0x50, 0x8c, 0x38, 0x73, 0x52, 0x2f, 0x39,
  0xc2, 0x1e, 0x14, 0x39, 0x7c, 0x9b, 0x09, 0x39, 0x8a, 0xbc, 0x35, 0x39,
  0xb3, 0xe2, 0x5f, 0x38, 0x21, 0x28, 0x4d, 0x38, 0x11, 0x00, 0x00, 0x00,
  0x74, 0x66, 0x6c, 0x2e, 0x70, 0x73, 0x65, 0x75, 0x64, 0x6f, 0x5f, 0x71,
  0x63, 0x6f, 0x6e, 0x73, 0x74, 0x00, 0x00, 0x00, 0x01, 0x00, 0x00, 0x00,
  0x0a, 0x00, 0x00, 0x00, 0x00, 0x00, 0x16, 0x00, 0x1c, 0x00, 0x18, 0x00,
  0x17, 0x00, 0x10, 0x00, 0x0c, 0x00, 0x08, 0x00, 0x00, 0x00, 0x00, 0x00,
  0x00, 0x00, 0x07, 0x00, 0x16, 0x00, 0x00, 0x00, 0x00, 0x00, 0x00, 0x01,
  0x18, 0x00, 0x00, 0x00, 0x18, 0x00, 0x00, 0x00, 0x02, 0x00, 0x00, 0x00,
  0x00, 0x00, 0x00, 0x02, 0x20, 0x00, 0x00, 0x00, 0x04, 0x00, 0x04, 0x00,
  0x04, 0x00, 0x00, 0x00, 0x0e, 0x00, 0x00, 0x00, 0x61, 0x72, 0x69, 0x74,
  0x68, 0x2e, 0x63, 0x6f, 0x6e, 0x73, 0x74, 0x61, 0x6e, 0x74, 0x00, 0x00,
  0x01, 0x00, 0x00, 0x00, 0x02, 0x00, 0x00, 0x00, 0x00, 0x00, 0x16, 0x00,
  0x20, 0x00, 0x1c, 0x00, 0x1b, 0x00, 0x14, 0x00, 0x10, 0x00, 0x0c, 0x00,
  0x00, 0x00, 0x00, 0x00, 0x08, 0x00, 0x07, 0x00, 0x16, 0x00, 0x00, 0x00,
  0x00, 0x00, 0x00, 0x01, 0x18, 0x00, 0x00, 0x00, 0x34, 0x00, 0x00, 0x00,
  0x50, 0x00, 0x00, 0x00, 0x01, 0x00, 0x00, 0x00, 0x00, 0x00, 0x00, 0x09,
  0x68, 0x00, 0x00, 0x00, 0x04, 0x00, 0x00, 0x00, 0xff, 0xff, 0xff, 0xff,
  0x20, 0x00, 0x00, 0x00, 0x20, 0x00, 0x00, 0x00, 0x03, 0x00, 0x00, 0x00,
  0x0c, 0x00, 0x0c, 0x00, 0x00, 0x00, 0x00, 0x00, 0x08, 0x00, 0x04, 0x00,
  0x0c, 0x00, 0x00, 0x00, 0x08, 0x00, 0x00, 0x00, 0x10, 0x00, 0x00, 0x00,
  0x01, 0x00, 0x00, 0x00, 0x80, 0xff, 0xff, 0xff, 0xff, 0xff, 0xff, 0xff,
  0x01, 0x00, 0x00, 0x00, 0x00, 0x00, 0x80, 0x3f, 0x1e, 0x00, 0x00, 0x00,
  0x73, 0x65, 0x72, 0x76, 0x69, 0x6e, 0x67, 0x5f, 0x64, 0x65, 0x66, 0x61,
  0x75, 0x6c, 0x74, 0x5f, 0x6b, 0x65, 0x72, 0x61, 0x73, 0x5f, 0x74, 0x65,
  0x6e, 0x73, 0x6f, 0x72, 0x3a, 0x30, 0x00, 0x00, 0x04, 0x00, 0x00, 0x00,
  0x01, 0x00, 0x00, 0x00, 0x20, 0x00, 0x00, 0x00, 0x20, 0x00, 0x00, 0x00,
  0x03, 0x00, 0x00, 0x00, 0x04, 0x00, 0x00, 0x00, 0x4c, 0x00, 0x00, 0x00,
  0x2c, 0x00, 0x00, 0x00, 0x18, 0x00, 0x00, 0x00, 0x04, 0x00, 0x00, 0x00,
  0xd0, 0xff, 0xff, 0xff, 0x19, 0x00, 0x00, 0x00, 0x02, 0x00, 0x00, 0x00,
  0x00, 0x00, 0x00, 0x19, 0xe0, 0xff, 0xff, 0xff, 0x09, 0x00, 0x00, 0x00,
  0x04, 0x00, 0x00, 0x00, 0x00, 0x00, 0x00, 0x09, 0xf0, 0xff, 0xff, 0xff,
  0x28, 0x00, 0x00, 0x00, 0x02, 0x00, 0x00, 0x00, 0x00, 0x00, 0x00, 0x28,
  0x0c, 0x00, 0x10, 0x00, 0x0f, 0x00, 0x00, 0x00, 0x08, 0x00, 0x04, 0x00,
  0x0c, 0x00, 0x00, 0x00, 0x03, 0x00, 0x00, 0x00, 0x03, 0x00, 0x00, 0x00,
  0x00, 0x00, 0x00, 0x03
};
unsigned int g_magic_wand_model_data_len = 5536;
